<pad>	0
<unk>	0
<s>	0
</s>	0
——	-0
经济	-1
国家	-2
美国	-3
▁但	-4
一个	-5
20	-6
我们	-7
政府	-8
中国	-9
可能	-10
他们	-11
欧洲	-12
问题	-13
▁这	-14
世界	-15
可以	-16
▁在	-17
政治	-18
政策	-19
全球	-20
没有	-21
这一	-22
增长	-23
已经	-24
主义	-25
需要	-26
这些	-27
其他	-28
如果	-29
因为	-30
市场	-31
以及	-32
银行	-33
金融	-34
投资	-35
社会	-36
必须	-37
欧盟	-38
发展	-39
国际	-40
支持	-41
不是	-42
应该	-43
危机	-44
重要	-45
大的	-46
影响	-47
领导	-48
地区	-49
它们	-50
因此	-51
00	-52
19	-53
通过	-54
货币	-55
事实	-56
所有	-57
200	-58
▁而	-59
认为	-60
总统	-61
这样	-62
民主	-63
尽管	-64
方面	-65
美元	-66
组织	-67
的是	-68
的人	-69
成为	-70
201	-71
提供	-72
计划	-73
无法	-74
▁但是	-75
现在	-76
包括	-77
部分	-78
英国	-79
同时	-80
自己	-81
就是	-82
导致	-83
进行	-84
许多	-85
公司	-86
目标	-87
实现	-88
改革	-89
贸易	-90
情况	-91
增加	-92
开始	-93
解决	-94
欧元	-95
罗斯	-96
能够	-97
如此	-98
自由	-99
债务	-100
正在	-101
德国	-102
人们	-103
日本	-104
▁如果	-105
这个	-106
俄罗斯	-107
安全	-108
的一	-109
事实上	-110
机构	-111
印度	-112
企业	-113
带来	-114
收入	-115
财政	-116
的经济	-117
主要	-118
风险	-119
获得	-120
未来	-121
发生	-122
什么	-123
斯坦	-124
▁当	-125
之间	-126
任何	-127
世纪	-128
一些	-129
长期	-130
行动	-131
结果	-132
伊朗	-133
关系	-134
变化	-135
持续	-136
要求	-137
人的	-138
存在	-139
工作	-140
技术	-141
那些	-142
▁事实上	-143
基础	-144
这种	-145
目前	-146
到了	-147
作为	-148
那么	-149
研究	-150
资本	-151
的国家	-152
年的	-153
生产	-154
性的	-155
以色	-156
以色列	-157
稳定	-158
领导人	-159
利亚	-160
不会	-161
成功	-162
联合	-163
采取	-164
国家的	-165
甚至	-166
造成	-167
更加	-168
▁此	-169
法国	-170
并不	-171
中的	-172
最近	-173
也是	-174
对于	-175
特别	-176
建立	-177
价格	-178
时间	-179
更多	-180
过去	-181
成员	-182
合作	-183
一种	-184
决定	-185
利益	-186
不同	-187
比如	-188
国内	-189
新的	-190
▁我们	-191
这样的	-192
战争	-193
规模	-194
保护	-195
如何	-196
an	-197
并且	-198
十年	-199
er	-200
以来	-201
选择	-202
力的	-203
如今	-204
产生	-205
严重	-206
反对	-207
一直	-208
)。	-209
历史	-210
继续	-211
教育	-212
挑战	-213
面临	-214
只有	-215
希望	-216
▁因此	-217
意味	-218
公共	-219
央行	-220
拉克	-221
能源	-222
▁此外	-223
出现	-224
行为	-225
作用	-226
威胁	-227
他们的	-228
水平	-229
on	-230
美国的	-231
西方	-232
同样	-233
意味着	-234
利率	-235
国的	-236
来说	-237
环境	-238
协议	-239
选举	-240
气候	-241
令人	-242
生活	-243
措施	-244
方案	-245
成本	-246
表明	-247
希腊	-248
部门	-249
不能	-250
DP	-251
实际	-252
竞争	-253
实施	-254
战略	-255
最终	-256
下降	-257
似乎	-258
机会	-259
拥有	-260
人民	-261
上的	-262
消费	-263
特朗	-264
亿美元	-265
提高	-266
GDP	-267
欧元区	-268
的问题	-269
制度	-270
原因	-271
使用	-272
伊斯	-273
学家	-274
特朗普	-275
系统	-276
接受	-277
),	-278
控制	-279
”。	-280
还是	-281
伊斯兰	-282
▁尽管	-283
能力	-284
亚洲	-285
需求	-286
或者	-287
时候	-288
资产	-289
多数	-290
不仅	-291
他的	-292
谈判	-293
基金	-294
是否	-295
服务	-296
为了	-297
方式	-298
改变	-299
和平	-300
不可	-301
巴马	-302
一步	-303
冲突	-304
随着	-305
▁美国	-306
承诺	-307
奥巴马	-308
联盟	-309
程度	-310
特别是	-311
阿拉	-312
外交	-313
0%	-314
关键	-315
而且	-316
资源	-317
仍然	-318
有效	-319
军事	-320
的政治	-321
体系	-322
来自	-323
非洲	-324
管理	-325
非常	-326
减少	-327
降低	-328
委员	-329
资金	-330
一样	-331
从而	-332
ar	-333
人口	-334
是一个	-335
联合国	-336
伊拉克	-337
得到	-338
价值	-339
共同	-340
而不是	-341
其中	-342
的情况	-343
由于	-344
几乎	-345
真正	-346
en	-347
▁”	-348
受到	-349
▁这一	-350
▁这些	-351
监管	-352
即使	-353
力量	-354
叙利亚	-355
阿拉伯	-356
各国	-357
一次	-358
还有	-359
劳动	-360
大部分	-361
经济体	-362
重新	-363
委员会	-364
完全	-365
项目	-366
类似	-367
自己的	-368
和其他	-369
就业	-370
考虑	-371
那样	-372
年代	-373
土耳	-374
的最	-375
出了	-376
出口	-377
虽然	-378
土耳其	-379
创造	-380
观点	-381
有可能	-382
因素	-383
决策	-384
▁与	-385
中国的	-386
石油	-387
移民	-388
也许	-389
不断	-390
相反	-391
者的	-392
保持	-393
参与	-394
之一	-395
▁他们	-396
出的	-397
确保	-398
来越	-399
进一步	-400
越来越	-401
援助	-402
变得	-403
in	-404
帮助	-405
某些	-406
化的	-407
▁不	-408
避免	-409
自身	-410
结构	-411
地方	-412
as	-413
破坏	-414
”,	-415
设施	-416
基本	-417
都是	-418
责任	-419
之间的	-420
超过	-421
贷款	-422
领域	-423
恐怖	-424
运动	-425
中东	-426
活动	-427
将会	-428
关注	-429
赤字	-430
利用	-431
权力	-432
的大	-433
根本	-434
了一	-435
好的	-436
发达	-437
巴勒	-438
武器	-439
今天	-440
巴勒斯坦	-441
al	-442
民族	-443
模式	-444
限制	-445
平等	-446
制定	-447
起来	-448
地位	-449
条件	-450
取得	-451
数据	-452
关于	-453
过程	-454
个人	-455
失业	-456
表现	-457
具有	-458
只是	-459
公民	-460
知道	-461
方法	-462
%。	-463
199	-464
ti	-465
民众	-466
现实	-467
但是	-468
法律	-469
很多	-470
改善	-471
在于	-472
独立	-473
刺激	-474
城市	-475
通胀	-476
成员国	-477
努力	-478
的新	-479
▁对	-480
发展中	-481
危险	-482
家庭	-483
传统	-484
贫困	-485
的话	-486
会议	-487
联储	-488
结束	-489
相当	-490
大量	-491
革命	-492
支出	-493
000	-494
预算	-495
推动	-496
维持	-497
状况	-498
共和	-499
美联储	-500
▁从	-501
首先	-502
重要的	-503
私人	-504
信息	-505
▁他	-506
就会	-507
▁中国	-508
事件	-509
朝鲜	-510
的政策	-511
应对	-512
▁当然	-513
气候变化	-514
的影响	-515
而是	-516
两个	-517
医疗	-518
至少	-519
当前	-520
时代	-521
健康	-522
相关	-523
之后	-524
▁欧洲	-525
上述	-526
全世界	-527
整个	-528
最后	-529
繁荣	-530
or	-531
创新	-532
显然	-533
巨大的	-534
发现	-535
新兴	-536
尼亚	-537
可能会	-538
直接	-539
成了	-540
债券	-541
克兰	-542
而言	-543
第二	-544
规则	-545
确定	-546
这是	-547
基础设施	-548
上升	-549
代表	-550
乌克兰	-551
压力	-552
试图	-553
税收	-554
%,	-555
及其	-556
极端	-557
我们的	-558
是在	-559
错误	-560
报告	-561
政权	-562
平衡	-563
机制	-564
相对	-565
人类	-566
尤其	-567
巴基	-568
经济增长	-569
埃及	-570
巴基斯坦	-571
用于	-572
日益	-573
公众	-574
之前	-575
▁比如	-576
▁我	-577
可持续	-578
根据	-579
才能	-580
此同时	-581
必要	-582
2008	-583
或许	-584
▁其	-585
穆斯	-586
的情况下	-587
官员	-588
陷入	-589
所谓	-590
穆斯林	-591
标准	-592
▁如今	-593
投资者	-594
选民	-595
不再	-596
制造	-597
证明	-598
担心	-599
做出	-600
识到	-601
更为	-602
主权	-603
衰退	-604
文化	-605
失败	-606
科学	-607
意大	-608
依然	-609
总理	-610
后果	-611
布什	-612
的时候	-613
意义	-614
意大利	-615
理解	-616
交易	-617
产品	-618
金融危机	-619
扩大	-620
不可能	-621
明确	-622
现代	-623
50	-624
一场	-625
商品	-626
流动	-627
唯一	-628
经济的	-629
难民	-630
达到	-631
反应	-632
进步	-633
难以	-634
▁有	-635
30	-636
爆发	-637
来的	-638
10	-639
普京	-640
拒绝	-641
大规模	-642
解释	-643
预测	-644
商业	-645
并没有	-646
政府的	-647
进入	-648
经济学家	-649
相信	-650
依赖	-651
十分	-652
es	-653
分子	-654
权利	-655
ash	-656
今年	-657
内部	-658
引发	-659
更多的	-660
有的	-661
核心	-662
融资	-663
大多数	-664
▁它	-665
理由	-666
▁S	-667
并非	-668
60	-669
达成	-670
然而	-671
劳动力	-672
暴力	-673
比亚	-674
领袖	-675
损失	-676
宗教	-677
行的	-678
问题的	-679
统治	-680
排放	-681
这一点	-682
▁相反	-683
外国	-684
手段	-685
个月	-686
指出	-687
有所	-688
承认	-689
缺乏	-690
削减	-691
不足	-692
儿童	-693
针对	-694
;&	-695
愿意	-696
调整	-697
年前	-698
md	-699
每年	-700
只能	-701
工业	-702
年轻	-703
,“	-704
正确	-705
讨论	-706
mdash	-707
准备	-708
视为	-709
MF	-710
重大	-711
数字	-712
主义者	-713
媒体	-714
复杂	-715
工资	-716
时期	-717
的全球	-718
范围	-719
面对	-720
期间	-721
正如	-722
阻止	-723
伙伴	-724
后的	-725
积极	-726
广泛	-727
议会	-728
趋势	-729
干预	-730
复苏	-731
进程	-732
短期	-733
IMF	-734
不到	-735
应当	-736
容易	-737
加入	-738
大学	-739
带来的	-740
袭击	-741
阿富	-742
允许	-743
灾难	-744
主义的	-745
阿富汗	-746
网络	-747
形成	-748
发展中国家	-749
政策的	-750
数量	-751
去年	-752
无论	-753
财富	-754
年来	-755
也不	-756
建设	-757
巴西	-758
条约	-759
储蓄	-760
协定	-761
汇率	-762
欧洲央行	-763
..	-764
经历	-765
原则	-766
宣布	-767
共和党	-768
下的	-769
一位	-770
▁与此同时	-771
知识	-772
大幅	-773
吸引	-774
自然	-775
地区的	-776
毫无	-777
高的	-778
欧洲的	-779
开发	-780
充分	-781
中央	-782
方面的	-783
将在	-784
了一个	-785
集团	-786
开放	-787
仅仅	-788
代价	-789
调查	-790
紧缩	-791
过度	-792
往往	-793
迅速	-794
不平等	-795
▁C	-796
第三	-797
快速	-798
实际上	-799
联系	-800
办法	-801
促进	-802
某种	-803
▁虽然	-804
▁首先	-805
一致	-806
道德	-807
最大的	-808
失去	-809
沙特	-810
反映	-811
▁然而	-812
11	-813
腐败	-814
主席	-815
足够	-816
并不是	-817
合法	-818
平均	-819
它们的	-820
经常	-821
之外	-822
恢复	-823
投票	-824
韩国	-825
12	-826
购买	-827
女性	-828
行业	-829
联邦	-830
承担	-831
有关	-832
通常	-833
显示	-834
保证	-835
感到	-836
,000	-837
好处	-838
的支持	-839
一项	-840
政党	-841
纽约	-842
预期	-843
ic	-844
正是	-845
疾病	-846
宪法	-847
市场的	-848
墨西	-849
形式	-850
墨西哥	-851
所以	-852
助于	-853
▁现在	-854
在一	-855
西班	-856
合理	-857
工人	-858
目的	-859
多的	-860
西班牙	-861
潜在	-862
赢得	-863
部长	-864
提出	-865
治理	-866
is	-867
确实	-868
工具	-869
有利	-870
巨大	-871
el	-872
批评	-873
死亡	-874
简单	-875
收益	-876
困难	-877
基于	-878
it	-879
即便	-880
除了	-881
军队	-882
卫生	-883
两国	-884
中心	-885
程度上	-886
国会	-887
引起	-888
支付	-889
加强	-890
再次	-891
崩溃	-892
曾经	-893
立场	-894
▁随着	-895
公开	-896
▁“	-897
思想	-898
美国和	-899
5%	-900
角色	-901
国际货币	-902
为什么	-903
分析	-904
经验	-905
鼓励	-906
储备	-907
:“	-908
态度	-909
评估	-910
理论	-911
处于	-912
执行	-913
效果	-914
美国人	-915
也会	-916
生产率	-917
寻求	-918
基金组织	-919
精神	-920
它的	-921
建议	-922
货币政策	-923
另一个	-924
的方式	-925
的社会	-926
看到	-927
的主要	-928
任务	-929
优势	-930
生物	-931
也有	-932
am	-933
▁这种	-934
强调	-935
打击	-936
事情	-937
扩张	-938
福利	-939
转移	-940
经济学	-941
▁P	-942
人都	-943
的不	-944
肯定	-945
▁该	-946
遏制	-947
妇女	-948
毕竟	-949
苏联	-950
速度	-951
2010	-952
坚持	-953
▁一	-954
只要	-955
决策者	-956
农业	-957
全球经济	-958
追求	-959
想要	-960
生命	-961
其他国家	-962
候选	-963
不管	-964
集中	-965
成立	-966
本身	-967
这场	-968
发达国家	-969
伦敦	-970
全面	-971
供应	-972
完成	-973
崛起	-974
框架	-975
例子	-976
外部	-977
的信	-978
198	-979
转变	-980
明显	-981
是因为	-982
▁更	-983
国民	-984
实力	-985
的政府	-986
保险	-987
效率	-988
防止	-989
tion	-990
表示	-991
东西	-992
人员	-993
所谓的	-994
的风险	-995
”(	-996
第一	-997
全球化	-998
公平	-999
很大	-1000
核武器	-1001
担忧	-1002
情绪	-1003
动荡	-1004
另一	-1005
国际社会	-1006
更大的	-1007
民粹	-1008
贬值	-1009
15	-1010
处理	-1011
▁由于	-1012
认识到	-1013
同意	-1014
的目标	-1015
执政	-1016
▁为了	-1017
人权	-1018
治疗	-1019
群体	-1020
和经济	-1021
大约	-1022
使得	-1023
秩序	-1024
比例	-1025
削弱	-1026
基因	-1027
百万	-1028
il	-1029
统一	-1030
证据	-1031
的结果	-1032
负债	-1033
少数	-1034
真正的	-1035
▁A	-1036
分配	-1037
的增长	-1038
当局	-1039
组成	-1040
▁这样	-1041
有助于	-1042
当时	-1043
共产	-1044
怀疑	-1045
专家	-1046
种族	-1047
逐渐	-1048
的一个	-1049
国际货币基金组织	-1050
re	-1051
放弃	-1052
满足	-1053
造成的	-1054
问题上	-1055
相比	-1056
俄国	-1057
策略	-1058
70	-1059
天然	-1060
膨胀	-1061
进口	-1062
犹太	-1063
▁发	-1064
例如	-1065
区域	-1066
找到	-1067
燃料	-1068
▁毕竟	-1069
就像	-1070
可能性	-1071
保守	-1072
转型	-1073
增长的	-1074
民主党	-1075
一定	-1076
做法	-1077
at	-1078
马斯	-1079
状态	-1080
的欧洲	-1081
退出	-1082
▁M	-1083
将是	-1084
都会	-1085
也在	-1086
意识	-1087
补贴	-1088
前景	-1089
胜利	-1090
很难	-1091
制裁	-1092
失业率	-1093
分裂	-1094
强化	-1095
其实	-1096
常常	-1097
▁结果	-1098
ro	-1099
系列	-1100
▁目前	-1101
现象	-1102
北约	-1103
一切	-1104
和政治	-1105
2009	-1106
利润	-1107
正式	-1108
加剧	-1109
2015	-1110
各种	-1111
独裁	-1112
普遍	-1113
▁许多	-1114
巴黎	-1115
大选	-1116
政客	-1117
恶化	-1118
负担	-1119
的原因	-1120
冲击	-1121
强大的	-1122
解决方案	-1123
具体	-1124
的世界	-1125
的美国	-1126
值得	-1127
▁发自	-1128
规定	-1129
18	-1130
糟糕	-1131
事务	-1132
峰会	-1133
的重要	-1134
▁最后	-1135
也没有	-1136
债权	-1137
回报	-1138
消费者	-1139
技能	-1140
观察	-1141
▁欧盟	-1142
1.	-1143
不得	-1144
宽松	-1145
严重的	-1146
该国	-1147
斗争	-1148
通货	-1149
远远	-1150
需要的	-1151
竞选	-1152
▁一个	-1153
立法	-1154
人民币	-1155
体制	-1156
克里	-1157
清楚	-1158
二十	-1159
波兰	-1160
方向	-1161
最高	-1162
▁即使	-1163
了解	-1164
迫使	-1165
争论	-1166
宏观	-1167
得多	-1168
注意	-1169
年中	-1170
并未	-1171
永远	-1172
进展	-1173
精英	-1174
▁对于	-1175
提供了	-1176
工程	-1177
设计	-1178
负责	-1179
2012	-1180
人士	-1181
左右	-1182
▁而且	-1183
总体	-1184
道路	-1185
真实	-1186
角度	-1187
也就是	-1188
在美国	-1189
势力	-1190
不同的	-1191
人和	-1192
则是	-1193
的高	-1194
泡沫	-1195
局面	-1196
的那样	-1197
▁但这	-1198
2011	-1199
即将	-1200
增长率	-1201
提升	-1202
的关键	-1203
官方	-1204
贡献	-1205
障碍	-1206
天然气	-1207
25	-1208
不过	-1209
▁同样	-1210
为止	-1211
候选人	-1212
的国际	-1213
发挥	-1214
团结	-1215
的对	-1216
om	-1217
不但	-1218
激励	-1219
而非	-1220
重要的是	-1221
看来	-1222
▁它们	-1223
个国家	-1224
▁5	-1225
也将	-1226
新闻	-1227
见的	-1228
华盛	-1229
华盛顿	-1230
▁R	-1231
停滞	-1232
总是	-1233
投入	-1234
相互	-1235
至关	-1236
的能力	-1237
这样做	-1238
正常	-1239
武装	-1240
为何	-1241
阶级	-1242
th	-1243
在过去	-1244
内的	-1245
年以来	-1246
信心	-1247
岗位	-1248
脆弱	-1249
▁最	-1250
显著	-1251
有着	-1252
ac	-1253
共识	-1254
学生	-1255
质量	-1256
食品	-1257
和社会	-1258
下跌	-1259
可以在	-1260
双方	-1261
ol	-1262
局势	-1263
很快	-1264
符合	-1265
多少	-1266
美国总统	-1267
空间	-1268
取决	-1269
尔德	-1270
欧盟的	-1271
当今	-1272
取决于	-1273
有效的	-1274
土地	-1275
想象	-1276
类似的	-1277
彻底	-1278
2013	-1279
效应	-1280
阶段	-1281
本国	-1282
情况下	-1283
银行的	-1284
欢迎	-1285
▁但在	-1286
互联	-1287
90	-1288
盟友	-1289
考虑到	-1290
变革	-1291
否则	-1292
竞争力	-1293
面临着	-1294
产业	-1295
▁要	-1296
从未	-1297
孩子	-1298
是对	-1299
有人	-1300
▁世界	-1301
几十年	-1302
依靠	-1303
领土	-1304
禁止	-1305
之中	-1306
信用	-1307
呼吁	-1308
巴嫩	-1309
称为	-1310
黎巴嫩	-1311
接近	-1312
最大	-1313
和美国	-1314
金融市场	-1315
法院	-1316
消息	-1317
教训	-1318
计算	-1319
不仅仅	-1320
流动性	-1321
停止	-1322
▁自	-1323
而不	-1324
方针	-1325
当地	-1326
幸的是	-1327
直到	-1328
还要	-1329
前的	-1330
信任	-1331
忽视	-1332
替代	-1333
都在	-1334
更好	-1335
身份	-1336
结构性	-1337
一体	-1338
预计	-1339
塞尔	-1340
当选	-1341
破产	-1342
哈马斯	-1343
后者	-1344
ent	-1345
退休	-1346
2014	-1347
▁G	-1348
克林	-1349
2007	-1350
外交政策	-1351
▁F	-1352
对其	-1353
有些	-1354
所有这些	-1355
充满	-1356
▁因为	-1357
分之一	-1358
尤其是	-1359
对此	-1360
透明	-1361
160	-1362
▁B	-1363
但却	-1364
紧张	-1365
最近的	-1366
过程中	-1367
推进	-1368
的机会	-1369
大国	-1370
强烈	-1371
氧化	-1372
汽车	-1373
遭到	-1374
利比亚	-1375
估计	-1376
攻击	-1377
这类	-1378
通货膨胀	-1379
学校	-1380
的基础	-1381
更大	-1382
万亿美元	-1383
面临的	-1384
ation	-1385
大大	-1386
出现了	-1387
地产	-1388
旨在	-1389
普通	-1390
激进	-1391
摆脱	-1392
除非	-1393
协调	-1394
地球	-1395
有限	-1396
安倍	-1397
警告	-1398
主导	-1399
首相	-1400
197	-1401
采用	-1402
新兴市场	-1403
怎样	-1404
年轻人	-1405
也可以	-1406
以上	-1407
伤害	-1408
自身的	-1409
就能	-1410
被迫	-1411
ed	-1412
▁(	-1413
发表	-1414
程序	-1415
重组	-1416
自我	-1417
萧条	-1418
差异	-1419
指责	-1420
真的	-1421
互联网	-1422
供给	-1423
是一	-1424
痛苦	-1425
100	-1426
寻找	-1427
未能	-1428
要么	-1429
单一	-1430
社区	-1431
批准	-1432
右翼	-1433
而易	-1434
#160	-1435
开支	-1436
遭受	-1437
阻碍	-1438
取代	-1439
现有	-1440
不确定	-1441
恐怖主义	-1442
概念	-1443
约束	-1444
转向	-1445
世界上	-1446
克尔	-1447
分歧	-1448
波动	-1449
民族主义	-1450
当然	-1451
说法	-1452
and	-1453
适应	-1454
该地区	-1455
民粹主义	-1456
在这	-1457
带来了	-1458
消除	-1459
更好的	-1460
发动	-1461
多样	-1462
股票	-1463
质疑	-1464
长的	-1465
▁人们	-1466
上涨	-1467
的一部分	-1468
格兰	-1469
▁那么	-1470
出来	-1471
世界的	-1472
发生的	-1473
》(	-1474
周期	-1475
正确的	-1476
部队	-1477
药物	-1478
的观点	-1479
0.	-1480
团体	-1481
对手	-1482
低于	-1483
那就是	-1484
边境	-1485
那里	-1486
ou	-1487
取消	-1488
增强	-1489
在未来	-1490
▁新	-1491
提振	-1492
是不	-1493
比较	-1494
言论	-1495
的行为	-1496
保障	-1497
来源	-1498
▁根据	-1499
▁正如	-1500
生存	-1501
二氧化	-1502
举行	-1503
疑问	-1504
严格	-1505
将其	-1506
的前	-1507
▁政府	-1508
层面	-1509
性和	-1510
)、	-1511
邻国	-1512
相当于	-1513
2.	-1514
争议	-1515
在其	-1516
得以	-1517
不得不	-1518
的反	-1519
几个	-1520
混乱	-1521
的确	-1522
伊斯兰教	-1523
这意味着	-1524
▁类似	-1525
年后	-1526
有一	-1527
另外	-1528
成就	-1529
集体	-1530
有利于	-1531
凯恩	-1532
实行	-1533
差距	-1534
最为	-1535
签署	-1536
随后	-1537
增加了	-1538
受益	-1539
并在	-1540
二氧化碳	-1541
▁D	-1542
双边	-1543
答案	-1544
美洲	-1545
导致了	-1546
得到了	-1547
让我们	-1548
包容	-1549
阿根	-1550
获得了	-1551
et	-1552
学习	-1553
扮演	-1554
相同	-1555
多边	-1556
量的	-1557
造成了	-1558
▁)	-1559
担任	-1560
指数	-1561
明白	-1562
盈余	-1563
的财政	-1564
阿根廷	-1565
中央银行	-1566
80	-1567
▁20	-1568
司法	-1569
然后	-1570
克林顿	-1571
变暖	-1572
左翼	-1573
帝国	-1574
过于	-1575
一直在	-1576
今天的	-1577
内容	-1578
属于	-1579
自由贸易	-1580
指标	-1581
▁没有	-1582
的研究	-1583
房地产	-1584
ch	-1585
二战	-1586
所带来的	-1587
背景	-1588
提出了	-1589
的投资	-1590
▁I	-1591
官僚	-1592
▁一些	-1593
▁德国	-1594
不应该	-1595
报道	-1596
由此	-1597
倾向	-1598
▁作为	-1599
乐观	-1600
重点	-1601
40	-1602
力于	-1603
尔兰	-1604
成果	-1605
缺少	-1606
逊尼	-1607
▁这个	-1608
三个	-1609
富裕	-1610
温和	-1611
▁英国	-1612
影响力	-1613
显而易	-1614
重建	-1615
▁这是	-1616
反对派	-1617
爱尔兰	-1618
辩论	-1619
意识到	-1620
困境	-1621
意愿	-1622
监督	-1623
以前	-1624
地缘	-1625
强大	-1626
这项	-1627
大陆	-1628
的同时	-1629
放缓	-1630
管制	-1631
鉴于	-1632
告诉	-1633
科技	-1634
都有	-1635
le	-1636
者们	-1637
危机的	-1638
可以通过	-1639
矛盾	-1640
金融机构	-1641
其它	-1642
可靠	-1643
安排	-1644
而这	-1645
致力于	-1646
之下	-1647
加速	-1648
滋病	-1649
量化	-1650
可能是	-1651
ad	-1652
什叶	-1653
假设	-1654
升值	-1655
基地	-1656
尔多	-1657
理会	-1658
电视	-1659
的发展	-1660
形态	-1661
▁据	-1662
持有	-1663
高达	-1664
全部	-1665
我的	-1666
理想	-1667
生活在	-1668
of	-1669
▁T	-1670
恐惧	-1671
至于	-1672
发生了	-1673
▁类似地	-1674
▁不幸的是	-1675
取得了	-1676
艾滋病	-1677
▁但如果	-1678
感觉	-1679
时刻	-1680
的可能性	-1681
45	-1682
法案	-1683
理念	-1684
需的	-1685
▁就	-1686
定的	-1687
德里	-1688
走向	-1689
违约	-1690
足以	-1691
同样的	-1692
捍卫	-1693
▁通过	-1694
可持续发展	-1695
宣称	-1696
抗议	-1697
日程	-1698
的民主	-1699
下去	-1700
发布	-1701
很少	-1702
机器	-1703
议院	-1704
提出的	-1705
众多	-1706
国有	-1707
妥协	-1708
思维	-1709
维亚	-1710
定义	-1711
才是	-1712
疫苗	-1713
给予	-1714
者和	-1715
价值观	-1716
与其	-1717
▁只有	-1718
逊尼派	-1719
犯罪	-1720
衡量	-1721
贫穷	-1722
产生的	-1723
缺陷	-1724
都不	-1725
会在	-1726
特征	-1727
特别是在	-1728
10%	-1729
就必须	-1730
记录	-1731
什叶派	-1732
毫无疑问	-1733
全国	-1734
拯救	-1735
毫不	-1736
访问	-1737
2005	-1738
深刻	-1739
粮食	-1740
地缘政治	-1741
加沙	-1742
扩散	-1743
杠杆	-1744
污染	-1745
缅甸	-1746
缓慢	-1747
安理会	-1748
许多人	-1749
还没有	-1750
具备	-1751
所未	-1752
”——	-1753
▁纽约	-1754
两大	-1755
克服	-1756
对抗	-1757
所需要的	-1758
沙特阿拉伯	-1759
党派	-1760
启动	-1761
实验	-1762
油价	-1763
示威	-1764
遭遇	-1765
公司的	-1766
思考	-1767
意识形态	-1768
信贷	-1769
构建	-1770
危险的	-1771
17	-1772
账户	-1773
发达经济体	-1774
事会	-1775
明智	-1776
说明	-1777
足够的	-1778
展开	-1779
的改革	-1780
冷战	-1781
奇怪	-1782
几年	-1783
的核心	-1784
世界银行	-1785
农民	-1786
结论	-1787
表达	-1788
▁印度	-1789
占领	-1790
掌握	-1791
的计划	-1792
▁2	-1793
损害	-1794
认识	-1795
▁特朗普	-1796
说服	-1797
这些国家	-1798
一代	-1799
之处	-1800
瑞拉	-1801
凯恩斯	-1802
us	-1803
统计	-1804
委内	-1805
按照	-1806
描述	-1807
有时	-1808
▁其次	-1809
▁实际上	-1810
委内瑞拉	-1811
是一种	-1812
传染	-1813
外汇	-1814
所有的	-1815
▁以	-1816
实体	-1817
萨德	-1818
的作用	-1819
抑制	-1820
荷兰	-1821
第一次	-1822
俄罗斯的	-1823
究竟	-1824
低的	-1825
占据	-1826
抵制	-1827
伊朗的	-1828
就可以	-1829
喜欢	-1830
屠杀	-1831
年间	-1832
习近	-1833
刚刚	-1834
来看	-1835
法庭	-1836
▁日本	-1837
政府和	-1838
科学家	-1839
尊重	-1840
用来	-1841
税率	-1842
▁同时	-1843
习近平	-1844
欧洲人	-1845
专业	-1846
体现	-1847
兄弟	-1848
尝试	-1849
预防	-1850
美国在	-1851
加上	-1852
高于	-1853
宏观经济	-1854
中产	-1855
动力	-1856
受害	-1857
宣传	-1858
拉美	-1859
制造业	-1860
问题是	-1861
主张	-1862
能否	-1863
传播	-1864
时的	-1865
灵活	-1866
资本主义	-1867
▁E	-1868
历史上	-1869
国防	-1870
孤立	-1871
心理	-1872
os	-1873
外的	-1874
著名	-1875
债权人	-1876
反映了	-1877
的人口	-1878
恰恰	-1879
推翻	-1880
促使	-1881
股市	-1882
入侵	-1883
潜力	-1884
成功的	-1885
的工作	-1886
的未来	-1887
14	-1888
内战	-1889
的威胁	-1890
他在	-1891
巨额	-1892
所在	-1893
操纵	-1894
整体	-1895
有一个	-1896
私人部门	-1897
香港	-1898
中国和	-1899
看起来	-1900
经历了	-1901
不受	-1902
以后	-1903
农村	-1904
早期	-1905
更高	-1906
诸多	-1907
起到	-1908
这么	-1909
因为它	-1910
更高的	-1911
2000	-1912
世界经济	-1913
至关重要	-1914
愤怒	-1915
各地	-1916
▁全球	-1917
组织的	-1918
回归	-1919
形势	-1920
权的	-1921
之路	-1922
她们	-1923
巩固	-1924
牺牲	-1925
南非	-1926
句话	-1927
斯科	-1928
议员	-1929
跨国	-1930
一体化	-1931
2001	-1932
的长期	-1933
很大程度上	-1934
培训	-1935
引入	-1936
故事	-1937
研发	-1938
了这一	-1939
测试	-1940
在一起	-1941
的金融	-1942
表现出	-1943
不愿	-1944
出于	-1945
森林	-1946
行长	-1947
对美国	-1948
▁H	-1949
▁到	-1950
但在	-1951
绿色	-1952
▁of	-1953
▁无论	-1954
我们必须	-1955
两种	-1956
任期	-1957
边界	-1958
中产阶级	-1959
一点	-1960
包含	-1961
化石	-1962
承受	-1963
阿萨德	-1964
ri	-1965
变成	-1966
模型	-1967
维护	-1968
伊斯兰国	-1969
量化宽松	-1970
特殊	-1971
评论	-1972
ing	-1973
各国政府	-1974
借贷	-1975
条款	-1976
纳税	-1977
也无法	-1978
是个	-1979
澳大	-1980
和金融	-1981
月份	-1982
相似	-1983
默克尔	-1984
人在	-1985
极大	-1986
这次	-1987
巴拉克	-1988
2006	-1989
义务	-1990
对话	-1991
格鲁	-1992
进行了	-1993
医生	-1994
情报	-1995
第一个	-1996
公投	-1997
大型	-1998
合法性	-1999
澳大利亚	-2000
回到	-2001
稳定的	-2002
被认为	-2003
一起	-2004
更不	-2005
一旦	-2006
动物	-2007
标志	-2008
▁最近	-2009
几个月	-2010
在欧洲	-2011
极为	-2012
▁例如	-2013
▁法国	-2014
采取行动	-2015
于是	-2016
ter	-2017
13	-2018
公正	-2019
试验	-2020
政治家	-2021
无疑	-2022
很可能	-2023
未来的	-2024
不可避免	-2025
伙伴关系	-2026
拉丁	-2027
西洋	-2028
边缘	-2029
阿尔	-2030
负债表	-2031
也是如此	-2032
资格	-2033
库尔德	-2034
化石燃料	-2035
变得更加	-2036
劳动力市场	-2037
决心	-2038
构成	-2039
用的	-2040
结合	-2041
释放	-2042
前所未	-2043
一般	-2044
举措	-2045
仍在	-2046
导弹	-2047
错误的	-2048
强硬	-2049
高度	-2050
不满	-2051
产量	-2052
现状	-2053
过渡	-2054
产出	-2055
涉及	-2056
▁第二	-2057
想法	-2058
▁——	-2059
改革的	-2060
⁄4	-2061
▁3	-2062
对待	-2063
支持者	-2064
共产主义	-2065
意见	-2066
紧密	-2067
亿美元的	-2068
资产负债表	-2069
贝尔	-2070
被视为	-2071
中所	-2072
首次	-2073
▁奥巴马	-2074
ur	-2075
作出	-2076
绝对	-2077
不太	-2078
参加	-2079
的地区	-2080
16	-2081
还会	-2082
在经济	-2083
▁尽管如此	-2084
惩罚	-2085
现金	-2086
位于	-2087
声称	-2088
尚未	-2089
强制	-2090
更有	-2091
约旦	-2092
必要的	-2093
目前为止	-2094
升级	-2095
早已	-2096
比率	-2097
职业	-2098
500	-2099
大西洋	-2100
尔多安	-2101
达到了	-2102
以此	-2103
幸运	-2104
流入	-2105
不仅仅是	-2106
解放	-2107
超越	-2108
▁在这	-2109
▁而在	-2110
民主的	-2111
21	-2112
减税	-2113
月的	-2114
....	-2115
不利	-2116
做的	-2117
命运	-2118
营养	-2119
2%	-2120
▁d	-2121
哥伦	-2122
居民	-2123
非法	-2124
196	-2125
一系列	-2126
的需求	-2127
所面临的	-2128
之时	-2129
计划的	-2130
▁7	-2131
回应	-2132
打破	-2133
▁伦敦	-2134
同时也	-2135
紧急	-2136
马克	-2137
的行动	-2138
哥伦比亚	-2139
中间	-2140
付出	-2141
兴趣	-2142
各自	-2143
斯特	-2144
看法	-2145
▁除了	-2146
循环	-2147
要比	-2148
以色列的	-2149
给了	-2150
▁过去	-2151
的挑战	-2152
最重要的	-2153
国外	-2154
之所以	-2155
不久	-2156
东盟	-2157
消失	-2158
紧迫	-2159
镇压	-2160
埃尔多安	-2161
ul	-2162
期望	-2163
约翰	-2164
原因是	-2165
的历史	-2166
的措施	-2167
2004	-2168
有了	-2169
渴望	-2170
激烈	-2171
选举中	-2172
▁6	-2173
自动	-2174
一下	-2175
公约	-2176
忽略	-2177
语言	-2178
与美国	-2179
人物	-2180
怎么	-2181
能在	-2182
通缩	-2183
受到了	-2184
数百万	-2185
的中国	-2186
都没有	-2187
▁为	-2188
北京	-2189
姆林	-2190
驱动	-2191
让他们	-2192
2016	-2193
新兴经济体	-2194
不够	-2195
住房	-2196
持久	-2197
推行	-2198
海洋	-2199
产生了	-2200
万人	-2201
例外	-2202
▁今天	-2203
目前的	-2204
▁K	-2205
离开	-2206
限于	-2207
全球变暖	-2208
交通	-2209
基督	-2210
尼斯	-2211
已经在	-2212
组合	-2213
是如此	-2214
PP	-2215
瑞典	-2216
至今	-2217
▁也许	-2218
还需要	-2219
em	-2220
马里	-2221
▁其他	-2222
的努力	-2223
已经开始	-2224
这个问题	-2225
员工	-2226
规划	-2227
证券	-2228
的银行	-2229
▁俄罗斯	-2230
尼日	-2231
强劲	-2232
而在	-2233
让人	-2234
采取了	-2235
货币联盟	-2236
借款	-2237
平民	-2238
数十	-2239
纳德	-2240
逻辑	-2241
拉丁美洲	-2242
利班	-2243
消灭	-2244
穷人	-2245
▁第三	-2246
▁换	-2247
下来	-2248
台湾	-2249
太平	-2250
摧毁	-2251
演讲	-2252
▁L	-2253
到的	-2254
必然	-2255
西亚	-2256
发生在	-2257
和中国	-2258
的军事	-2259
▁简	-2260
再生	-2261
召开	-2262
各方	-2263
平台	-2264
随之	-2265
的战略	-2266
的承诺	-2267
民主国家	-2268
正义	-2269
的利益	-2270
的生活	-2271
上去	-2272
之上	-2273
全民	-2274
亿欧元	-2275
成功地	-2276
大会	-2277
过来	-2278
发展的	-2279
的时间	-2280
多元	-2281
建筑	-2282
法治	-2283
将继续	-2284
目的是	-2285
布鲁	-2286
获益	-2287
低收入	-2288
暴露	-2289
是美国	-2290
议程	-2291
迹象	-2292
也不会	-2293
的方法	-2294
巴勒斯坦人	-2295
业务	-2296
人均	-2297
任命	-2298
发行	-2299
超级	-2300
的地方	-2301
▁在美国	-2302
恐怖分子	-2303
1%	-2304
加拿	-2305
疲软	-2306
诚然	-2307
的理由	-2308
欧盟委员会	-2309
个体	-2310
分之	-2311
名义	-2312
拉夫	-2313
是有	-2314
突然	-2315
谴责	-2316
阵营	-2317
一部分	-2318
支持的	-2319
的环境	-2320
▁中国的	-2321
克里姆林	-2322
另一方面	-2323
指导	-2324
身上	-2325
和投资	-2326
塔利班	-2327
的领导	-2328
脱离	-2329
ers	-2330
太平洋	-2331
领导的	-2332
建立一个	-2333
▁4	-2334
互相	-2335
关税	-2336
否认	-2337
性别	-2338
气体	-2339
经营	-2340
言之	-2341
遵守	-2342
顾问	-2343
失去了	-2344
是为了	-2345
的债务	-2346
这一目标	-2347
保留	-2348
患者	-2349
▁不过	-2350
▁其中	-2351
在全球	-2352
▁8	-2353
一年	-2354
东亚	-2355
人数	-2356
观念	-2357
)——	-2358
修正	-2359
吉亚	-2360
生态	-2361
艰难	-2362
论坛	-2363
阶层	-2364
陷入了	-2365
优先	-2366
细胞	-2367
在内的	-2368
份额	-2369
实现了	-2370
的唯一	-2371
格鲁吉亚	-2372
化和	-2373
声明	-2374
整合	-2375
短缺	-2376
罗马	-2377
▁上述	-2378
在一个	-2379
二十世纪	-2380
我们需要	-2381
un	-2382
偿还	-2383
比方	-2384
病毒	-2385
选票	-2386
机构的	-2387
的经济增长	-2388
▁W	-2389
以往	-2390
协助	-2391
只会	-2392
可信	-2393
获胜	-2394
▁去年	-2395
存在的	-2396
的东西	-2397
的人们	-2398
▁这意味着	-2399
哪些	-2400
度的	-2401
式的	-2402
共和国	-2403
2003	-2404
世俗	-2405
人道	-2406
判断	-2407
是由	-2408
终于	-2409
谨慎	-2410
▁还有	-2411
在政治	-2412
以及其他	-2413
最新	-2414
柏林	-2415
脱欧	-2416
逆转	-2417
麻烦	-2418
3⁄4	-2419
人们对	-2420
尔的	-2421
恐慌	-2422
股东	-2423
高级	-2424
当前的	-2425
te	-2426
以下	-2427
以便	-2428
加拉	-2429
垄断	-2430
常规	-2431
▁诚然	-2432
段时间	-2433
使其	-2434
存款	-2435
▁即便	-2436
ab	-2437
不如	-2438
之为	-2439
年龄	-2440
每个	-2441
都能	-2442
区别	-2443
失衡	-2444
运作	-2445
也应该	-2446
已经成为	-2447
ob	-2448
温室	-2449
要素	-2450
都将	-2451
的最佳	-2452
放在	-2453
突破	-2454
的安全	-2455
的市场	-2456
#160;&	-2457
出售	-2458
日渐	-2459
警察	-2460
还在	-2461
所有人	-2462
从来	-2463
半岛	-2464
支撑	-2465
经过	-2466
违反	-2467
art	-2468
的权利	-2469
▁f	-2470
准确	-2471
廉价	-2472
朋友	-2473
费用	-2474
逐步	-2475
0%。	-2476
的选择	-2477
不良	-2478
主流	-2479
五年	-2480
古巴	-2481
形象	-2482
战斗	-2483
永久	-2484
资助	-2485
加拿大	-2486
两者	-2487
也门	-2488
化为	-2489
南亚	-2490
无力	-2491
理性	-2492
良好	-2493
还能	-2494
▁所以	-2495
▁问题	-2496
的例子	-2497
丧失	-2498
渠道	-2499
电力	-2500
▁19	-2501
为基础	-2502
十年代	-2503
▁美国的	-2504
国务	-2505
太阳	-2506
纳入	-2507
他们在	-2508
的公共	-2509
的自由	-2510
绝大多数	-2511
美国经济	-2512
一半	-2513
文章	-2514
绝非	-2515
起了	-2516
都要	-2517
所造成的	-2518
ce	-2519
减轻	-2520
回答	-2521
国债	-2522
密切	-2523
▁In	-2524
的价格	-2525
oo	-2526
▁N	-2527
一条	-2528
信仰	-2529
性质	-2530
可再生	-2531
注意力	-2532
尼日利亚	-2533
我们可以	-2534
ag	-2535
指控	-2536
记者	-2537
负面	-2538
人口的	-2539
可能导致	-2540
经常项目	-2541
产权	-2542
收入的	-2543
3.	-2544
im	-2545
了对	-2546
手中	-2547
句话说	-2548
集中在	-2549
东欧	-2550
殖民	-2551
仅仅是	-2552
企业的	-2553
▁这就是	-2554
中期	-2555
信号	-2556
可怕	-2557
抵押	-2558
排除	-2559
此前	-2560
越南	-2561
▁今年	-2562
受害者	-2563
不确定性	-2564
不要	-2565
事业	-2566
其在	-2567
智利	-2568
海外	-2569
致命	-2570
的做法	-2571
的关系	-2572
克里姆林宫	-2573
sp	-2574
复兴	-2575
最低	-2576
留在	-2577
距离	-2578
犹太人	-2579
的变化	-2580
所有人都	-2581
养老	-2582
功能	-2583
动机	-2584
每天	-2585
百分	-2586
缓解	-2587
温室气体	-2588
▁她	-2589
工会	-2590
共产党	-2591
预算赤字	-2592
不了	-2593
林斯	-2594
人们的	-2595
的决定	-2596
的技术	-2597
▁199	-2598
这一问题	-2599
▁所有这些	-2600
某种程度上	-2601
但这	-2602
做好	-2603
情形	-2604
抵消	-2605
也必须	-2606
多年	-2607
扭曲	-2608
浪费	-2609
疟疾	-2610
重塑	-2611
销售	-2612
比方说	-2613
社会的	-2614
这个国家	-2615
▁近	-2616
没能	-2617
活力	-2618
私有	-2619
终结	-2620
和服务	-2621
降低了	-2622
加以	-2623
固定	-2624
操作	-2625
根源	-2626
纳粹	-2627
教育和	-2628
权力的	-2629
一名	-2630
专制	-2631
也能	-2632
减速	-2633
客户	-2634
悲剧	-2635
职位	-2636
的成本	-2637
,”	-2638
id	-2639
争取	-2640
困扰	-2641
政变	-2642
文明	-2643
黄金	-2644
▁伊朗	-2645
▁那些	-2646
医学	-2647
拉斯	-2648
本质	-2649
物质	-2650
青年	-2651
▁th	-2652
合理的	-2653
抓住	-2654
人认为	-2655
超过了	-2656
却是	-2657
施加	-2658
设备	-2659
▁他的	-2660
称之为	-2661
但它	-2662
立刻	-2663
诺贝尔	-2664
▁以色列	-2665
▁但这一	-2666
完美	-2667
更快	-2668
权威	-2669
一直是	-2670
的事实	-2671
范围内	-2672
中国经济	-2673
主权债务	-2674
南部	-2675
应用	-2676
某个	-2677
电子	-2678
途径	-2679
投资于	-2680
um	-2681
用说	-2682
积累	-2683
葡萄	-2684
▁显然	-2685
广泛的	-2686
部门的	-2687
实质	-2688
实践	-2689
接着	-2690
会导致	-2691
吸引力	-2692
日本的	-2693
进行的	-2694
下滑	-2695
多么	-2696
的一些	-2697
▁在过去	-2698
印尼	-2699
层次	-2700
煽动	-2701
第四	-2702
那种	-2703
政府在	-2704
的后果	-2705
美元的	-2706
负责任	-2707
位置	-2708
放松	-2709
行政	-2710
覆盖	-2711
所需的	-2712
两位	-2713
所得	-2714
▁不管	-2715
原本	-2716
壁垒	-2717
是最	-2718
材料	-2719
沙尔	-2720
▁鉴于	-2721
会议上	-2722
反过来	-2723
形式的	-2724
良好的	-2725
没有任何	-2726
ev	-2727
年度	-2728
本人	-2729
本地	-2730
深远	-2731
国家和	-2732
有能力	-2733
都必须	-2734
▁和	-2735
上了	-2736
低估	-2737
感染	-2738
投机	-2739
蔓延	-2740
现代化	-2741
举行的	-2742
的成功	-2743
经济和	-2744
中有	-2745
大萧条	-2746
投资的	-2747
自由化	-2748
不平等性	-2749
幸运的是	-2750
专注	-2751
否决	-2752
面前	-2753
中国在	-2754
更不用说	-2755
加坡	-2756
导向	-2757
巴斯	-2758
意料	-2759
流行	-2760
的任务	-2761
临时	-2762
害怕	-2763
暂时	-2764
歧视	-2765
游戏	-2766
认真	-2767
不足以	-2768
引发了	-2769
很容易	-2770
越来越多	-2771
僵局	-2772
办公	-2773
匈牙	-2774
发起	-2775
对外	-2776
小的	-2777
里的	-2778
震惊	-2779
匈牙利	-2780
理事会	-2781
背景下	-2782
经济发展	-2783
升高	-2784
接触	-2785
物价	-2786
设立	-2787
塔尼亚	-2788
增长和	-2789
时代的	-2790
布鲁塞尔	-2791
金融体系	-2792
前所未有的	-2793
ig	-2794
决议	-2795
契约	-2796
认定	-2797
也可能	-2798
是什么	-2799
不可持续	-2800
因为他们	-2801
财政政策	-2802
ec	-2803
仍然是	-2804
的危险	-2805
的重要性	-2806
许多国家	-2807
坚定	-2808
当中	-2809
男性	-2810
群众	-2811
一开始	-2812
关系的	-2813
印度的	-2814
参与者	-2815
布什政府	-2816
化学	-2817
发电	-2818
圣战	-2819
担保	-2820
比重	-2821
米尔	-2822
经合	-2823
不过是	-2824
服务业	-2825
兑现	-2826
显得	-2827
道理	-2828
▁只要	-2829
不需要	-2830
▁and	-2831
保护主义	-2832
商品价格	-2833
nb	-2834
从事	-2835
审判	-2836
德拉	-2837
武力	-2838
法官	-2839
考验	-2840
补偿	-2841
德国的	-2842
享受	-2843
动作	-2844
总值	-2845
愿景	-2846
▁希腊	-2847
的力量	-2848
的态度	-2849
的战争	-2850
的最新	-2851
与此同时	-2852
冒险	-2853
卡梅	-2854
或是	-2855
融合	-2856
觉得	-2857
0%,	-2858
ity	-2859
导致的	-2860
监管者	-2861
突尼斯	-2862
为此	-2863
敌人	-2864
获取	-2865
将成为	-2866
的人民	-2867
ir	-2868
▁9	-2869
一家	-2870
严厉	-2871
剑桥	-2872
清晰	-2873
解体	-2874
过剩	-2875
不管是	-2876
和欧洲	-2877
孟加拉	-2878
安全的	-2879
可再生能源	-2880
到底	-2881
急剧	-2882
改进	-2883
训练	-2884
讽刺	-2885
部署	-2886
十年的	-2887
建立在	-2888
的贸易	-2889
的速度	-2890
英格兰	-2891
长时间	-2892
大战	-2893
定居	-2894
干涉	-2895
开展	-2896
律宾	-2897
赋予	-2898
也不是	-2899
在这个	-2900
菲律宾	-2901
1990	-2902
▁换句话说	-2903
不少	-2904
声音	-2905
审查	-2906
成熟	-2907
授权	-2908
此次	-2909
真相	-2910
诊断	-2911
可能的	-2912
很多人	-2913
有力的	-2914
相对较	-2915
内塔尼亚	-2916
3%	-2917
季度	-2918
没人	-2919
饱受	-2920
内塔尼亚胡	-2921
专利	-2922
军方	-2923
抛弃	-2924
注入	-2925
生的	-2926
十年中	-2927
巴沙尔	-2928
的权力	-2929
葡萄牙	-2930
▁可	-2931
何种	-2932
外围	-2933
心的	-2934
私营	-2935
纷纷	-2936
象征	-2937
的资金	-2938
看上去	-2939
▁你	-2940
失望	-2941
引导	-2942
拿出	-2943
昂贵	-2944
这将	-2945
基金会	-2946
还必须	-2947
这两个	-2948
这样一个	-2949
下了	-2950
两年	-2951
丰富	-2952
人群	-2953
共享	-2954
利息	-2955
加大	-2956
敏感	-2957
迫切	-2958
首要	-2959
越来越多的	-2960
产能	-2961
北部	-2962
深度	-2963
规范	-2964
的反应	-2965
苏格兰	-2966
不安	-2967
最初	-2968
清洁	-2969
真主	-2970
不稳定	-2971
肯尼亚	-2972
领域的	-2973
三分之一	-2974
世界各地	-2975
主宰	-2976
助长	-2977
才会	-2978
明年	-2979
电脑	-2980
对中国	-2981
应该是	-2982
的公司	-2983
的最大	-2984
▁但我们	-2985
▁p	-2986
两次	-2987
后来	-2988
和解	-2989
大多	-2990
小组	-2991
布莱	-2992
无人	-2993
落后	-2994
明确的	-2995
能力的	-2996
重要性	-2997
欧洲国家	-2998
严峻	-2999
为其	-3000
她的	-3001
完整	-3002
将军	-3003
小时	-3004
泰国	-3005
瑞士	-3006
空气	-3007
苏丹	-3008
药品	-3009
近期	-3010
创造了	-3011
▁这样的	-3012
长期以来	-3013
全力	-3014
波斯	-3015
技术的	-3016
甚至是	-3017
▁他们的	-3018
全球化的	-3019
领导人的	-3020
修改	-3021
富有	-3022
期待	-3023
要想	-3024
低利率	-3025
真主党	-3026
纳税人	-3027
外汇储备	-3028
煤炭	-3029
那个	-3030
也不能	-3031
好消息	-3032
提供的	-3033
水平的	-3034
的法律	-3035
一份	-3036
习惯	-3037
压倒	-3038
合同	-3039
吸收	-3040
提议	-3041
特定	-3042
表面	-3043
主义和	-3044
工业化	-3045
更好地	-3046
显而易见	-3047
分别	-3048
变为	-3049
合适	-3050
就在	-3051
忧虑	-3052
沦为	-3053
纪念	-3054
运转	-3055
主要是	-3056
战争的	-3057
一轮	-3058
乔治	-3059
克斯	-3060
到来	-3061
步骤	-3062
母亲	-3063
深入	-3064
点是	-3065
首席	-3066
▁于是	-3067
工作的	-3068
形成了	-3069
的事情	-3070
的方案	-3071
目标的	-3072
la	-3073
分享	-3074
各个	-3075
癌症	-3076
秘密	-3077
罗姆	-3078
讲话	-3079
说是	-3080
退欧	-3081
首脑	-3082
2002	-3083
ov	-3084
来讲	-3085
企业家	-3086
庞大的	-3087
nbsp	-3088
▁华盛顿	-3089
很有可能	-3090
显而易见的	-3091
欧盟成员国	-3092
全球金融危机	-3093
基础设施投资	-3094
▁c	-3095
▁。	-3096
仍有	-3097
团队	-3098
多大	-3099
强势	-3100
很大的	-3101
每一个	-3102
的要求	-3103
▁the	-3104
恐怖袭击	-3105
的问题是	-3106
财政部长	-3107
▁是	-3108
作物	-3109
出台	-3110
家族	-3111
教授	-3112
防御	-3113
300	-3114
的压力	-3115
的所有	-3116
ment	-3117
发展中国家的	-3118
24	-3119
NA	-3120
了其	-3121
但其	-3122
做到	-3123
印象	-3124
纠正	-3125
萨达	-3126
高效	-3127
▁当时	-3128
更多地	-3129
信誉	-3130
前任	-3131
幸福	-3132
毁灭	-3133
马来	-3134
amp	-3135
在中国	-3136
▁考虑到	-3137
中国政府	-3138
▁幸运的是	-3139
不在	-3140
前进	-3141
相应	-3142
▁的确	-3143
倾向于	-3144
百分点	-3145
的货币	-3146
▁上	-3147
动员	-3148
沃尔	-3149
游说	-3150
融入	-3151
与其他	-3152
专注于	-3153
▁但这些	-3154
经合组织	-3155
拉里	-3156
站在	-3157
财务	-3158
马拉	-3159
办公室	-3160
起作用	-3161
予以	-3162
反而	-3163
民意	-3164
做出了	-3165
和国际	-3166
英国的	-3167
成员国的	-3168
一国	-3169
密集	-3170
所说	-3171
爆炸	-3172
现任	-3173
用户	-3174
看似	-3175
雄心	-3176
总需求	-3177
的责任	-3178
世界其他	-3179
在很大程度上	-3180
也就	-3181
机遇	-3182
盈利	-3183
TPP	-3184
唐纳德	-3185
的最后	-3186
系统的	-3187
2030	-3188
▁另一个	-3189
▁简言之	-3190
▁美联储	-3191
没有什么	-3192
#160;	-3193
ra	-3194
剥夺	-3195
生素	-3196
花费	-3197
债务的	-3198
唯一的	-3199
保罗	-3200
出资	-3201
地说	-3202
奥斯	-3203
学院	-3204
更具	-3205
协议的	-3206
存在着	-3207
得不到	-3208
2020	-3209
特朗普的	-3210
▁1	-3211
▁将	-3212
倒闭	-3213
太多	-3214
席位	-3215
并将	-3216
只有在	-3217
国家都	-3218
的角色	-3219
▁联合国	-3220
充足	-3221
制药	-3222
医院	-3223
残酷	-3224
签订	-3225
萨尔	-3226
金砖	-3227
相关的	-3228
相对于	-3229
这也是	-3230
▁大	-3231
从中	-3232
偿付	-3233
评级	-3234
起诉	-3235
运用	-3236
利益的	-3237
太阳能	-3238
时间里	-3239
有效地	-3240
几十年来	-3241
不上	-3242
关闭	-3243
压制	-3244
容忍	-3245
推迟	-3246
流向	-3247
▁如此	-3248
▁有些	-3249
和日本	-3250
多年来	-3251
的基本	-3252
财政赤字	-3253
不应	-3254
公布	-3255
和对	-3256
士兵	-3257
学术	-3258
所能	-3259
智能	-3260
综合	-3261
艺术	-3262
衰落	-3263
金正	-3264
领先	-3265
出现在	-3266
卡梅伦	-3267
和政府	-3268
的水平	-3269
的说法	-3270
美国政府	-3271
这些问题	-3272
悲观	-3273
救助	-3274
20%	-3275
以至于	-3276
是否会	-3277
获得的	-3278
适用于	-3279
使命	-3280
制约	-3281
延长	-3282
战后	-3283
最好	-3284
迄今	-3285
这位	-3286
的效果	-3287
穆巴拉克	-3288
op	-3289
▁让	-3290
在内	-3291
彼此	-3292
情景	-3293
报纸	-3294
还将	-3295
也许是	-3296
必须在	-3297
还可以	-3298
自然资源	-3299
eb	-3300
响应	-3301
更是	-3302
案例	-3303
的小	-3304
监控	-3305
结核	-3306
▁经济	-3307
养老金	-3308
领导层	-3309
ve	-3310
滥用	-3311
补充	-3312
里斯	-3313
传染病	-3314
的一种	-3315
一个国家	-3316
生产总值	-3317
不论	-3318
主教	-3319
侵犯	-3320
分散	-3321
布雷	-3322
幅度	-3323
抵抗	-3324
梦想	-3325
毒品	-3326
运行	-3327
其他人	-3328
的领导人	-3329
为例	-3330
举动	-3331
哪里	-3332
扭转	-3333
▁西方	-3334
了美国	-3335
基督教	-3336
的数据	-3337
转化为	-3338
基地组织	-3339
SD	-3340
分离	-3341
发明	-3342
塞浦	-3343
弱势	-3344
当的	-3345
斯基	-3346
秘书	-3347
背后	-3348
能让	-3349
路斯	-3350
零售	-3351
▁5%	-3352
变成了	-3353
政策制定	-3354
he	-3355
切尔	-3356
展示	-3357
披露	-3358
无关	-3359
消极	-3360
电影	-3361
的收入	-3362
塞浦路斯	-3363
开发银行	-3364
至关重要的	-3365
#160;&#160;&	-3366
严肃	-3367
关心	-3368
无所	-3369
极其	-3370
等待	-3371
街头	-3372
ill	-3373
依赖于	-3374
影响到	-3375
▁年	-3376
中共	-3377
凸显	-3378
工厂	-3379
监狱	-3380
路线	-3381
选项	-3382
配置	-3383
也需要	-3384
新加坡	-3385
▁for	-3386
交换	-3387
介入	-3388
可行	-3389
在此	-3390
申请	-3391
看作	-3392
认可	-3393
▁这就	-3394
总统的	-3395
的信息	-3396
组成的	-3397
莫斯科	-3398
国家安全	-3399
ci	-3400
地带	-3401
沉重	-3402
而被	-3403
足球	-3404
重重	-3405
▁巴黎	-3406
国务卿	-3407
的代价	-3408
▁土耳其	-3409
▁,	-3410
亿人	-3411
大宗	-3412
履行	-3413
年底	-3414
排名	-3415
科索	-3416
问责	-3417
马上	-3418
▁除非	-3419
下降到	-3420
我们在	-3421
生产力	-3422
▁《	-3423
人力	-3424
型的	-3425
工党	-3426
日的	-3427
最佳	-3428
移动	-3429
继任	-3430
野心	-3431
#45	-3432
man	-3433
冲突的	-3434
的一切	-3435
资产价格	-3436
估算	-3437
热情	-3438
神经	-3439
长达	-3440
额外	-3441
▁国际	-3442
参议院	-3443
和全球	-3444
建立了	-3445
意义的	-3446
科索沃	-3447
伊拉克的	-3448
弱点	-3449
物理	-3450
立即	-3451
再一次	-3452
极大的	-3453
的增加	-3454
自由的	-3455
的经济体	-3456
下台	-3457
便是	-3458
周边	-3459
女孩	-3460
富人	-3461
强的	-3462
病人	-3463
难题	-3464
▁所有	-3465
对欧洲	-3466
年代的	-3467
背后的	-3468
si	-3469
多种	-3470
就将	-3471
愿望	-3472
智慧	-3473
英镑	-3474
饥饿	-3475
高昂	-3476
他们所	-3477
危机中	-3478
已成为	-3479
并不能	-3480
投资和	-3481
金融稳定	-3482
4.	-3483
to	-3484
会有	-3485
单位	-3486
外界	-3487
庇护	-3488
提醒	-3489
注定	-3490
活跃	-3491
物种	-3492
特里	-3493
确认	-3494
而已	-3495
莫迪	-3496
身体	-3497
遗传	-3498
间的	-3499
目标是	-3500
破坏了	-3501
35	-3502
▁J	-3503
▁·	-3504
一套	-3505
加快	-3506
哈拉	-3507
大众	-3508
定价	-3509
居住	-3510
总额	-3511
无可	-3512
检查	-3513
榜样	-3514
重视	-3515
194	-3516
研究所	-3517
几乎没有	-3518
就业机会	-3519
人才	-3520
舞台	-3521
证实	-3522
出来的	-3523
的能源	-3524
让人们	-3525
中国领导人	-3526
ational	-3527
中等	-3528
哈根	-3529
学者	-3530
雇主	-3531
了一场	-3532
多样性	-3533
影响的	-3534
法国和	-3535
的地位	-3536
财政部	-3537
赢得了	-3538
银行家	-3539
联合国安理会	-3540
CC	-3541
IS	-3542
会谈	-3543
哥本	-3544
宣言	-3545
战胜	-3546
电话	-3547
继承	-3548
追随	-3549
保守派	-3550
和安全	-3551
大学的	-3552
构成了	-3553
人道主义	-3554
哥本哈根	-3555
石油价格	-3556
证据表明	-3557
▁如果我们	-3558
▁欧洲央行	-3559
oh	-3560
▁&	-3561
仍是	-3562
刑事	-3563
后代	-3564
填补	-3565
所作	-3566
诱惑	-3567
都被	-3568
ard	-3569
▁可以	-3570
也同样	-3571
做出的	-3572
被称为	-3573
遭到了	-3574
都无法	-3575
这是一个	-3576
不必	-3577
事故	-3578
低迷	-3579
减排	-3580
千年	-3581
口号	-3582
开启	-3583
房价	-3584
斯大	-3585
不存在	-3586
独立的	-3587
第二次	-3588
角度看	-3589
风险的	-3590
我们应该	-3591
的大规模	-3592
的影响力	-3593
▁在这方面	-3594
1,	-3595
8%	-3596
qu	-3597
失所	-3598
时机	-3599
绝望	-3600
可能在	-3601
基本上	-3602
提高了	-3603
过去的	-3604
都需要	-3605
马来西亚	-3606
结构性改革	-3607
南欧	-3608
地理	-3609
律师	-3610
意外	-3611
截然	-3612
▁最终	-3613
也因此	-3614
二十年	-3615
取得的	-3616
各国的	-3617
复杂的	-3618
行为的	-3619
阿巴斯	-3620
1980	-3621
▁2008	-3622
▁像	-3623
人为	-3624
在线	-3625
地中	-3626
实在	-3627
换取	-3628
日元	-3629
记忆	-3630
传统的	-3631
几年来	-3632
至少在	-3633
行动的	-3634
▁毫无疑问	-3635
依据	-3636
先进	-3637
白宫	-3638
的海	-3639
也包括	-3640
体系的	-3641
排放量	-3642
并不意味着	-3643
互动	-3644
仇恨	-3645
做得	-3646
引擎	-3647
不再是	-3648
不愿意	-3649
世纪的	-3650
企业和	-3651
出现的	-3652
的一项	-3653
ap	-3654
以为	-3655
出生	-3656
勃勃	-3657
发放	-3658
慷慨	-3659
隔离	-3660
193	-3661
▁任何	-3662
已经被	-3663
抗生素	-3664
接受的	-3665
萨达姆	-3666
证明了	-3667
转移到	-3668
这些人	-3669
27	-3670
今后	-3671
催生	-3672
创业	-3673
国王	-3674
大于	-3675
延续	-3676
推广	-3677
此类	-3678
知的	-3679
萎靡	-3680
薪酬	-3681
鼓吹	-3682
ran	-3683
▁普京	-3684
些时候	-3685
尽可能	-3686
透明度	-3687
公共部门	-3688
ak	-3689
▁s	-3690
▁除	-3691
之际	-3692
争夺	-3693
好像	-3694
掩盖	-3695
可行的	-3696
引起了	-3697
都可以	-3698
几乎所有	-3699
▁马	-3700
伯特	-3701
危害	-3702
夏天	-3703
效益	-3704
敦促	-3705
暗示	-3706
本月	-3707
焦点	-3708
那时	-3709
防务	-3710
阻挠	-3711
另一种	-3712
控制的	-3713
统治者	-3714
阿拉伯国家	-3715
两倍	-3716
丹麦	-3717
北欧	-3718
更少	-3719
进而	-3720
适合	-3721
食物	-3722
ich	-3723
制度的	-3724
削弱了	-3725
在国际	-3726
大屠杀	-3727
水资源	-3728
第二个	-3729
▁特别是	-3730
中东地区	-3731
作为一个	-3732
到目前为止	-3733
tu	-3734
▁O	-3735
一再	-3736
乃至	-3737
会对	-3738
可谓	-3739
很有	-3740
慈善	-3741
模糊	-3742
社交	-3743
西欧	-3744
阵线	-3745
政府债券	-3746
该地区的	-3747
ay	-3748
▁总	-3749
切实	-3750
挽救	-3751
普及	-3752
沮丧	-3753
深化	-3754
萨科	-3755
加剧了	-3756
威胁到	-3757
实施了	-3758
斯大林	-3759
来自于	-3760
的和平	-3761
的欧盟	-3762
石油和	-3763
1989	-3764
同一	-3765
威尔	-3766
我在	-3767
满意	-3768
罪行	-3769
裁决	-3770
陷阱	-3771
颠覆	-3772
不平衡	-3773
因为这	-3774
地中海	-3775
的价值	-3776
的条件	-3777
组成部分	-3778
三大	-3779
要在	-3780
包容性	-3781
非政府	-3782
▁欧元区	-3783
塞尔维亚	-3784
结构改革	-3785
阿拉伯世界	-3786
伟大	-3787
尔西	-3788
纠纷	-3789
核计划	-3790
系统性	-3791
地方政府	-3792
转移支付	-3793
▁在这样的	-3794
侵略	-3795
出版	-3796
处在	-3797
年到	-3798
▁要想	-3799
价值的	-3800
即使是	-3801
参议员	-3802
政权的	-3803
更容易	-3804
肯定会	-3805
和西班牙	-3806
因为它们	-3807
之春	-3808
但也	-3809
何时	-3810
千万	-3811
同事	-3812
塔赫	-3813
认同	-3814
▁另外	-3815
▁在此	-3816
以及对	-3817
就需要	-3818
布莱尔	-3819
的一次	-3820
计算机	-3821
极端主义	-3822
企图	-3823
大概	-3824
完善	-3825
审慎	-3826
提名	-3827
纪录	-3828
识别	-3829
课程	-3830
鼓舞	-3831
下降了	-3832
不仅是	-3833
不扩散	-3834
与中国	-3835
改变了	-3836
公决	-3837
博拉	-3838
叛乱	-3839
日常	-3840
的无	-3841
维奇	-3842
缓和	-3843
美军	-3844
老龄	-3845
运输	-3846
连续	-3847
风暴	-3848
高速	-3849
▁一旦	-3850
▁非洲	-3851
明显的	-3852
的基础上	-3853
其对	-3854
卡扎	-3855
均衡	-3856
姿态	-3857
挪威	-3858
暴跌	-3859
核电	-3860
清算	-3861
缩小	-3862
缺口	-3863
▁确实	-3864
反映出	-3865
可以从	-3866
和国家	-3867
生活的	-3868
世界大战	-3869
成为一个	-3870
被认为是	-3871
迄今为止	-3872
ow	-3873
中美	-3874
依旧	-3875
反弹	-3876
拖累	-3877
撤军	-3878
早就	-3879
盟国	-3880
落实	-3881
但他们	-3882
埃博拉	-3883
我们对	-3884
没有人	-3885
▁-	-3886
代理	-3887
撒冷	-3888
理应	-3889
的自	-3890
等等	-3891
跨境	-3892
韦斯	-3893
和环境	-3894
的担忧	-3895
路撒冷	-3896
自由主义	-3897
借口	-3898
动摇	-3899
华尔	-3900
成长	-3901
频繁	-3902
伴随着	-3903
卡扎菲	-3904
政治的	-3905
的共同	-3906
的立场	-3907
在这方面	-3908
经济复苏	-3909
耶路撒冷	-3910
4%	-3911
寿命	-3912
庞大	-3913
建造	-3914
按揭	-3915
流离	-3916
分之二	-3917
华尔街	-3918
极大地	-3919
的协议	-3920
的反对	-3921
穆尔西	-3922
结果是	-3923
▁前	-3924
争端	-3925
交流	-3926
提案	-3927
源自	-3928
的好处	-3929
简单的	-3930
重大的	-3931
非常规	-3932
丑闻	-3933
劳工	-3934
同情	-3935
大使	-3936
所赐	-3937
毕业	-3938
游行	-3939
西岸	-3940
让步	-3941
走上	-3942
连任	-3943
德国和	-3944
的总统	-3945
能够在	-3946
银行和	-3947
▁比方说	-3948
可持续性	-3949
问题上的	-3950
......	-3951
6.	-3952
7%	-3953
世贸	-3954
做了	-3955
内阁	-3956
哈佛	-3957
对立	-3958
就要	-3959
局限	-3960
授予	-3961
最有	-3962
死于	-3963
议题	-3964
难度	-3965
减少了	-3966
是通过	-3967
机器人	-3968
的合作	-3969
的现实	-3970
这一切	-3971
就业岗位	-3972
上限	-3973
保健	-3974
借助	-3975
四个	-3976
多个	-3977
尼克	-3978
日子	-3979
狂热	-3980
艰巨	-3981
大量的	-3982
是如何	-3983
查韦斯	-3984
法塔赫	-3985
解决办法	-3986
ne	-3987
东京	-3988
以外	-3989
份子	-3990
免费	-3991
北方	-3992
反复	-3993
太大	-3994
妨碍	-3995
果断	-3996
里根	-3997
他们对	-3998
实现的	-3999
支出的	-4000
让美国	-4001
▁叙利亚	-4002
流离失所	-4003
的支持者	-4004
▁问题在于	-4005
23	-4006
CD	-4007
之道	-4008
全新	-4009
将来	-4010
引人	-4011
漏洞	-4012
生育	-4013
聪明	-4014
中获益	-4015
以确保	-4016
将导致	-4017
希拉里	-4018
成为了	-4019
技术和	-4020
的必要	-4021
转变为	-4022
毫不奇怪	-4023
▁平	-4024
他对	-4025
区分	-4026
巴尔	-4027
掌权	-4028
著作	-4029
达尔	-4030
50%	-4031
国集团	-4032
最好的	-4033
环境下	-4034
2017	-4035
三分之二	-4036
糟糕的是	-4037
伊拉克战争	-4038
实现这一目标	-4039
ge	-4040
ni	-4041
▁由	-4042
下一	-4043
发言	-4044
总量	-4045
民间	-4046
沟通	-4047
赞成	-4048
辛格	-4049
间接	-4050
其中的	-4051
和技术	-4052
每个人	-4053
破坏性	-4054
索马里	-4055
▁为什么	-4056
在政治上	-4057
达成一致	-4058
务实	-4059
原子	-4060
因而	-4061
地震	-4062
将对	-4063
强国	-4064
意图	-4065
的主	-4066
自愿	-4067
财产	-4068
软件	-4069
页岩	-4070
ert	-4071
天主教	-4072
意义上	-4073
所面临	-4074
奥巴马政府	-4075
之急	-4076
大胆	-4077
就越	-4078
年初	-4079
而论	-4080
较低	-4081
首都	-4082
不知道	-4083
主要的	-4084
批评者	-4085
有机会	-4086
的一半	-4087
绝不是	-4088
北美	-4089
反恐	-4090
发射	-4091
堪称	-4092
独特	-4093
种植	-4094
设定	-4095
中国人	-4096
众议院	-4097
几年中	-4098
受欢迎	-4099
比以往	-4100
深层次	-4101
的企业	-4102
以色列和	-4103
任何时候	-4104
的问题上	-4105
公路	-4106
几周	-4107
剧烈	-4108
地利	-4109
培养	-4110
狭隘	-4111
这笔	-4112
西方的	-4113
解释了	-4114
▁大部分	-4115
穆斯林兄弟	-4116
中小	-4117
之以	-4118
会被	-4119
党的	-4120
前提	-4121
旅游	-4122
预料	-4123
高企	-4124
伟大的	-4125
到来的	-4126
绝大部分	-4127
6%	-4128
你的	-4129
地的	-4130
弥补	-4131
手机	-4132
迈向	-4133
遗产	-4134
面积	-4135
飙升	-4136
-20	-4137
下一个	-4138
人民的	-4139
前总统	-4140
和发展	-4141
有什么	-4142
这一观点	-4143
他人	-4144
伦理	-4145
低碳	-4146
偏好	-4147
免疫	-4148
将被	-4149
将让	-4150
教旨	-4151
细节	-4152
金钱	-4153
务之急	-4154
在世界	-4155
奥地利	-4156
民众的	-4157
生活水平	-4158
22	-4159
一天	-4160
周年	-4161
和新	-4162
哈尼	-4163
哪个	-4164
忘记	-4165
恶性	-4166
收缩	-4167
最多	-4168
父母	-4169
疗法	-4170
的有	-4171
谷歌	-4172
40%	-4173
400	-4174
▁由此	-4175
似乎是	-4176
很好的	-4177
收益率	-4178
现在的	-4179
的机构	-4180
高收入	-4181
财政刺激	-4182
▁另一方面	-4183
可持续发展目标	-4184
左派	-4185
朗德	-4186
特勒	-4187
长久	-4188
霸权	-4189
东南亚	-4190
再加上	-4191
历史的	-4192
原教旨	-4193
和教育	-4194
就不会	-4195
的选举	-4196
不太可能	-4197
个百分点	-4198
和平进程	-4199
▁我们需要	-4200
st	-4201
压迫	-4202
哪怕	-4203
婴儿	-4204
幻想	-4205
数千	-4206
耐药	-4207
西斯	-4208
误导	-4209
▁或许	-4210
▁有人	-4211
严格的	-4212
今年的	-4213
令人惊	-4214
根本上	-4215
的巨大	-4216
▁IMF	-4217
自由贸易协定	-4218
以南	-4219
创建	-4220
却在	-4221
发出	-4222
奥运	-4223
年内	-4224
废除	-4225
未必	-4226
竭尽	-4227
诸如	-4228
贾德	-4229
沙拉夫	-4230
的时代	-4231
软实力	-4232
这种情况	-4233
年金融危机	-4234
不及	-4235
专门	-4236
先例	-4237
别无	-4238
动态	-4239
它在	-4240
就有	-4241
巨头	-4242
差别	-4243
弗里	-4244
很高	-4245
烟草	-4246
网站	-4247
飞机	-4248
▁亚洲	-4249
▁埃及	-4250
会带来	-4251
供应链	-4252
北朝鲜	-4253
我们所	-4254
短期内	-4255
而言之	-4256
谈判的	-4257
快速增长	-4258
穆沙拉夫	-4259
IP	-4260
ep	-4261
只占	-4262
在不	-4263
强迫	-4264
征税	-4265
急需	-4266
抵御	-4267
消耗	-4268
▁或者	-4269
▁甚至	-4270
保守党	-4271
奥朗德	-4272
引发的	-4273
独裁者	-4274
现有的	-4275
公共债务	-4276
公共卫生	-4277
提供资金	-4278
研究表明	-4279
▁两	-4280
仔细	-4281
克利	-4282
和不	-4283
姆斯	-4284
始于	-4285
广告	-4286
无数	-4287
核能	-4288
目光	-4289
▁不仅	-4290
▁至于	-4291
力量的	-4292
实施的	-4293
撒哈拉	-4294
程度的	-4295
自由和	-4296
都应该	-4297
阿尔及	-4298
危机爆发	-4299
极有可能	-4300
民粹主义者	-4301
上台	-4302
也被	-4303
充斥	-4304
已有	-4305
并为	-4306
时任	-4307
有过	-4308
毛泽	-4309
之一是	-4310
再平衡	-4311
即使在	-4312
可以让	-4313
和就业	-4314
年代末	-4315
政治和	-4316
有关的	-4317
毛泽东	-4318
阿拉伯之春	-4319
▁阿	-4320
一道	-4321
埃塞	-4322
性地	-4323
抨击	-4324
探讨	-4325
提到	-4326
收集	-4327
源于	-4328
起义	-4329
轻易	-4330
面的	-4331
ate	-4332
内贾德	-4333
地位的	-4334
定居点	-4335
就无法	-4336
工人的	-4337
第一步	-4338
运动的	-4339
1997	-4340
公民社会	-4341
四分之一	-4342
国有企业	-4343
大规模的	-4344
金融部门	-4345
nd	-4346
十九	-4347
各大	-4348
征收	-4349
所为	-4350
数百	-4351
无能	-4352
根深	-4353
案件	-4354
海军	-4355
激发	-4356
的年	-4357
议定	-4358
谈论	-4359
长远	-4360
埃塞俄	-4361
希特勒	-4362
心而论	-4363
董事会	-4364
库尔德人	-4365
▁我们必须	-4366
发达国家的	-4367
修订	-4368
南海	-4369
大家	-4370
尊严	-4371
抱怨	-4372
文件	-4373
股权	-4374
邀请	-4375
195	-4376
ist	-4377
清楚地	-4378
著名的	-4379
军事行动	-4380
知识产权	-4381
竞争对手	-4382
其他国家的	-4383
埃塞俄比亚	-4384
29	-4385
和高	-4386
它是	-4387
海湾	-4388
灭绝	-4389
论文	-4390
重振	-4391
▁国家	-4392
了一项	-4393
标志着	-4394
的形式	-4395
秘书长	-4396
起到了	-4397
退休金	-4398
富裕国家	-4399
西方国家	-4400
不容	-4401
中最	-4402
动用	-4403
双重	-4404
大力	-4405
崩盘	-4406
带着	-4407
数以	-4408
既然	-4409
星期	-4410
焦虑	-4411
穷国	-4412
转而	-4413
在国内	-4414
并因此	-4415
数十年	-4416
根本性	-4417
民主和	-4418
生态系统	-4419
非洲国家	-4420
28	-4421
EC	-4422
人所	-4423
吉尔	-4424
名为	-4425
浓缩	-4426
蒂固	-4427
详细	-4428
接受了	-4429
的国内	-4430
类似于	-4431
观察家	-4432
鲁哈尼	-4433
一体化的	-4434
也就是说	-4435
欧元区的	-4436
li	-4437
万亿	-4438
名字	-4439
呈现	-4440
围绕	-4441
摩洛	-4442
父亲	-4443
犹豫	-4444
环保	-4445
路径	-4446
身为	-4447
▁而这	-4448
对经济	-4449
指出的	-4450
教育的	-4451
最贫困	-4452
灾难性	-4453
的税收	-4454
议定书	-4455
通胀率	-4456
1979	-4457
一些国家	-4458
一段时间	-4459
其中包括	-4460
当务之急	-4461
根深蒂固	-4462
▁这是一个	-4463
pe	-4464
中亚	-4465
乐部	-4466
前往	-4467
卡塔	-4468
收购	-4469
树立	-4470
法规	-4471
浪潮	-4472
管道	-4473
维尔	-4474
自杀	-4475
迎来	-4476
铁路	-4477
以上的	-4478
俱乐部	-4479
共同的	-4480
结束了	-4481
▁在这个	-4482
孟加拉国	-4483
尤其是在	-4484
穆斯林兄弟会	-4485
av	-4486
▁用	-4487
一边	-4488
入了	-4489
凝聚	-4490
制衡	-4491
卡尔	-4492
反抗	-4493
它将	-4494
宣扬	-4495
干扰	-4496
愚蠢	-4497
成年	-4498
晋三	-4499
瘫痪	-4500
适用	-4501
ook	-4502
▁St	-4503
▁这场	-4504
不久前	-4505
政策和	-4506
有必要	-4507
的信心	-4508
的谈判	-4509
恰恰相反	-4510
资本市场	-4511
ah	-4512
势头	-4513
坚决	-4514
扩展	-4515
敌意	-4516
无视	-4517
更低	-4518
有望	-4519
此后	-4520
民调	-4521
通往	-4522
逮捕	-4523
雇员	-4524
顽固	-4525
预言	-4526
应该在	-4527
的概念	-4528
而这些	-4529
该国的	-4530
安倍晋三	-4531
法国总统	-4532
自由市场	-4533
这一事实	-4534
CE	-4535
▁那	-4536
东部	-4537
亦然	-4538
勇气	-4539
小心	-4540
德斯	-4541
设置	-4542
辩护	-4543
进化	-4544
30%	-4545
二十一	-4546
但它们	-4547
可以为	-4548
存在于	-4549
斯科尼	-4550
欧洲和	-4551
的实际	-4552
▁在这一	-4553
工作岗位	-4554
影响力的	-4555
阿尔及利亚	-4556
非政府组织	-4557
不出	-4558
临床	-4559
信念	-4560
免受	-4561
兰克	-4562
受过	-4563
意志	-4564
着眼	-4565
纯粹	-4566
结盟	-4567
邪恶	-4568
使用的	-4569
克斯坦	-4570
公司和	-4571
变得更	-4572
的外交	-4573
稳定和	-4574
伊拉克和	-4575
经济危机	-4576
▁正	-4577
为首	-4578
之势	-4579
也要	-4580
加利	-4581
厌恶	-4582
子女	-4583
捐助	-4584
效的	-4585
教师	-4586
极权	-4587
梅内	-4588
诉讼	-4589
赢家	-4590
这里	-4591
驱逐	-4592
▁否则	-4593
伯克利	-4594
在今年	-4595
本世纪	-4596
法国的	-4597
的真正	-4598
只不过是	-4599
告诉我们	-4600
▁平心而论	-4601
ub	-4602
亚太	-4603
但他	-4604
倡议	-4605
自治	-4606
▁关于	-4607
却没有	-4608
在这一	-4609
安全和	-4610
年代初	-4611
的冲突	-4612
的程度	-4613
的胜利	-4614
积极的	-4615
全体	-4616
写道	-4617
击败	-4618
商界	-4619
得出	-4620
指挥	-4621
过了	-4622
连接	-4623
遵循	-4624
高管	-4625
▁当前	-4626
▁接着	-4627
伊朗和	-4628
摩洛哥	-4629
普林斯	-4630
的一大	-4631
的德国	-4632
继任者	-4633
全民公决	-4634
其他地方	-4635
早些时候	-4636
商品和服务	-4637
英格兰银行	-4638
温室气体排放	-4639
5.	-4640
不变	-4641
便利	-4642
修复	-4643
减免	-4644
力和	-4645
加州	-4646
富国	-4647
收紧	-4648
沉默	-4649
炸弹	-4650
破裂	-4651
能量	-4652
限度	-4653
Mar	-4654
再分配	-4655
哈梅内	-4656
多年的	-4657
发展目标	-4658
取得成功	-4659
相比之下	-4660
竞争力的	-4661
美国和欧洲	-4662
二氧化碳排放	-4663
不大	-4664
传递	-4665
准则	-4666
分化	-4667
同性	-4668
平价	-4669
棘手	-4670
眼下	-4671
行事	-4672
采购	-4673
默德	-4674
▁布什	-4675
上个月	-4676
印度和	-4677
很重要	-4678
本质上	-4679
现实的	-4680
的下降	-4681
碳排放	-4682
都不会	-4683
2050	-4684
▁但如今	-4685
即将到来的	-4686
体育	-4687
出人	-4688
太过	-4689
房屋	-4690
排斥	-4691
收支	-4692
政坛	-4693
效仿	-4694
本来	-4695
死刑	-4696
祖国	-4697
缩减	-4698
uro	-4699
是否能	-4700
的办法	-4701
的印度	-4702
罗伯特	-4703
普林斯顿	-4704
美国总统奥巴马	-4705
创立	-4706
反思	-4707
同盟	-4708
失灵	-4709
忠诚	-4710
杀害	-4711
灾害	-4712
缺失	-4713
遥远	-4714
150	-4715
▁de	-4716
十年前	-4717
单方面	-4718
的关注	-4719
的前提	-4720
私有化	-4721
亚洲国家	-4722
所产生的	-4723
根本没有	-4724
民主制度	-4725
解决问题	-4726
银行系统	-4727
26	-4728
ia	-4729
▁的	-4730
不起	-4731
克鲁	-4732
分布	-4733
加深	-4734
扼杀	-4735
攀升	-4736
无限	-4737
英雄	-4738
60%	-4739
一些人	-4740
万美元	-4741
下来的	-4742
充满了	-4743
对全球	-4744
时间的	-4745
罕默德	-4746
增长模式	-4747
核不扩散	-4748
贸易协定	-4749
▁无论如何	-4750
ot	-4751
不堪	-4752
北非	-4753
干旱	-4754
归咎	-4755
待遇	-4756
揭示	-4757
海啸	-4758
玻利	-4759
诞生	-4760
贝卢	-4761
走出	-4762
▁政治	-4763
就没有	-4764
的传统	-4765
的信号	-4766
的状况	-4767
的需要	-4768
繁荣的	-4769
美国对	-4770
该计划	-4771
最高法院	-4772
跨大西洋	-4773
7.	-4774
两党	-4775
也更	-4776
偏见	-4777
天气	-4778
对比	-4779
就连	-4780
当年	-4781
极度	-4782
航空	-4783
远比	-4784
个世纪	-4785
创新的	-4786
就业和	-4787
峰会上	-4788
很简单	-4789
所得税	-4790
死亡率	-4791
看到了	-4792
联盟的	-4793
世界贸易	-4794
的俄罗斯	-4795
之间的关系	-4796
贝卢斯科尼	-4797
IC	-4798
减弱	-4799
古老	-4800
在了	-4801
对付	-4802
很好	-4803
指望	-4804
救援	-4805
比赛	-4806
特权	-4807
解读	-4808
高等	-4809
储蓄率	-4810
大幅度	-4811
失败的	-4812
年开始	-4813
理论上	-4814
的暴力	-4815
的趋势	-4816
1999	-4817
不断增加	-4818
合作伙伴	-4819
波斯尼亚	-4820
▁2010	-4821
货币政策的	-4822
od	-4823
不顾	-4824
地下	-4825
好事	-4826
学会	-4827
成绩	-4828
折磨	-4829
敌对	-4830
旅行	-4831
的事	-4832
竞赛	-4833
认知	-4834
▁in	-4835
不那么	-4836
充斥着	-4837
国际法	-4838
在最近	-4839
无论是	-4840
的其他	-4841
的资产	-4842
▁意大利	-4843
社交媒体	-4844
变得越来越	-4845
不前	-4846
你们	-4847
判决	-4848
协会	-4849
如同	-4850
年将	-4851
掌控	-4852
提前	-4853
有害	-4854
熟悉	-4855
目睹	-4856
萎缩	-4857
远离	-4858
预见	-4859
80%	-4860
以及在	-4861
无人机	-4862
活力的	-4863
的任何	-4864
的数量	-4865
的经验	-4866
罗姆尼	-4867
灾难性的	-4868
联合国的	-4869
▁Part	-4870
uc	-4871
为时	-4872
充当	-4873
可见	-4874
对象	-4875
报复	-4876
推高	-4877
改造	-4878
特点	-4879
职责	-4880
衍生	-4881
逃离	-4882
邓小	-4883
est	-4884
什么样	-4885
收入和	-4886
新一轮	-4887
的新兴	-4888
结核病	-4889
老龄化	-4890
货币的	-4891
银行业	-4892
强有力的	-4893
欧盟国家	-4894
知识分子	-4895
贸易伙伴	-4896
金砖国家	-4897
总统奥巴马	-4898
优惠	-4899
力度	-4900
南克	-4901
大肆	-4902
大脑	-4903
少的	-4904
尔斯	-4905
支柱	-4906
涌入	-4907
渐进	-4908
症状	-4909
的低	-4910
的那	-4911
而又	-4912
飓风	-4913
ell	-4914
也许会	-4915
和伊朗	-4916
国内的	-4917
在没有	-4918
机构和	-4919
进入了	-4920
邓小平	-4921
金正恩	-4922
随之而	-4923
非正式	-4924
▁这也是	-4925
我们已经	-4926
所作所为	-4927
竭尽全力	-4928
三年	-4929
信服	-4930
典型	-4931
教徒	-4932
方的	-4933
生涯	-4934
看看	-4935
精力	-4936
组建	-4937
这条	-4938
颇为	-4939
con	-4940
去杠杆	-4941
它们在	-4942
归咎于	-4943
来实现	-4944
的一份	-4945
西班牙和	-4946
▁l	-4947
不知	-4948
优秀	-4949
会上	-4950
布里	-4951
指引	-4952
果真	-4953
第五	-4954
考察	-4955
而对	-4956
附近	-4957
的使用	-4958
的进步	-4959
aceb	-4960
▁乌克兰	-4961
▁从这个	-4962
哈梅内伊	-4963
是正确的	-4964
根本无法	-4965
石油公司	-4966
经济政策	-4967
▁更糟糕的是	-4968
,《	-4969
便宜	-4970
倒台	-4971
博弈	-4972
含义	-4973
将使	-4974
形容	-4975
所需	-4976
放任	-4977
有权	-4978
比利	-4979
流失	-4980
舆论	-4981
重申	-4982
附加	-4983
鲜明	-4984
70%	-4985
90%	-4986
▁但它	-4987
▁并且	-4988
健康的	-4989
新技术	-4990
的讨论	-4991
稳定性	-4992
英国人	-4993
选择了	-4994
都不是	-4995
▁但他们	-4996
世贸组织	-4997
平均水平	-4998
很可能会	-4999
总统大选	-5000
投资者的	-5001
联邦政府	-5002
二十一世纪	-5003
气候变化的	-5004
的货币政策	-5005
经常项目赤字	-5006
acebook	-5007
ry	-5008
上海	-5009
享有	-5010
会使	-5011
会让	-5012
低下	-5013
回合	-5014
归根	-5015
教皇	-5016
有多	-5017
看待	-5018
等于	-5019
自信	-5020
虐待	-5021
触发	-5022
选战	-5023
不公平	-5024
与伊朗	-5025
可以用	-5026
合作的	-5027
暴力的	-5028
的报告	-5029
的控制	-5030
1998	-5031
经常账户	-5032
财富基金	-5033
金融系统	-5034
撒哈拉以南	-5035
石油和天然气	-5036
▁每	-5037
不住	-5038
京都	-5039
他所	-5040
名单	-5041
否定	-5042
小国	-5043
广场	-5044
戈尔	-5045
挣扎	-5046
接收	-5047
斯蒂	-5048
是以	-5049
有点	-5050
比尔	-5051
设法	-5052
辞职	-5053
还不	-5054
加利福	-5055
可怕的	-5056
在这些	-5057
对这些	-5058
就已经	-5059
撒切尔	-5060
欧元的	-5061
的制度	-5062
的城市	-5063
的标准	-5064
世界各国	-5065
人民银行	-5066
这一趋势	-5067
▁经济学家	-5068
全球经济的	-5069
In	-5070
以致	-5071
兴起	-5072
再度	-5073
出色	-5074
威慑	-5075
常态	-5076
明证	-5077
显现	-5078
部落	-5079
aul	-5080
代表了	-5081
忽略了	-5082
或其他	-5083
法国人	-5084
环境中	-5085
的道路	-5086
tern	-5087
世界上最	-5088
令人震惊	-5089
并非如此	-5090
更有可能	-5091
欧洲议会	-5092
加利福尼亚	-5093
埔寨	-5094
开采	-5095
强力	-5096
成千	-5097
探索	-5098
日内	-5099
正统	-5100
置于	-5101
这让	-5102
但如果	-5103
劳动者	-5104
多样化	-5105
实力的	-5106
尼克松	-5107
巴尔干	-5108
显然是	-5109
柬埔寨	-5110
活动的	-5111
潜在的	-5112
的规模	-5113
角度讲	-5114
叙利亚的	-5115
所有国家	-5116
极端分子	-5117
欧洲经济	-5118
雄心勃勃	-5119
);	-5120
ff	-5121
一小	-5122
不惜	-5123
买入	-5124
作家	-5125
侵蚀	-5126
促成	-5127
修建	-5128
大有	-5129
更广	-5130
欺骗	-5131
理事	-5132
种子	-5133
秘鲁	-5134
精确	-5135
老年	-5136
许可	-5137
遇到	-5138
omm	-5139
▁对此	-5140
会发生	-5141
内部的	-5142
卡塔尔	-5143
布雷顿	-5144
排除在	-5145
日本和	-5146
金融业	-5147
▁大多数	-5148
做好准备	-5149
美国国会	-5150
奥巴马总统	-5151
欧元区国家	-5152
不对	-5153
产物	-5154
仅有	-5155
作者	-5156
卜杜	-5157
友好	-5158
子孙	-5159
定期	-5160
强加	-5161
打造	-5162
接种	-5163
曾在	-5164
激增	-5165
DNA	-5166
ber	-5167
▁直到	-5168
全球性	-5169
包括了	-5170
和他的	-5171
在某些	-5172
外国人	-5173
的危机	-5174
的资源	-5175
1970	-5176
紧张局势	-5177
营养不良	-5178
国内生产总值	-5179
QE	-5180
之内	-5181
交给	-5182
到达	-5183
卢旺	-5184
基准	-5185
宗派	-5186
杂志	-5187
种种	-5188
缓冲	-5189
超出	-5190
▁Ch	-5191
▁某些	-5192
不相同	-5193
也已经	-5194
其经济	-5195
变化的	-5196
增加到	-5197
局限于	-5198
得多的	-5199
格林斯	-5200
疾病的	-5201
的局面	-5202
1991	-5203
▁第二个	-5204
全球贸易	-5205
市场经济	-5206
总统选举	-5207
抵押贷款	-5208
跨太平洋	-5209
中国和印度	-5210
▁最重要的是	-5211
一无	-5212
奇迹	-5213
布尔	-5214
意思	-5215
支配	-5216
有益	-5217
白人	-5218
突出	-5219
米亚	-5220
股价	-5221
行使	-5222
诚实	-5223
轰炸	-5224
采纳	-5225
▁中东	-5226
亚洲的	-5227
价格的	-5228
充分的	-5229
可靠的	-5230
在许多	-5231
对他们	-5232
市场上	-5233
成千上	-5234
是中国	-5235
最新的	-5236
服务的	-5237
的最高	-5238
结束后	-5239
自由派	-5240
▁结果是	-5241
令人担忧	-5242
充分就业	-5243
格林斯潘	-5244
直接投资	-5245
作战	-5246
公债	-5247
兰卡	-5248
展现	-5249
年里	-5250
当代	-5251
架构	-5252
着手	-5253
——“	-5254
▁就像	-5255
▁按照	-5256
一方面	-5257
不可或	-5258
伯南克	-5259
卢旺达	-5260
反对者	-5261
史以来	-5262
外交官	-5263
德国人	-5264
正常化	-5265
比其他	-5266
电视台	-5267
的策略	-5268
欧洲大陆	-5269
采取措施	-5270
生产率增长	-5271
▁到目前为止	-5272
ik	-5273
塑料	-5274
寻常	-5275
尤为	-5276
已久	-5277
德曼	-5278
成分	-5279
捷克	-5280
沃斯	-5281
计价	-5282
转换	-5283
迫害	-5284
通信	-5285
600	-5286
▁on	-5287
▁必须	-5288
也开始	-5289
依然是	-5290
准备好	-5291
就开始	-5292
独立性	-5293
的因素	-5294
的比例	-5295
不可或缺	-5296
全世界的	-5297
央行行长	-5298
的过程中	-5299
通胀目标	-5300
”)	-5301
之地	-5302
人工	-5303
免于	-5304
在与	-5305
大气	-5306
它所	-5307
宝贵	-5308
拖延	-5309
本位	-5310
温度	-5311
爱国	-5312
苹果	-5313
近乎	-5314
随时	-5315
难道	-5316
ohn	-5317
他们将	-5318
又一次	-5319
和欧盟	-5320
小布什	-5321
就应该	-5322
日内瓦	-5323
有理由	-5324
的目的	-5325
的选民	-5326
非洲的	-5327
马克龙	-5328
也有可能	-5329
别无选择	-5330
土耳其的	-5331
年增长率	-5332
贸易赤字	-5333
布雷顿森林	-5334
ew	-5335
ud	-5336
▁V	-5337
住宅	-5338
卫星	-5339
引用	-5340
态势	-5341
打算	-5342
抑郁	-5343
斯里	-5344
模仿	-5345
经理	-5346
能为	-5347
芬兰	-5348
苦难	-5349
西藏	-5350
遗憾	-5351
风格	-5352
高出	-5353
The	-5354
▁很多	-5355
其自身	-5356
决不能	-5357
和企业	-5358
在去年	-5359
奥运会	-5360
工程师	-5361
并且在	-5362
必不可	-5363
政府将	-5364
政治上	-5365
极右翼	-5366
的家庭	-5367
的资本	-5368
的过程	-5369
统一的	-5370
罗斯福	-5371
而美国	-5372
那样的	-5373
出人意料	-5374
商业银行	-5375
新兴国家	-5376
替代方案	-5377
玻利维亚	-5378
欧洲领导人	-5379
AR	-5380
II	-5381
一词	-5382
关联	-5383
几天	-5384
应付	-5385
建国	-5386
政体	-5387
本土	-5388
来到	-5389
混合	-5390
绑架	-5391
自主	-5392
解除	-5393
过多	-5394
这两	-5395
追溯	-5396
通讯	-5397
▁巴西	-5398
▁新的	-5399
三十年	-5400
些什么	-5401
但我们	-5402
可以被	-5403
在中东	-5404
在英国	-5405
的创新	-5406
移民的	-5407
▁在这种	-5408
从根本上	-5409
所提出的	-5410
诺贝尔奖	-5411
进一步恶化	-5412
--	-5413
aw	-5414
▁b	-5415
▁m	-5416
一路	-5417
他将	-5418
像是	-5419
卫队	-5420
布拉	-5421
当作	-5422
指向	-5423
最小	-5424
杀戮	-5425
福祉	-5426
运营	-5427
重复	-5428
黑暗	-5429
ine	-5430
▁面对	-5431
中获得	-5432
反应堆	-5433
大银行	-5434
已不再	-5435
引起的	-5436
归根结	-5437
成本的	-5438
此之外	-5439
注意到	-5440
深刻的	-5441
相结合	-5442
追随者	-5443
阻碍了	-5444
中等收入	-5445
斯里兰卡	-5446
的一系列	-5447
财政紧缩	-5448
不可避免地	-5449
美联储主席	-5450
▁更重要的是	-5451
CA	-5452
不振	-5453
主持	-5454
代替	-5455
停火	-5456
元素	-5457
叛军	-5458
挂钩	-5459
提及	-5460
盖茨	-5461
累积	-5462
面向	-5463
只需要	-5464
和政策	-5465
痛苦的	-5466
萨科齐	-5467
▁欧洲的	-5468
一个新的	-5469
乌克兰的	-5470
令人信服	-5471
归根结底	-5472
经济衰退	-5473
言论自由	-5474
长期利率	-5475
▁2009	-5476
和其他国家	-5477
在某种程度上	-5478
Ch	-5479
▁若	-5480
三倍	-5481
会给	-5482
土壤	-5483
增税	-5484
大了	-5485
数的	-5486
无从	-5487
核武	-5488
注重	-5489
纪律	-5490
较为	-5491
边际	-5492
重启	-5493
雇佣	-5494
▁社会	-5495
令人瞩	-5496
出口国	-5497
密集型	-5498
政府对	-5499
莫过于	-5500
这就是	-5501
各成员国	-5502
并不一定	-5503
民意调查	-5504
的方式来	-5505
不可避免的	-5506
▁反	-5507
不去	-5508
儿子	-5509
冻结	-5510
单边	-5511
南方	-5512
听到	-5513
周围	-5514
地将	-5515
尼迪	-5516
彼得	-5517
忍受	-5518
恰当	-5519
本应	-5520
正好	-5521
民选	-5522
派的	-5523
短暂	-5524
节约	-5525
阿里	-5526
ati	-5527
▁就连	-5528
其实是	-5529
和平的	-5530
在这里	-5531
应该被	-5532
引人注	-5533
的争论	-5534
里斯本	-5535
1000	-5536
不可能的	-5537
好消息是	-5538
委员会的	-5539
德国总理	-5540
▁2011	-5541
举办	-5542
以使	-5543
伴随	-5544
后续	-5545
呼声	-5546
家园	-5547
岁的	-5548
已是	-5549
异常	-5550
影子	-5551
打开	-5552
族裔	-5553
来为	-5554
稳步	-5555
给出	-5556
补助	-5557
转折	-5558
配额	-5559
雷曼	-5560
二战后	-5561
公众对	-5562
周期性	-5563
和印度	-5564
是可以	-5565
灵活性	-5566
的组织	-5567
等国家	-5568
需求的	-5569
项目的	-5570
医疗保险	-5571
奥巴马的	-5572
总体而言	-5573
民族国家	-5574
穆罕默德	-5575
gt	-5576
▁0	-5577
件事	-5578
易事	-5579
期限	-5580
权衡	-5581
的总	-5582
谋杀	-5583
软弱	-5584
▁与此	-5585
▁事实	-5586
副作用	-5587
建立起	-5588
确定性	-5589
资本流	-5590
还包括	-5591
领导力	-5592
克里米亚	-5593
发展援助	-5594
和俄罗斯	-5595
私人投资	-5596
阿拉伯人	-5597
▁不仅如此	-5598
8.	-5599
se	-5600
▁被	-5601
▁说	-5602
一方	-5603
不想	-5604
临近	-5605
仍将	-5606
公私	-5607
剩余	-5608
原油	-5609
失误	-5610
宪章	-5611
家们	-5612
寡头	-5613
抱有	-5614
挑衅	-5615
描绘	-5616
收回	-5617
时报	-5618
行列	-5619
让他	-5620
谎言	-5621
跨越	-5622
轻松	-5623
过分	-5624
野蛮	-5625
▁这将	-5626
▁金融	-5627
助长了	-5628
同性恋	-5629
和文化	-5630
我认为	-5631
扩大的	-5632
来解决	-5633
的移民	-5634
让它们	-5635
购买力	-5636
军事干预	-5637
历史学家	-5638
国际贸易	-5639
成员资格	-5640
政府支出	-5641
资本流入	-5642
超级大国	-5643
▁2012	-5644
这些国家的	-5645
ip	-5646
”、	-5647
▁U	-5648
匹配	-5649
各州	-5650
尖锐	-5651
年和	-5652
是将	-5653
此外	-5654
测量	-5655
燃烧	-5656
的中	-5657
筹集	-5658
自豪	-5659
豁免	-5660
共同体	-5661
占据了	-5662
和宗教	-5663
增长了	-5664
实验室	-5665
的信任	-5666
着眼于	-5667
行动方	-5668
如果我们	-5669
政府必须	-5670
▁相比之下	-5671
总统候选人	-5672
▁再	-5673
之争	-5674
会晤	-5675
减缓	-5676
切地	-5677
恶劣	-5678
成百	-5679
所周	-5680
气温	-5681
海岸	-5682
留下	-5683
破灭	-5684
维和	-5685
高层	-5686
▁各国	-5687
▁柏林	-5688
与欧洲	-5689
两国的	-5690
了一份	-5691
付出的	-5692
任总统	-5693
会产生	-5694
危机前	-5695
和英国	-5696
国家庭	-5697
年前的	-5698
最高的	-5699
演变为	-5700
理性的	-5701
的严重	-5702
的人均	-5703
能带来	-5704
规则的	-5705
还应该	-5706
ence	-5707
evel	-5708
在伊拉克	-5709
在阿富汗	-5710
罗马尼亚	-5711
达成协议	-5712
这些措施	-5713
低收入国家	-5714
up	-5715
▁a	-5716
主动	-5717
主题	-5718
化了	-5719
占了	-5720
号召	-5721
哲学	-5722
多哈	-5723
推出	-5724
有意	-5725
杀伤	-5726
自从	-5727
设想	-5728
,20	-5729
▁其实	-5730
▁是的	-5731
借款人	-5732
克鲁格	-5733
地认为	-5734
并最终	-5735
是无法	-5736
根本不	-5737
法西斯	-5738
的建议	-5739
而不能	-5740
表面上	-5741
马克思	-5742
▁在欧洲	-5743
共和党人	-5744
加入欧盟	-5745
国防部长	-5746
如果没有	-5747
英国退出	-5748
▁国际货币基金组织	-5749
Al	-5750
不止	-5751
事关	-5752
他说	-5753
价还	-5754
兴奋	-5755
农场	-5756
前途	-5757
受损	-5758
在他	-5759
奥尔	-5760
席卷	-5761
注册	-5762
洪水	-5763
港口	-5764
用水	-5765
类型	-5766
经典	-5767
肥胖	-5768
警惕	-5769
记住	-5770
评价	-5771
过早	-5772
过的	-5773
音乐	-5774
▁具体	-5775
众所周	-5776
和公共	-5777
工作者	-5778
战争中	-5779
找不到	-5780
提高到	-5781
时期的	-5782
的决策	-5783
的斗争	-5784
第三个	-5785
警告说	-5786
达沃斯	-5787
#45;	-5788
1995	-5789
▁但这种	-5790
以色列人	-5791
弗里德曼	-5792
政府债务	-5793
▁2015	-5794
的经济学家	-5795
lt	-5796
之比	-5797
命令	-5798
巴布	-5799
心脏	-5800
恐怕	-5801
数学	-5802
无辜	-5803
电网	-5804
身处	-5805
ank	-5806
ern	-5807
产品的	-5808
伊朗核	-5809
会造成	-5810
基因组	-5811
已开始	-5812
成百上	-5813
持有的	-5814
是全球	-5815
最大化	-5816
没什么	-5817
的个人	-5818
的教育	-5819
的预测	-5820
衍生品	-5821
了一系列	-5822
十九世纪	-5823
子孙后代	-5824
社会保障	-5825
货币贬值	-5826
很大一部分	-5827
领导人必须	-5828
2,	-5829
9%	-5830
▁坎	-5831
两岸	-5832
出席	-5833
勇敢	-5834
声誉	-5835
年在	-5836
得益	-5837
德尔	-5838
推移	-5839
暴行	-5840
更新	-5841
歇尔	-5842
清洗	-5843
界限	-5844
约为	-5845
逃避	-5846
阴谋	-5847
阿布	-5848
雇用	-5849
魅力	-5850
和债务	-5851
和能源	-5852
在亚洲	-5853
接近于	-5854
是欧洲	-5855
有限的	-5856
来源于	-5857
生产商	-5858
的前景	-5859
的新闻	-5860
的时期	-5861
的第一	-5862
表明了	-5863
金本位	-5864
长期的	-5865
高质量	-5866
▁墨西哥	-5867
任何一个	-5868
其他地区	-5869
双边关系	-5870
大宗商品	-5871
成千上万	-5872
恐怖主义的	-5873
提供了一个	-5874
▁谁	-5875
与之	-5876
他是	-5877
体验	-5878
储量	-5879
前沿	-5880
及时	-5881
总结	-5882
情感	-5883
施压	-5884
更能	-5885
植物	-5886
生效	-5887
稀缺	-5888
若干	-5889
这也	-5890
这就	-5891
都对	-5892
5%。	-5893
▁以及	-5894
▁自从	-5895
▁这次	-5896
▁银行	-5897
之外的	-5898
价还价	-5899
有一天	-5900
的大量	-5901
的规则	-5902
的错误	-5903
萨尔科	-5904
工业革命	-5905
提高利率	-5906
永远不会	-5907
讨价还价	-5908
主权财富基金	-5909
千年发展目标	-5910
ex	-5911
事态	-5912
代人	-5913
塑造	-5914
大体	-5915
小型	-5916
屈服	-5917
庆祝	-5918
概率	-5919
每一	-5920
沙龙	-5921
疯狂	-5922
级别	-5923
而其	-5924
上升到	-5925
前苏联	-5926
势力的	-5927
只不过	-5928
和平与	-5929
多元化	-5930
扩大了	-5931
比利时	-5932
的民众	-5933
的竞争	-5934
近年来	-5935
都认为	-5936
采取的	-5937
从来没有	-5938
借贷成本	-5939
单一市场	-5940
现在已经	-5941
Facebook	-5942
从前	-5943
内在	-5944
分割	-5945
圣地	-5946
地图	-5947
复制	-5948
多次	-5949
对策	-5950
必将	-5951
成的	-5952
把它	-5953
捐赠	-5954
民兵	-5955
深深	-5956
紧要	-5957
荒谬	-5958
虚假	-5959
论者	-5960
lob	-5961
oun	-5962
son	-5963
不断地	-5964
也存在	-5965
了大量	-5966
会出现	-5967
体现在	-5968
决定了	-5969
制定了	-5970
反对党	-5971
在整个	-5972
基础上	-5973
影响了	-5974
德拉吉	-5975
性武器	-5976
新政府	-5977
是对的	-5978
生产的	-5979
的贷款	-5980
该组织	-5981
▁5%。	-5982
▁伯克利	-5983
与俄罗斯	-5984
九十年代	-5985
化学武器	-5986
所有人的	-5987
是错误的	-5988
外交政策的	-5989
撒哈拉以南非洲	-5990
ES	-5991
▁本	-5992
制止	-5993
区的	-5994
半年	-5995
回忆	-5996
很低	-5997
曝光	-5998
机关	-5999
的非	-6000
禁令	-6001
草案	-6002
误解	-6003
阴影	-6004
隐藏	-6005
▁答案	-6006
▁这项	-6007
传统上	-6008
全面的	-6009
对那些	-6010
布里奇	-6011
或许是	-6012
日本人	-6013
精神病	-6014
行业的	-6015
说明了	-6016
货币和	-6017
追溯到	-6018
阿卜杜	-6019
1945	-6020
▁如果你	-6021
克鲁格曼	-6022
发挥作用	-6023
唯一一个	-6024
实体经济	-6025
很快就会	-6026
监管机构	-6027
▁巴基斯坦	-6028
的经济发展	-6029
一大	-6030
不已	-6031
入盟	-6032
创始	-6033
单独	-6034
场合	-6035
基石	-6036
境内	-6037
将为	-6038
政界	-6039
最具	-6040
涵盖	-6041
漫长	-6042
现行	-6043
赞助	-6044
饥荒	-6045
25%	-6046
与欧盟	-6047
因为在	-6048
是一场	-6049
是非常	-6050
的一致	-6051
的利率	-6052
的原则	-6053
的希望	-6054
的英国	-6055
Paul	-6056
金融市场的	-6057
ut	-6058
一片	-6059
不难	-6060
切断	-6061
勒庞	-6062
协商	-6063
叙事	-6064
囚犯	-6065
增速	-6066
天的	-6067
审视	-6068
将于	-6069
尼泊	-6070
并无	-6071
悬崖	-6072
房子	-6073
揭露	-6074
故意	-6075
猜测	-6076
用途	-6077
置疑	-6078
美好	-6079
范畴	-6080
预示	-6081
end	-6082
下一次	-6083
不利于	-6084
中国对	-6085
去年的	-6086
及其他	-6087
可以说	-6088
少数派	-6089
支持率	-6090
文化的	-6091
更广泛	-6092
的不同	-6093
的领域	-6094
肯尼迪	-6095
还不如	-6096
▁000	-6097
▁我们的	-6098
中央政府	-6099
人力资本	-6100
他们认为	-6101
医疗保健	-6102
社会主义	-6103
欧元区成员国	-6104
ug	-6105
事物	-6106
出手	-6107
初级	-6108
各样	-6109
宽容	-6110
州和	-6111
戏剧	-6112
房产	-6113
推向	-6114
派遣	-6115
申科	-6116
起草	-6117
进了	-6118
SDR	-6119
iti	-6120
▁to	-6121
▁朝鲜	-6122
了这些	-6123
人民党	-6124
从而使	-6125
合适的	-6126
显示出	-6127
有一些	-6128
的比重	-6129
约旦河	-6130
耐药性	-6131
谈判中	-6132
需要在	-6133
▁马德里	-6134
停滞不前	-6135
国家主席	-6136
就有可能	-6137
经济表现	-6138
艾滋病毒	-6139
安倍经济学	-6140
政策制定者	-6141
evelop	-6142
一支	-6143
不清	-6144
也对	-6145
借钱	-6146
别人	-6147
卷入	-6148
四年	-6149
回事	-6150
国界	-6151
土重	-6152
始终	-6153
学科	-6154
尽快	-6155
平息	-6156
开罗	-6157
成效	-6158
指令	-6159
杀死	-6160
步伐	-6161
氛围	-6162
花了	-6163
降至	-6164
隐含	-6165
颇具	-6166
▁但对	-6167
从而让	-6168
困难的	-6169
所必须	-6170
持续的	-6171
普京的	-6172
条件下	-6173
的土地	-6174
的道德	-6175
脆弱性	-6176
▁即使是	-6177
极端贫困	-6178
的大部分	-6179
空气污染	-6180
▁2014	-6181
京都议定书	-6182
生物多样性	-6183
1/	-6184
中学	-6185
也为	-6186
他信	-6187
但仍	-6188
凭借	-6189
延伸	-6190
想到	-6191
撤离	-6192
既得	-6193
根除	-6194
流程	-6195
真空	-6196
稳固	-6197
策划	-6198
葛兰	-6199
话题	-6200
轨道	-6201
风能	-6202
▁第四	-6203
不信任	-6204
会成为	-6205
低成本	-6206
加入了	-6207
卷土重	-6208
压力的	-6209
城市化	-6210
基督徒	-6211
女性的	-6212
的存在	-6213
的持续	-6214
的石油	-6215
的部分	-6216
第二大	-6217
较低的	-6218
教育程度	-6219
无法获得	-6220
conom	-6221
▁可以肯定	-6222
联系在一起	-6223
NP	-6224
og	-6225
不像	-6226
低了	-6227
倒退	-6228
布朗	-6229
平面	-6230
很小	-6231
总裁	-6232
整整	-6233
新增	-6234
束缚	-6235
极限	-6236
格尔	-6237
瓦解	-6238
短短	-6239
糖尿	-6240
花钱	-6241
错了	-6242
高估	-6243
all	-6244
一致的	-6245
个人的	-6246
全新的	-6247
几年前	-6248
创造出	-6249
前总理	-6250
办法是	-6251
完全是	-6252
得到的	-6253
最近在	-6254
最重要	-6255
核试验	-6256
津巴布	-6257
要求的	-6258
资源的	-6259
起来的	-6260
这么做	-6261
2018	-6262
和土耳其	-6263
最严重的	-6264
的人来说	-6265
自由民主	-6266
lobal	-6267
凯恩斯主义	-6268
经济增长的	-6269
》,	-6270
不复	-6271
东道	-6272
中欧	-6273
会计	-6274
倡导	-6275
哈里	-6276
因于	-6277
多尔	-6278
对方	-6279
就算	-6280
执法	-6281
提交	-6282
新鲜	-6283
溢价	-6284
趋同	-6285
这对	-6286
道而	-6287
高涨	-6288
CEO	-6289
为自己	-6290
保持着	-6291
同时又	-6292
基本面	-6293
所做的	-6294
所有权	-6295
是我们	-6296
模式的	-6297
达成了	-6298
通常是	-6299
▁伊拉克	-6300
债务负担	-6301
国内政治	-6302
就不可能	-6303
就是一个	-6304
津巴布韦	-6305
生活方式	-6306
私营部门	-6307
试图通过	-6308
通货紧缩	-6309
1,000	-6310
▁坎布里奇	-6311
▁巴勒斯坦	-6312
▁普林斯顿	-6313
的全球经济	-6314
贸易和投资	-6315
▁拉	-6316
亚美	-6317
伤亡	-6318
关押	-6319
几十	-6320
前者	-6321
同等	-6322
地点	-6323
增值	-6324
头上	-6325
宇宙	-6326
就此	-6327
情愿	-6328
慢性	-6329
据说	-6330
撤出	-6331
有力	-6332
汽油	-6333
竭力	-6334
胜出	-6335
蛋白	-6336
血腥	-6337
顺差	-6338
付出了	-6339
俄国的	-6340
和监管	-6341
和长期	-6342
如此之	-6343
希腊的	-6344
忽视了	-6345
我们将	-6346
承诺的	-6347
的儿童	-6348
的潜在	-6349
英国和	-6350
贷款人	-6351
预见的	-6352
额外的	-6353
▁即使在	-6354
▁让我们	-6355
不幸的是	-6356
中小企业	-6357
似乎已经	-6358
国家利益	-6359
在叙利亚	-6360
甚至可能	-6361
近几年来	-6362
雷曼兄弟	-6363
政治和经济	-6364
比以往任何时候	-6365
▁举	-6366
▁很	-6367
中止	-6368
储存	-6369
其反	-6370
分担	-6371
到期	-6372
卡特	-6373
咨询	-6374
就职	-6375
就被	-6376
已被	-6377
总部	-6378
收到	-6379
潮流	-6380
稳健	-6381
维也	-6382
股份	-6383
迎接	-6384
阻力	-6385
1%。	-6386
ess	-6387
一个人	-6388
一样的	-6389
世界中	-6390
之前的	-6391
任理事	-6392
和商业	-6393
归因于	-6394
拒绝了	-6395
的商业	-6396
的失败	-6397
的想法	-6398
的手段	-6399
邻国的	-6400
阻止了	-6401
▁Pro	-6402
亚美尼亚	-6403
帝国主义	-6404
年代以来	-6405
当选总统	-6406
的美国人	-6407
跨国公司	-6408
urope	-6409
上演	-6410
五个	-6411
以巴	-6412
动的	-6413
医保	-6414
和谐	-6415
奖励	-6416
市长	-6417
年时	-6418
搜索	-6419
是其	-6420
源泉	-6421
股本	-6422
西部	-6423
Rob	-6424
和地区	-6425
因为他	-6426
就可能	-6427
斯拉夫	-6428
的意愿	-6429
的监管	-6430
糖尿病	-6431
糟糕的	-6432
不是一个	-6433
外交部长	-6434
所导致的	-6435
日益增加	-6436
有所下降	-6437
种族灭绝	-6438
经济活动	-6439
资本流动	-6440
▁2007	-6441
oc	-6442
伐克	-6443
内政	-6444
军官	-6445
列为	-6446
吸取	-6447
多久	-6448
奏效	-6449
将给	-6450
平静	-6451
战术	-6452
报酬	-6453
掉了	-6454
无需	-6455
机场	-6456
检察	-6457
的可	-6458
的重	-6459
起点	-6460
这份	-6461
隐私	-6462
ord	-6463
sti	-6464
▁Re	-6465
▁当今	-6466
他们是	-6467
体现了	-6468
制造商	-6469
强化了	-6470
急需的	-6471
是一项	-6472
来进行	-6473
核电站	-6474
洛伐克	-6475
温和的	-6476
的崛起	-6477
的文化	-6478
能获得	-6479
表现得	-6480
视而不	-6481
▁5%,	-6482
▁在一个	-6483
▁这样做	-6484
同时也是	-6485
如何应对	-6486
恶性循环	-6487
有史以来	-6488
这一比例	-6489
都是如此	-6490
的解决方案	-6491
上帝	-6492
主管	-6493
会面	-6494
但对	-6495
加哥	-6496
巴格	-6497
微妙	-6498
放眼	-6499
法特	-6500
聚集	-6501
萨斯	-6502
进攻	-6503
采访	-6504
2%。	-6505
▁至少	-6506
他们会	-6507
使他们	-6508
公司税	-6509
准备金	-6510
占全球	-6511
和世界	-6512
在印度	-6513
并不会	-6514
恶化的	-6515
感兴趣	-6516
感受到	-6517
有很多	-6518
示威者	-6519
签署了	-6520
芝加哥	-6521
限制在	-6522
▁今天的	-6523
▁新德里	-6524
债务危机	-6525
政治制度	-6526
税收收入	-6527
美国国债	-6528
选举结果	-6529
▁美国剑桥	-6530
年全球金融危机	-6531
evelopment	-6532
az	-6533
▁三	-6534
一倍	-6535
光明	-6536
初衷	-6537
和非	-6538
商人	-6539
器官	-6540
境况	-6541
封闭	-6542
将从	-6543
开端	-6544
方便	-6545
汲取	-6546
流血	-6547
热衷	-6548
经受	-6549
耗费	-6550
起着	-6551
输出	-6552
麦肯	-6553
▁俄国	-6554
▁然后	-6555
事件的	-6556
人死亡	-6557
会议员	-6558
刺激了	-6559
即便是	-6560
想象的	-6561
放弃了	-6562
明智的	-6563
正确地	-6564
殖民地	-6565
演讲中	-6566
的现象	-6567
维也纳	-6568
美国将	-6569
脆弱的	-6570
观察者	-6571
过去了	-6572
通过了	-6573
都知道	-6574
sion	-6575
▁但尽管	-6576
其自身的	-6577
军事力量	-6578
少数族裔	-6579
所指出的	-6580
拒绝接受	-6581
紧缩政策	-6582
英国退欧	-6583
负面影响	-6584
这方面的	-6585
俄罗斯总统	-6586
▁Party	-6587
合作伙伴关系	-6588
一如	-6589
也让	-6590
信奉	-6591
十二	-6592
名的	-6593
坚挺	-6594
外来	-6595
尼古	-6596
并对	-6597
想想	-6598
批判	-6599
暂停	-6600
神圣	-6601
科夫	-6602
等国	-6603
维克	-6604
职务	-6605
致死	-6606
贪婪	-6607
过时	-6608
3%。	-6609
800	-6610
ton	-6611
▁但他	-6612
创新和	-6613
受益者	-6614
在他们	-6615
在那里	-6616
如果你	-6617
所造成	-6618
挑战的	-6619
推动了	-6620
更低的	-6621
桑德斯	-6622
独一无	-6623
组织和	-6624
给我们	-6625
而没有	-6626
被广泛	-6627
资产的	-6628
远低于	-6629
不受欢迎	-6630
其中一个	-6631
所取得的	-6632
技术进步	-6633
迫切需要	-6634
迹象表明	-6635
阿拉法特	-6636
#45;&	-6637
▁2013	-6638
▁毫不奇怪	-6639
拥有核武器	-6640
政治领导人	-6641
联合国大会	-6642
OM	-6643
SA	-6644
军备	-6645
几百	-6646
分支	-6647
单纯	-6648
君主	-6649
哈萨	-6650
婚姻	-6651
居高	-6652
惊人	-6653
意的	-6654
提款	-6655
揽子	-6656
早在	-6657
有趣	-6658
朝着	-6659
波罗	-6660
派别	-6661
深陷	-6662
游击	-6663
火箭	-6664
病例	-6665
眼中	-6666
耗尽	-6667
要让	-6668
较高	-6669
迁徙	-6670
邻居	-6671
里亚	-6672
钢铁	-6673
马尔	-6674
人类的	-6675
定义为	-6676
对欧盟	-6677
尼泊尔	-6678
层面上	-6679
希望的	-6680
涉及到	-6681
生物学	-6682
的人数	-6683
的日本	-6684
的难民	-6685
相同的	-6686
资本外	-6687
还不到	-6688
▁但中国	-6689
▁第一个	-6690
为基础的	-6691
债务重组	-6692
储备货币	-6693
公共投资	-6694
大幅下降	-6695
布什总统	-6696
独一无二	-6697
萨尔科奇	-6698
▁国际社会	-6699
▁好消息是	-6700
杀伤性武器	-6701
的经济政策	-6702
经济和社会	-6703
大宗商品价格	-6704
TA	-6705
一段	-6706
偏离	-6707
境地	-6708
够的	-6709
头脑	-6710
奉行	-6711
容克	-6712
战场	-6713
手术	-6714
最快	-6715
权益	-6716
标签	-6717
理所	-6718
电动	-6719
直面	-6720
着陆	-6721
短视	-6722
臭名	-6723
论证	-6724
赌注	-6725
骚乱	-6726
und	-6727
关注的	-6728
和民主	-6729
对伊朗	-6730
往往是	-6731
成立了	-6732
控制权	-6733
无法在	-6734
权利的	-6735
温和派	-6736
的一年	-6737
的依赖	-6738
的项目	-6739
而中国	-6740
这表明	-6741
1992	-6742
1994	-6743
▁Con	-6744
人均收入	-6745
只是一个	-6746
国家政府	-6747
是不够的	-6748
有足够的	-6749
股票市场	-6750
英国脱欧	-6751
#45;&#45;	-6752
ld	-6753
依存	-6754
其所	-6755
动乱	-6756
受困	-6757
增进	-6758
外包	-6759
失控	-6760
巴以	-6761
弗拉	-6762
想起	-6763
愈烈	-6764
慕尼	-6765
手里	-6766
是让	-6767
有序	-6768
直升	-6769
被人	-6770
较少	-6771
远未	-6772
野生	-6773
马车	-6774
▁第一	-6775
以外的	-6776
几乎是	-6777
可以将	-6778
吸引了	-6779
因素是	-6780
坏消息	-6781
总量的	-6782
更愿意	-6783
最严重	-6784
的不满	-6785
的思想	-6786
的联系	-6787
研究者	-6788
还远远	-6789
都不能	-6790
随后的	-6791
麦肯锡	-6792
▁但美国	-6793
▁这一点	-6794
就是明证	-6795
当今世界	-6796
投资银行	-6797
是否能够	-6798
朝鲜半岛	-6799
果真如此	-6800
的另一个	-6801
视而不见	-6802
这些政策	-6803
问题在于	-6804
▁世界银行	-6805
Robert	-6806
作品	-6807
假定	-6808
加纳	-6809
升息	-6810
回避	-6811
安抚	-6812
实用	-6813
带有	-6814
心态	-6815
愈演	-6816
检验	-6817
波多	-6818
清除	-6819
照顾	-6820
确立	-6821
管辖	-6822
羞辱	-6823
而后	-6824
英语	-6825
赞同	-6826
造就	-6827
里夫	-6828
防卫	-6829
鲁莽	-6830
▁未来	-6831
▁随后	-6832
一个更	-6833
双方都	-6834
和市场	-6835
在其他	-6836
并以此	-6837
惊人的	-6838
本国的	-6839
的有效	-6840
的稳定	-6841
社会党	-6842
管理者	-6843
臭名昭	-6844
规模的	-6845
调整的	-6846
这使得	-6847
违反了	-6848
限制了	-6849
高科技	-6850
10%。	-6851
1967	-6852
与以色列	-6853
从而导致	-6854
利益集团	-6855
刺激计划	-6856
半个世纪	-6857
和以色列	-6858
常任理事	-6859
愈演愈烈	-6860
正在经历	-6861
越来越大	-6862
这一结果	-6863
iv	-6864
一件	-6865
之久	-6866
住了	-6867
公里	-6868
加泰	-6869
协作	-6870
吸烟	-6871
哈特	-6872
回顾	-6873
多极	-6874
巨型	-6875
开创	-6876
弗朗	-6877
所做	-6878
掠夺	-6879
收获	-6880
村庄	-6881
清醒	-6882
特区	-6883
的核	-6884
的老	-6885
直觉	-6886
空中	-6887
红利	-6888
警方	-6889
700	-6890
▁但当	-6891
低估了	-6892
加泰罗	-6893
回报率	-6894
完成了	-6895
强烈的	-6896
慕尼黑	-6897
波多黎	-6898
的故事	-6899
的调查	-6900
自动化	-6901
1960	-6902
▁在中国	-6903
令人不安	-6904
和伊拉克	-6905
应对措施	-6906
恐怖组织	-6907
有所不同	-6908
消费者的	-6909
臭名昭著	-6910
重要作用	-6911
▁简而言之	-6912
加泰罗尼亚	-6913
哈萨克斯坦	-6914
经济和政治	-6915
&#45;&#45;	-6916
IT	-6917
书中	-6918
互换	-6919
去了	-6920
哪种	-6921
在对	-6922
多重	-6923
对冲	-6924
接管	-6925
教科	-6926
机械	-6927
牵涉	-6928
裁军	-6929
论点	-6930
4%。	-6931
▁Ac	-6932
▁基于	-6933
不在于	-6934
与西方	-6935
召开的	-6936
听起来	-6937
哲学家	-6938
在欧盟	-6939
将面临	-6940
找到了	-6941
把自己	-6942
拥有的	-6943
比美国	-6944
的内容	-6945
的出现	-6946
的方向	-6947
的理论	-6948
竞争性	-6949
▁Sch	-6950
▁许多人	-6951
不负责任	-6952
加沙地带	-6953
卷土重来	-6954
波多黎各	-6955
生物燃料	-6956
社会福利	-6957
经济改革	-6958
行动起来	-6959
stitu	-6960
不可持续的	-6961
巴基斯坦的	-6962
欧洲一体化	-6963
3,	-6964
ta	-6965
不多	-6966
不幸	-6967
不错	-6968
两极	-6969
丧生	-6970
人心	-6971
克制	-6972
可观	-6973
大党	-6974
大麻	-6975
奠定	-6976
妻子	-6977
归功	-6978
找出	-6979
拙劣	-6980
旁观	-6981
是很	-6982
正当	-6983
正规	-6984
王朝	-6985
的罪	-6986
科研	-6987
等同	-6988
类的	-6989
计的	-6990
让它	-6991
赫尔	-6992
输家	-6993
▁民主	-6994
供应商	-6995
保持在	-6996
已经有	-6997
或许会	-6998
海平面	-6999
生活中	-7000
的教训	-7001
的证据	-7002
的重大	-7003
移民和	-7004
该协议	-7005
运动员	-7006
领导者	-7007
John	-7008
从一开始	-7009
令人失望	-7010
俄罗斯和	-7011
保险公司	-7012
前所未有	-7013
工作人员	-7014
并不是说	-7015
成为现实	-7016
这场危机	-7017
需要一个	-7018
收入不平等	-7019
资本主义的	-7020
越来越多地	-7021
An	-7022
上加	-7023
之举	-7024
城镇	-7025
得上	-7026
教条	-7027
新生	-7028
是要	-7029
河流	-7030
用了	-7031
留给	-7032
真理	-7033
纽黑	-7034
董事	-7035
远见	-7036
适当	-7037
适得	-7038
颁布	-7039
15%	-7040
ani	-7041
之后的	-7042
以来的	-7043
但这些	-7044
国家在	-7045
在我们	-7046
尼西亚	-7047
巴塞尔	-7048
希拉克	-7049
建立的	-7050
归功于	-7051
形成的	-7052
微不足	-7053
有意义	-7054
的人权	-7055
的工具	-7056
类型的	-7057
纽黑文	-7058
统治的	-7059
维持在	-7060
获得者	-7061
贸易和	-7062
▁全世界	-7063
医疗服务	-7064
对美国的	-7065
政府应该	-7066
无关紧要	-7067
权力机构	-7068
竞选活动	-7069
货币市场	-7070
适得其反	-7071
,2008	-7072
ement	-7073
民族主义者	-7074
世界其他国家	-7075
65	-7076
FD	-7077
IV	-7078
估值	-7079
侯赛	-7080
借此	-7081
光是	-7082
则在	-7083
利钦	-7084
制作	-7085
场所	-7086
娱乐	-7087
必需	-7088
搜集	-7089
携带	-7090
无比	-7091
更强	-7092
杰夫	-7093
民党	-7094
疫情	-7095
硅谷	-7096
社团	-7097
终极	-7098
罕见	-7099
让其	-7100
该党	-7101
金额	-7102
▁关键	-7103
▁来自	-7104
凸显出	-7105
参与了	-7106
发展和	-7107
可能对	-7108
叶利钦	-7109
在哪里	-7110
已经从	-7111
必然会	-7112
执政的	-7113
毕业生	-7114
的人类	-7115
的分析	-7116
的损失	-7117
的表现	-7118
的迹象	-7119
能源和	-7120
1973	-7121
▁比如说	-7122
全球金融	-7123
微不足道	-7124
资本管制	-7125
带来巨大的	-7126
社会和经济	-7127
而不仅仅是	-7128
上市	-7129
中位	-7130
交道	-7131
亲密	-7132
创伤	-7133
包围	-7134
受伤	-7135
定位	-7136
意在	-7137
教派	-7138
新型	-7139
热带	-7140
版本	-7141
细菌	-7142
胡锦	-7143
艾哈	-7144
蓬勃	-7145
虚拟	-7146
赫鲁	-7147
选区	-7148
道歉	-7149
难免	-7150
▁原因	-7151
▁解决	-7152
▁韩国	-7153
世界最	-7154
代表的	-7155
做什么	-7156
发挥了	-7157
在所有	-7158
对这一	-7159
将这些	-7160
帝国的	-7161
标准的	-7162
流行的	-7163
的伊朗	-7164
的保护	-7165
的公民	-7166
的数字	-7167
的预期	-7168
胡锦涛	-7169
选举的	-7170
驾马车	-7171
▁我认为	-7172
主导地位	-7173
农村地区	-7174
可能造成	-7175
安全问题	-7176
政府官员	-7177
特别提款	-7178
▁他们认为	-7179
之间的联系	-7180
伊斯兰国的	-7181
时间的推移	-7182
ternational	-7183
▁Development	-7184
与否	-7185
个性	-7186
冷静	-7187
准入	-7188
合物	-7189
多德	-7190
对峙	-7191
小学	-7192
弹性	-7193
惠及	-7194
拉动	-7195
无情	-7196
更深	-7197
民用	-7198
治国	-7199
派系	-7200
海上	-7201
特色	-7202
神话	-7203
纲领	-7204
纳米	-7205
耐心	-7206
职能	-7207
论调	-7208
诉求	-7209
追踪	-7210
雅典	-7211
SDG	-7212
ens	-7213
丘吉尔	-7214
中东和	-7215
代表着	-7216
但这一	-7217
十年来	-7218
发现了	-7219
在一定	-7220
城市的	-7221
复杂性	-7222
大选中	-7223
巴格达	-7224
很好地	-7225
政客们	-7226
是一位	-7227
的恐惧	-7228
的批评	-7229
科维奇	-7230
被证明	-7231
1993	-7232
cial	-7233
单一货币	-7234
少数民族	-7235
数百万人	-7236
根本性的	-7237
的全球化	-7238
财政状况	-7239
难民危机	-7240
约旦河西岸	-7241
9.	-7242
▁斯	-7243
▁美	-7244
一贯	-7245
亚努	-7246
又是	-7247
变迁	-7248
各项	-7249
名列	-7250
在新	-7251
大臣	-7252
存活	-7253
家长	-7254
就不	-7255
开来	-7256
抬头	-7257
接纳	-7258
救济	-7259
明星	-7260
特拉	-7261
看成	-7262
简直	-7263
覆辙	-7264
让我	-7265
避难	-7266
雷斯	-7267
顶峰	-7268
▁一位	-7269
为美国	-7270
决定性	-7271
和支持	-7272
在德国	-7273
太多的	-7274
家庭的	-7275
恰当的	-7276
损害了	-7277
时间内	-7278
欧盟和	-7279
的事件	-7280
的大幅	-7281
管理的	-7282
被用于	-7283
边缘化	-7284
▁在这些	-7285
他们可以	-7286
将在未来	-7287
欧洲银行	-7288
没有一个	-7289
的领导下	-7290
联合政府	-7291
▁我们应该	-7292
意味着什么	-7293
随之而来的	-7294
▁Econom	-7295
大规模杀伤性武器	-7296
▁第	-7297
一来	-7298
不相	-7299
为主	-7300
为期	-7301
今日	-7302
体面	-7303
出发	-7304
外债	-7305
已故	-7306
投行	-7307
挫折	-7308
摇摆	-7309
有用	-7310
波特	-7311
深受	-7312
渗透	-7313
激起	-7314
牛津	-7315
略有	-7316
确信	-7317
艰苦	-7318
这与	-7319
重演	-7320
陷于	-7321
靠拢	-7322
顺利	-7323
首尔	-7324
高乐	-7325
ach	-7326
▁但我	-7327
▁欧元	-7328
不住脚	-7329
侯赛因	-7330
军事实	-7331
副总统	-7332
原子能	-7333
在非洲	-7334
如果不	-7335
成年人	-7336
执行官	-7337
接下来	-7338
是时候	-7339
的人群	-7340
的援助	-7341
的根源	-7342
落后于	-7343
都已经	-7344
预示着	-7345
高风险	-7346
▁但随着	-7347
去杠杆化	-7348
是否应该	-7349
这样一种	-7350
需要时间	-7351
需要的是	-7352
▁归根结底	-7353
可以追溯到	-7354
首相安倍晋三	-7355
亚于	-7356
人对	-7357
兑换	-7358
分为	-7359
史上	-7360
大致	-7361
学位	-7362
宣告	-7363
小说	-7364
展望	-7365
并以	-7366
并论	-7367
幻觉	-7368
弥合	-7369
戈登	-7370
抵达	-7371
撰写	-7372
数额	-7373
杀人	-7374
正面	-7375
生计	-7376
相提	-7377
精心	-7378
缔造	-7379
罗德	-7380
解散	-7381
说过	-7382
调节	-7383
骄傲	-7384
▁在我	-7385
▁实现	-7386
▁正是	-7387
了许多	-7388
凝聚力	-7389
和创新	-7390
回到了	-7391
大国的	-7392
建设性	-7393
当时的	-7394
恢复力	-7395
恰恰是	-7396
戴高乐	-7397
执政党	-7398
替代品	-7399
的出口	-7400
的状态	-7401
的生命	-7402
的联盟	-7403
监管和	-7404
直升机	-7405
腐败的	-7406
评论家	-7407
财政和	-7408
▁但现在	-7409
▁共和党	-7410
价格上涨	-7411
几十年的	-7412
取得进展	-7413
无法解决	-7414
相提并论	-7415
站不住脚	-7416
英国首相	-7417
资产泡沫	-7418
发生的事情	-7419
的不确定性	-7420
经常项目盈余	-7421
不下	-7422
和反	-7423
在近	-7424
大为	-7425
存量	-7426
家宝	-7427
富豪	-7428
将比	-7429
广播	-7430
春天	-7431
极少	-7432
梅德	-7433
的更	-7434
经费	-7435
结局	-7436
缴纳	-7437
致使	-7438
花在	-7439
萨默	-7440
货物	-7441
重蹈	-7442
阻挡	-7443
集权	-7444
250	-7445
are	-7446
▁7%	-7447
▁不久	-7448
▁历史	-7449
不能再	-7450
为他们	-7451
健康和	-7452
发生过	-7453
同一个	-7454
威胁的	-7455
安全网	-7456
控制着	-7457
有责任	-7458
生产者	-7459
由美国	-7460
的人道	-7461
的最低	-7462
的理解	-7463
的科学	-7464
的限制	-7465
较高的	-7466
▁而如果	-7467
产能过剩	-7468
做些什么	-7469
制药公司	-7470
南斯拉夫	-7471
成为世界	-7472
最有可能	-7473
理所当然	-7474
的穆斯林	-7475
非常重要	-7476
▁我们可以	-7477
外国投资者	-7478
常任理事国	-7479
最重要的是	-7480
首席执行官	-7481
io	-7482
与此	-7483
买单	-7484
人选	-7485
会把	-7486
使之	-7487
傲慢	-7488
内需	-7489
出一	-7490
品牌	-7491
垃圾	-7492
夸张	-7493
夺走	-7494
当下	-7495
得起	-7496
急于	-7497
悖论	-7498
战士	-7499
摩根	-7500
欧美	-7501
清理	-7502
的公	-7503
监禁	-7504
知名	-7505
迈进	-7506
迟早	-7507
饮食	-7508
ang	-7509
▁一种	-7510
▁北京	-7511
▁应该	-7512
世纪初	-7513
债权国	-7514
大得多	-7515
开始了	-7516
有多少	-7517
正处于	-7518
活动家	-7519
温家宝	-7520
漫长的	-7521
的主权	-7522
的亚洲	-7523
的统治	-7524
秩序的	-7525
篇文章	-7526
革命的	-7527
▁哈马斯	-7528
人的生命	-7529
在经历了	-7530
增长放缓	-7531
很少有人	-7532
这一过程	-7533
▁2005	-7534
▁布鲁塞尔	-7535
联合国秘书长	-7536
ht	-7537
为人	-7538
仅为	-7539
任职	-7540
入学	-7541
减记	-7542
告终	-7543
坚信	-7544
尴尬	-7545
招募	-7546
撤销	-7547
无一	-7548
时所	-7549
未知	-7550
检测	-7551
王国	-7552
界线	-7553
的要	-7554
等到	-7555
节省	-7556
范式	-7557
营造	-7558
裨益	-7559
西奈	-7560
进来	-7561
避税	-7562
顶尖	-7563
ron	-7564
▁al	-7565
以避免	-7566
任何人	-7567
修正案	-7568
因如此	-7569
媒体的	-7570
尔多瓦	-7571
就像是	-7572
应有的	-7573
弗兰克	-7574
政府间	-7575
方法是	-7576
是不可	-7577
是世界	-7578
来应对	-7579
梅德韦	-7580
生产性	-7581
看到的	-7582
路线图	-7583
转基因	-7584
1930	-7585
20%。	-7586
▁全球化	-7587
专业人士	-7588
债券市场	-7589
在经济上	-7590
得到解决	-7591
持续下去	-7592
正在发生	-7593
▁2001	-7594
▁发自纽约	-7595
世界领导人	-7596
亚努科维奇	-7597
Th	-7598
if	-7599
▁高	-7600
与会	-7601
何处	-7602
其余	-7603
加勒	-7604
原始	-7605
吞并	-7606
和水	-7607
回来	-7608
圣诞	-7609
大相	-7610
奢侈	-7611
州的	-7612
径庭	-7613
很久	-7614
得主	-7615
微软	-7616
报导	-7617
指定	-7618
教会	-7619
无意	-7620
期的	-7621
查德	-7622
此举	-7623
比起	-7624
法则	-7625
海地	-7626
溢出	-7627
监测	-7628
眼前	-7629
记得	-7630
资料	-7631
过高	-7632
违背	-7633
顶层	-7634
▁我的	-7635
▁这也	-7636
世界杯	-7637
决定的	-7638
在国家	-7639
打交道	-7640
文化和	-7641
留下的	-7642
的信贷	-7643
的非洲	-7644
看不到	-7645
零利率	-7646
可以成为	-7647
吸引力的	-7648
摩尔多瓦	-7649
的经济学	-7650
原教旨主义	-7651
更重要的是	-7652
▁w	-7653
▁也	-7654
▁卡	-7655
不定	-7656
保卫	-7657
危及	-7658
和更	-7659
商务	-7660
大卫	-7661
宝座	-7662
将把	-7663
抗药	-7664
推特	-7665
方济	-7666
月初	-7667
某一	-7668
沿海	-7669
浮动	-7670
涌现	-7671
生意	-7672
的水	-7673
真是	-7674
称的	-7675
缩短	-7676
蓝图	-7677
越发	-7678
重创	-7679
2%,	-7680
ner	-7681
公平的	-7682
国务院	-7683
就在于	-7684
很快就	-7685
或者说	-7686
有两个	-7687
有些人	-7688
理解的	-7689
的独立	-7690
的看法	-7691
穷人的	-7692
经济中	-7693
而后者	-7694
腐败和	-7695
规则和	-7696
那以后	-7697
1996	-7698
▁在英国	-7699
▁这两个	-7700
令人惊讶	-7701
债权人的	-7702
充分利用	-7703
共同利益	-7704
其中一些	-7705
变得更为	-7706
可能成为	-7707
国民阵线	-7708
尤其如此	-7709
既得利益	-7710
2,000	-7711
总统巴沙尔	-7712
房地产泡沫	-7713
世界其他地区	-7714
sh	-7715
一度	-7716
世行	-7717
两名	-7718
劣势	-7719
化解	-7720
司机	-7721
合约	-7722
困惑	-7723
埃尔	-7724
大军	-7725
女儿	-7726
孟买	-7727
将近	-7728
尊敬	-7729
得更	-7730
拨款	-7731
效力	-7732
格拉	-7733
欺诈	-7734
源头	-7735
男女	-7736
空袭	-7737
编辑	-7738
肆虐	-7739
蒙受	-7740
车臣	-7741
阅读	-7742
随机	-7743
5%,	-7744
arl	-7745
▁企业	-7746
上世纪	-7747
不清楚	-7748
为我们	-7749
公共和	-7750
制定的	-7751
它们所	-7752
工资和	-7753
持久的	-7754
推动力	-7755
是不是	-7756
物理学	-7757
的产品	-7758
税收和	-7759
转折点	-7760
这导致	-7761
这是个	-7762
选择的	-7763
ance	-7764
▁一方面	-7765
▁习近平	-7766
三驾马车	-7767
他们自己	-7768
可以获得	-7769
如果不是	-7770
对以色列	-7771
经济学奖	-7772
联系起来	-7773
阿富汗的	-7774
高等教育	-7775
ission	-7776
新兴市场国家	-7777
ss	-7778
▁"	-7779
▁巴	-7780
▁把	-7781
一百	-7782
一部	-7783
上任	-7784
下令	-7785
不善	-7786
为零	-7787
也比	-7788
于此	-7789
付诸	-7790
关塔	-7791
名言	-7792
和我	-7793
和无	-7794
安德	-7795
将由	-7796
州长	-7797
徘徊	-7798
戴维	-7799
所欲	-7800
拉登	-7801
挑选	-7802
振奋	-7803
每次	-7804
汇款	-7805
法德	-7806
演说	-7807
瓦尔	-7808
腺癌	-7809
被捕	-7810
规避	-7811
贿赂	-7812
越大	-7813
里程	-7814
our	-7815
▁6%	-7816
▁多数	-7817
不符合	-7818
中心的	-7819
了他的	-7820
债券的	-7821
往往会	-7822
或者是	-7823
持有人	-7824
方济各	-7825
最终将	-7826
有许多	-7827
的理念	-7828
的直接	-7829
能够让	-7830
至少是	-7831
选民的	-7832
▁多年来	-7833
个国家的	-7834
也不可能	-7835
健康状况	-7836
反恐战争	-7837
在全世界	-7838
增长速度	-7839
大相径庭	-7840
截然不同	-7841
正在进行	-7842
经济体的	-7843
资本账户	-7844
这个世界	-7845
—2009	-7846
▁2006	-7847
▁如果美国	-7848
▁这些国家	-7849
▁除此之外	-7850
uropean	-7851
▁̧	-7852
不当	-7853
丝绸	-7854
五大	-7855
伯格	-7856
偏向	-7857
先决	-7858
北极	-7859
各类	-7860
向前	-7861
头条	-7862
奋斗	-7863
局部	-7864
征服	-7865
把持	-7866
月在	-7867
有机	-7868
民营	-7869
照片	-7870
眼光	-7871
科尔	-7872
签证	-7873
而出	-7874
背叛	-7875
般的	-7876
词汇	-7877
逆差	-7878
首位	-7879
120	-7880
ind	-7881
mer	-7882
▁Sh	-7883
▁东京	-7884
▁就在	-7885
▁改革	-7886
▁还是	-7887
下一代	-7888
了一些	-7889
创纪录	-7890
受影响	-7891
可不是	-7892
因为其	-7893
在法国	-7894
多年前	-7895
曾经是	-7896
的工人	-7897
范围的	-7898
萨默斯	-7899
贡献了	-7900
长期看	-7901
他们必须	-7902
付出代价	-7903
劳动力的	-7904
因为这些	-7905
就业创造	-7906
性别平等	-7907
收入分配	-7908
普遍认为	-7909
的伊斯兰	-7910
讽刺的是	-7911
达成共识	-7912
领导作用	-7913
ility	-7914
▁2000	-7915
民族主义的	-7916
特别提款权	-7917
部分是因为	-7918
核不扩散条约	-7919
阿拉伯世界的	-7920
(“	-7921
MD	-7922
一届	-7923
一是	-7924
上周	-7925
传达	-7926
匮乏	-7927
医药	-7928
十字	-7929
子的	-7930
它对	-7931
对他	-7932
市民	-7933
拓展	-7934
挑起	-7935
暴动	-7936
月底	-7937
有其	-7938
治愈	-7939
色彩	-7940
表演	-7941
见证	-7942
跟踪	-7943
麦克	-7944
▁支持	-7945
▁这里	-7946
不会有	-7947
中扮演	-7948
会议的	-7949
信息和	-7950
和其它	-7951
因此而	-7952
如何在	-7953
妇女和	-7954
官员们	-7955
将会是	-7956
将决定	-7957
就是在	-7958
年美国	-7959
得益于	-7960
检察官	-7961
永久性	-7962
流行病	-7963
的女性	-7964
算不上	-7965
而这一	-7966
资金的	-7967
达成的	-7968
预测的	-7969
▁如果说	-7970
俄罗斯人	-7971
受到影响	-7972
国民债务	-7973
国际刑事	-7974
大多数人	-7975
政策利率	-7976
整个世界	-7977
死亡人数	-7978
研究人员	-7979
贫穷国家	-7980
这个数字	-7981
截然不同的	-7982
数十亿美元	-7983
▁发展中国家	-7984
宏观经济政策	-7985
联合国气候变化	-7986
诺贝尔经济学奖	-7987
gr	-7988
▁中	-7989
三种	-7990
东北	-7991
了吗	-7992
仍未	-7993
储户	-7994
共存	-7995
兼并	-7996
加德	-7997
却不	-7998
安南	-7999
审核	-8000
将以	-8001
崇拜	-8002
挥霍	-8003
无处	-8004
日趋	-8005
星球	-8006
极低	-8007
甚远	-8008
看护	-8009
看着	-8010
节目	-8011
落入	-8012
要为	-8013
解雇	-8014
赶超	-8015
阐述	-8016
麻痹	-8017
6%。	-8018
▁不论	-8019
▁人类	-8020
▁他说	-8021
▁香港	-8022
不同于	-8023
中东的	-8024
为代价	-8025
公共品	-8026
可信度	-8027
可能比	-8028
和德国	-8029
在任何	-8030
实在在	-8031
改革和	-8032
显著的	-8033
来说是	-8034
源自于	-8035
的信誉	-8036
的激励	-8037
立法者	-8038
给出了	-8039
而应该	-8040
背道而	-8041
自己在	-8042
表达了	-8043
被用来	-8044
这两种	-8045
10%,	-8046
做出选择	-8047
先决条件	-8048
在俄罗斯	-8049
大幅增加	-8050
实实在在	-8051
左翼联盟	-8052
才能实现	-8053
政治领袖	-8054
日本经济	-8055
背道而驰	-8056
自由流动	-8057
自身利益	-8058
贫困人口	-8059
还有其他	-8060
金融服务	-8061
▁其结果是	-8062
做到这一点	-8063
这样的国家	-8064
德国总理默克尔	-8065
AI	-8066
CP	-8067
Sh	-8068
▁Y	-8069
▁向	-8070
三国	-8071
个别	-8072
中立	-8073
乌干	-8074
了近	-8075
公务	-8076
剩下	-8077
半数	-8078
名声	-8079
夫人	-8080
安置	-8081
平稳	-8082
广义	-8083
忧心	-8084
打败	-8085
拉圭	-8086
捕捞	-8087
摩擦	-8088
教学	-8089
本币	-8090
格局	-8091
次级	-8092
现今	-8093
良机	-8094
莱斯	-8095
表态	-8096
视角	-8097
调和	-8098
赞扬	-8099
通道	-8100
门槛	-8101
ism	-8102
▁安倍	-8103
▁既然	-8104
不喜欢	-8105
乌干达	-8106
似乎也	-8107
但没有	-8108
利用其	-8109
努力的	-8110
原材料	-8111
发表了	-8112
对未来	-8113
就业率	-8114
市场和	-8115
带一路	-8116
挑战是	-8117
法律和	-8118
生产国	-8119
艾哈迈	-8120
金正日	-8121
▁在未来	-8122
一个世纪	-8123
与美国的	-8124
丝绸之路	-8125
五分之一	-8126
仍然存在	-8127
众所周知	-8128
决定性的	-8129
卫生组织	-8130
成为可能	-8131
执政联盟	-8132
欧元危机	-8133
法治精神	-8134
生产率的	-8135
的必要性	-8136
的支持率	-8137
福利国家	-8138
苏联解体	-8139
这场战争	-8140
进一步的	-8141
▁Comm	-8142
委员会主席	-8143
里斯本条约	-8144
中国人民银行	-8145
发展中经济体	-8146
▁在这种情况下	-8147
▁另	-8148
▁如	-8149
一番	-8150
一看	-8151
一群	-8152
东方	-8153
两项	-8154
也与	-8155
买卖	-8156
会是	-8157
发育	-8158
听证	-8159
备受	-8160
大批	-8161
开明	-8162
欧亚	-8163
此时	-8164
淘汰	-8165
物流	-8166
界定	-8167
疑虑	-8168
能使	-8169
自行	-8170
装备	-8171
辐射	-8172
队伍	-8173
ant	-8174
ort	-8175
▁12	-8176
▁Tr	-8177
▁他还	-8178
争议的	-8179
仅限于	-8180
体系中	-8181
公众的	-8182
印度人	-8183
向美国	-8184
国大党	-8185
富有的	-8186
小部分	-8187
急切地	-8188
方案的	-8189
暴力和	-8190
民主化	-8191
环境的	-8192
的人的	-8193
的优势	-8194
的信用	-8195
的可能	-8196
等同于	-8197
菲尔德	-8198
让中国	-8199
该公司	-8200
负利率	-8201
适当的	-8202
▁但它们	-8203
▁如果不	-8204
一直以来	-8205
也是一个	-8206
使用武力	-8207
依然存在	-8208
全球增长	-8209
全球性的	-8210
可以提供	-8211
可能需要	-8212
坚持认为	-8213
希腊政府	-8214
最低工资	-8215
的政治家	-8216
美联储的	-8217
能够获得	-8218
▁但这样的	-8219
▁恰恰相反	-8220
国家主席习近平	-8221
ib	-8222
两难	-8223
中被	-8224
为之	-8225
之力	-8226
事先	-8227
会将	-8228
但我	-8229
佛罗	-8230
催化	-8231
几次	-8232
卢拉	-8233
可图	-8234
合成	-8235
固然	-8236
培育	-8237
带领	-8238
底层	-8239
惊讶	-8240
技巧	-8241
有毒	-8242
本次	-8243
标题	-8244
根于	-8245
电厂	-8246
益处	-8247
群岛	-8248
胜任	-8249
药方	-8250
购物	-8251
邮件	-8252
row	-8253
▁令人	-8254
▁报告	-8255
▁有时	-8256
▁此后	-8257
▁波兰	-8258
与发展	-8259
他们也	-8260
危机后	-8261
启动了	-8262
和公司	-8263
和贸易	-8264
孩子们	-8265
将带来	-8266
居住在	-8267
影响着	-8268
成立的	-8269
所带来	-8270
扩张性	-8271
是完全	-8272
条件的	-8273
的解释	-8274
站出来	-8275
给他们	-8276
詹姆斯	-8277
避免了	-8278
那么它	-8279
页岩气	-8280
Fran	-8281
▁198	-8282
▁决策者	-8283
▁最近的	-8284
▁美国人	-8285
不同的是	-8286
个成员国	-8287
人工智能	-8288
保守主义	-8289
公共政策	-8290
公共服务	-8291
和平协议	-8292
少数群体	-8293
强烈反对	-8294
技术官僚	-8295
提醒我们	-8296
的原因是	-8297
评级机构	-8298
国际社会的	-8299
的基础设施	-8300
国民生产总值	-8301
▁在这样的背景下	-8302
37	-8303
》。	-8304
三次	-8305
不乏	-8306
中之	-8307
克劳	-8308
制的	-8309
剥削	-8310
十亿	-8311
却被	-8312
可供	-8313
启发	-8314
地面	-8315
大笔	-8316
岛屿	-8317
幕后	-8318
并把	-8319
徒劳	-8320
必定	-8321
忙于	-8322
援引	-8323
核弹	-8324
根基	-8325
桥梁	-8326
比喻	-8327
甘地	-8328
生殖	-8329
蒙特	-8330
西非	-8331
要好	-8332
触及	-8333
配合	-8334
重回	-8335
重的	-8336
3%,	-8337
one	-8338
▁8%	-8339
▁没人	-8340
不安全	-8341
压倒性	-8342
受益于	-8343
和管理	-8344
国家中	-8345
埃及的	-8346
奥斯陆	-8347
将这一	-8348
岁以下	-8349
年轻的	-8350
强调了	-8351
有一种	-8352
的感觉	-8353
的法国	-8354
的话说	-8355
的选票	-8356
研究的	-8357
经济上	-8358
贫困线	-8359
这不是	-8360
2025	-8361
▁但对于	-8362
▁在许多	-8363
▁西班牙	-8364
▁问题是	-8365
国际合作	-8366
国际金融	-8367
精英阶层	-8368
绝非易事	-8369
美国人的	-8370
联合起来	-8371
能源价格	-8372
▁2003	-8373
▁我们希望	-8374
▁果真如此	-8375
大西洋两岸	-8376
的经济衰退	-8377
比以往任何时候都	-8378
AA	-8379
”:	-8380
不用	-8381
为数	-8382
事项	-8383
低效	-8384
厚的	-8385
可疑	-8386
国籍	-8387
威特	-8388
客观	-8389
强奸	-8390
托克	-8391
攻势	-8392
放大	-8393
极具	-8394
泛滥	-8395
深思	-8396
激怒	-8397
生机	-8398
百姓	-8399
结成	-8400
老牌	-8401
脊髓	-8402
范例	-8403
装置	-8404
西兰	-8405
这在	-8406
酝酿	-8407
重返	-8408
铺平	-8409
霍乱	-8410
驾驶	-8411
齐聚	-8412
ass	-8413
tic	-8414
▁为何	-8415
▁但从	-8416
▁大约	-8417
▁此次	-8418
中间派	-8419
丰富的	-8420
之上的	-8421
人们所	-8422
仍然在	-8423
会增加	-8424
信息的	-8425
发行的	-8426
另一场	-8427
将自己	-8428
将达到	-8429
必须与	-8430
描述为	-8431
施罗德	-8432
曼德拉	-8433
消费的	-8434
的一位	-8435
的时刻	-8436
的认识	-8437
积极地	-8438
第二轮	-8439
等问题	-8440
精英们	-8441
还是在	-8442
那些在	-8443
韩国的	-8444
1950	-8445
价格稳定	-8446
公共财政	-8447
军事实力	-8448
几乎肯定	-8449
另外一个	-8450
各种各样	-8451
多哈回合	-8452
我们现在	-8453
才有可能	-8454
政府已经	-8455
政治家们	-8456
无法实现	-8457
有意义的	-8458
目前正在	-8459
经济问题	-8460
讽刺意味	-8461
还有很多	-8462
5,000	-8463
新兴市场的	-8464
的巴勒斯坦	-8465
退出欧元区	-8466
一座	-8467
乔夫	-8468
亚马	-8469
偶尔	-8470
分崩	-8471
分钟	-8472
厄瓜	-8473
垮台	-8474
封锁	-8475
巧妙	-8476
年末	-8477
微弱	-8478
所言	-8479
来临	-8480
死去	-8481
残疾	-8482
流感	-8483
清单	-8484
甚微	-8485
英里	-8486
诽谤	-8487
轨迹	-8488
降到	-8489
顶级	-8490
ork	-8491
”、“	-8492
▁18	-8493
▁Al	-8494
▁举例	-8495
▁公司	-8496
▁几乎	-8497
▁央行	-8498
▁真正	-8499
▁长期	-8500
代理人	-8501
会继续	-8502
债务和	-8503
儿麻痹	-8504
冲突中	-8505
分崩离	-8506
创造性	-8507
包括在	-8508
可能被	-8509
可贸易	-8510
同时还	-8511
大革命	-8512
庸置疑	-8513
弗拉基	-8514
必须是	-8515
打破了	-8516
措施的	-8517
最多的	-8518
核协议	-8519
生育率	-8520
的发生	-8521
的某些	-8522
的西方	-8523
的领袖	-8524
财富和	-8525
之间存在	-8526
伊拉克人	-8527
信息技术	-8528
合法性的	-8529
将有助于	-8530
就是如此	-8531
并不令人	-8532
意义上的	-8533
我们能够	-8534
更重要的	-8535
环境保护	-8536
的世界中	-8537
经济繁荣	-8538
这一数字	-8539
▁发自剑桥	-8540
令人瞩目的	-8541
印度尼西亚	-8542
劳动力市场的	-8543
ie	-8544
▁多	-8545
▁无	-8546
▁非	-8547
世卫	-8548
业的	-8549
于事	-8550
亿万	-8551
利的	-8552
原理	-8553
变异	-8554
吃惊	-8555
同步	-8556
坐视	-8557
处境	-8558
安慰	-8559
富翁	-8560
已然	-8561
慢慢	-8562
掀起	-8563
摄氏	-8564
智力	-8565
构想	-8566
次于	-8567
水和	-8568
没了	-8569
流通	-8570
率的	-8571
背负	-8572
裁定	-8573
言辞	-8574
输送	-8575
都与	-8576
驱使	-8577
...	-8578
FTA	-8579
enc	-8580
不允许	-8581
专家们	-8582
也正在	-8583
以实现	-8584
依然在	-8585
债务国	-8586
全球的	-8587
公民的	-8588
化合物	-8589
四分之	-8590
它们是	-8591
实质性	-8592
对国家	-8593
强硬派	-8594
普拉斯	-8595
更重要	-8596
民众对	-8597
激进的	-8598
特定的	-8599
甚至在	-8600
甚至连	-8601
的医疗	-8602
科威特	-8603
这方面	-8604
避免的	-8605
集团的	-8606
麦凯恩	-8607
Mich	-8608
▁上个月	-8609
▁它们的	-8610
▁首先是	-8611
不复存在	-8612
公共支出	-8613
分崩离析	-8614
将进一步	-8615
我们知道	-8616
政治联盟	-8617
明确表示	-8618
的全球性	-8619
相当大的	-8620
种族隔离	-8621
这一方针	-8622
银行体系	-8623
▁在经历了	-8624
▁如果没有	-8625
中央银行的	-8626
弗拉基米尔	-8627
欧盟领导人	-8628
的主要原因	-8629
在一定程度上	-8630
National	-8631
Ge	-8632
上面	-8633
主意	-8634
优质	-8635
冰川	-8636
出去	-8637
十八	-8638
升温	-8639
协力	-8640
博客	-8641
占总	-8642
右派	-8643
同胞	-8644
品质	-8645
噩梦	-8646
基文	-8647
外资	-8648
外长	-8649
多万	-8650
大门	-8651
太空	-8652
我所	-8653
手无	-8654
无效	-8655
格里	-8656
治下	-8657
沿岸	-8658
法定	-8659
灌溉	-8660
灰质	-8661
猛烈	-8662
看出	-8663
确切	-8664
福岛	-8665
福音	-8666
耻辱	-8667
赚取	-8668
走私	-8669
道义	-8670
间谍	-8671
零和	-8672
1%,	-8673
ion	-8674
▁教育	-8675
不足为	-8676
主要由	-8677
了欧洲	-8678
以一种	-8679
似乎在	-8680
但美国	-8681
低通胀	-8682
催生了	-8683
分析师	-8684
制造了	-8685
卡尔德	-8686
奥斯曼	-8687
它可以	-8688
对英国	-8689
将不会	-8690
巴乔夫	-8691
承诺要	-8692
数字化	-8693
斯坦福	-8694
是多么	-8695
最基本	-8696
潘基文	-8697
灰质炎	-8698
的公众	-8699
的政党	-8700
的模式	-8701
的空间	-8702
的障碍	-8703
能产生	-8704
讲话中	-8705
贫困和	-8706
资本和	-8707
▁一些人	-8708
▁但即便	-8709
▁这不是	-8710
全球气候	-8711
关键作用	-8712
可能出现	-8713
和美国的	-8714
国会议员	-8715
外交关系	-8716
必须通过	-8717
抗议活动	-8718
欧元债券	-8719
现代化的	-8720
的叙利亚	-8721
的年轻人	-8722
的经济和	-8723
戈尔巴乔夫	-8724
欧洲央行的	-8725
社会和政治	-8726
脊髓灰质炎	-8727
世界经济论坛	-8728
上学	-8729
上风	-8730
不动	-8731
于衷	-8732
亏损	-8733
余地	-8734
佩克	-8735
决裂	-8736
反常	-8737
尽力	-8738
并让	-8739
开战	-8740
恐吓	-8741
感情	-8742
截止	-8743
掩饰	-8744
未经	-8745
本能	-8746
枯竭	-8747
残忍	-8748
渺茫	-8749
的后	-8750
约有	-8751
翻番	-8752
脂肪	-8753
被告	-8754
要说	-8755
观众	-8756
询问	-8757
返回	-8758
钓鱼	-8759
que	-8760
▁la	-8761
▁他在	-8762
▁出于	-8763
▁包括	-8764
▁如何	-8765
▁市场	-8766
▁贸易	-8767
一百万	-8768
上升的	-8769
也非常	-8770
他们就	-8771
以换取	-8772
伊斯坦	-8773
关键性	-8774
冲突和	-8775
动于衷	-8776
发布的	-8777
可以以	-8778
外围国	-8779
大公司	-8780
对我们	-8781
将增加	-8782
并不像	-8783
很少有	-8784
怎么做	-8785
我们就	-8786
所需要	-8787
推出了	-8788
昂贵的	-8789
热衷于	-8790
的范围	-8791
的边缘	-8792
社会和	-8793
第三次	-8794
答案是	-8795
简单地	-8796
给美国	-8797
这个词	-8798
降低到	-8799
50%。	-8800
▁伊斯兰	-8801
▁但即使	-8802
▁第三个	-8803
也有助于	-8804
全世界最	-8805
十分重要	-8806
各不相同	-8807
土耳其和	-8808
大幅削减	-8809
小儿麻痹	-8810
就意味着	-8811
的候选人	-8812
过度负债	-8813
这些因素	-8814
不断增长的	-8815
的外交政策	-8816
通货膨胀率	-8817
外国直接投资	-8818
所面临的挑战	-8819
stitute	-8820
亨利	-8821
克森	-8822
军力	-8823
利于	-8824
加尔	-8825
反驳	-8826
和中	-8827
回购	-8828
囤积	-8829
在眉	-8830
多于	-8831
多名	-8832
太少	-8833
奖金	-8834
常见	-8835
并使	-8836
广大	-8837
引领	-8838
微观	-8839
德克	-8840
德黑	-8841
总共	-8842
感谢	-8843
无知	-8844
无非	-8845
既有	-8846
普世	-8847
沙漠	-8848
法的	-8849
点燃	-8850
瑟夫	-8851
等级	-8852
终止	-8853
罗夫	-8854
罪犯	-8855
美中	-8856
美金	-8857
谈话	-8858
越多	-8859
较小	-8860
近来	-8861
遍布	-8862
遗留	-8863
隐性	-8864
鲜有	-8865
黑人	-8866
HIV	-8867
ric	-8868
▁10	-8869
▁Cl	-8870
▁Le	-8871
▁两国	-8872
▁为此	-8873
以防止	-8874
债务人	-8875
加勒比	-8876
卡斯特	-8877
参与到	-8878
发生后	-8879
合法化	-8880
合理性	-8881
和增长	-8882
和资本	-8883
国内外	-8884
在眉睫	-8885
将无法	-8886
已经是	-8887
常见的	-8888
并确保	-8889
并通过	-8890
必须以	-8891
我们也	-8892
所说的	-8893
改善了	-8894
波斯湾	-8895
消费税	-8896
爆发了	-8897
的份额	-8898
的孩子	-8899
的理想	-8900
的管理	-8901
的言论	-8902
认为是	-8903
辅之以	-8904
还有待	-8905
5000	-8906
做出反应	-8907
共和国的	-8908
厄瓜多尔	-8909
可能带来	-8910
周年纪念	-8911
在此期间	-8912
必须得到	-8913
整个地区	-8914
无论如何	-8915
欧洲各国	-8916
的大多数	-8917
的时候了	-8918
英国政府	-8919
认真对待	-8920
财政整合	-8921
这是因为	-8922
迫在眉睫	-8923
金融改革	-8924
itter	-8925
和巴基斯坦	-8926
必不可少的	-8927
提出了一个	-8928
根深蒂固的	-8929
欧洲和美国	-8930
特朗普政府	-8931
穆斯林世界	-8932
解决的问题	-8933
▁这就是为什么	-8934
意大利和西班牙	-8935
36	-8936
EA	-8937
Je	-8938
之不	-8939
亚历	-8940
任由	-8941
余额	-8942
健全	-8943
冒着	-8944
包装	-8945
卡拉	-8946
去世	-8947
含量	-8948
在为	-8949
坚实	-8950
委托	-8951
学派	-8952
很长	-8953
得太	-8954
教堂	-8955
是与	-8956
殆尽	-8957
没错	-8958
测算	-8959
玉米	-8960
的受	-8961
禁运	-8962
穿越	-8963
终身	-8964
结婚	-8965
绝不	-8966
维系	-8967
请求	-8968
选出	-8969
顾虑	-8970
鸿沟	-8971
▁3%	-8972
▁剑桥	-8973
▁通常	-8974
为目标	-8975
也并不	-8976
亚马逊	-8977
众多的	-8978
传染性	-8979
六个月	-8980
关键的	-8981
具体的	-8982
创新性	-8983
剩下的	-8984
又一个	-8985
后者的	-8986
德黑兰	-8987
摆脱了	-8988
摧毁了	-8989
暴露了	-8990
最小化	-8991
有利的	-8992
有时候	-8993
服务于	-8994
条约的	-8995
极高的	-8996
爆发的	-8997
生产和	-8998
的对手	-8999
的结论	-9000
的角度	-9001
社会中	-9002
竞争者	-9003
肺结核	-9004
萨科奇	-9005
解放军	-9006
道导弹	-9007
25%。	-9008
▁类似的	-9009
世界秩序	-9010
也不应该	-9011
令人沮丧	-9012
八十年代	-9013
在这样的	-9014
工资增长	-9015
总统竞选	-9016
我们正在	-9017
所提供的	-9018
拉美国家	-9019
无动于衷	-9020
更广泛的	-9021
的受害者	-9022
的增长率	-9023
的成员国	-9024
继续下去	-9025
自然灾害	-9026
这些目标	-9027
遗憾的是	-9028
齐普拉斯	-9029
房地产市场	-9030
的经济危机	-9031
European	-9032
▁&#160;&#160;&	-9033
减小	-9034
分类	-9035
勉强	-9036
南美	-9037
咖啡	-9038
四倍	-9039
国企	-9040
定向	-9041
定律	-9042
宪政	-9043
市政	-9044
把握	-9045
护理	-9046
挤兑	-9047
敢于	-9048
既是	-9049
是为	-9050
是从	-9051
最坏	-9052
朴槿	-9053
来了	-9054
演化	-9055
电池	-9056
秋天	-9057
罗塞	-9058
而代	-9059
调停	-9060
贝鲁	-9061
身边	-9062
轴心	-9063
里约	-9064
金属	-9065
防范	-9066
预想	-9067
马丁	-9068
res	-9069
▁两个	-9070
▁主要	-9071
▁而当	-9072
▁针对	-9073
一定会	-9074
上加霜	-9075
不作为	-9076
亚投行	-9077
典型的	-9078
凸显了	-9079
出一个	-9080
分析家	-9081
加利亚	-9082
加起来	-9083
包含了	-9084
失去的	-9085
年后的	-9086
并将其	-9087
开始时	-9088
引入了	-9089
必需的	-9090
患者的	-9091
情报局	-9092
手中的	-9093
有没有	-9094
朴槿惠	-9095
治下的	-9096
理由是	-9097
的一步	-9098
的学生	-9099
的转变	-9100
知识和	-9101
而在于	-9102
致命的	-9103
苏联的	-9104
贸易的	-9105
达尔富	-9106
迈克尔	-9107
还不够	-9108
选民们	-9109
预算的	-9110
预防性	-9111
▁197	-9112
▁Pol	-9113
▁没有人	-9114
卡斯特罗	-9115
哈佛大学	-9116
国民收入	-9117
政治上的	-9118
更多的人	-9119
更进一步	-9120
武装冲突	-9121
武装力量	-9122
独裁政权	-9123
的支持下	-9124
美国及其	-9125
美国家庭	-9126
还有一个	-9127
这一进程	-9128
这种方式	-9129
银行联盟	-9130
和基础设施	-9131
某种形式的	-9132
梅德韦杰夫	-9133
解决问题的	-9134
Tw	-9135
çš	-9136
▁下	-9137
▁同	-9138
一张	-9139
丈夫	-9140
乐于	-9141
也正	-9142
人听	-9143
仪式	-9144
偿债	-9145
充其	-9146
党内	-9147
六个	-9148
冲动	-9149
初始	-9150
加索	-9151
回了	-9152
大声	-9153
大部	-9154
天安	-9155
志愿	-9156
接入	-9157
无不	-9158
替换	-9159
月中	-9160
服从	-9161
末日	-9162
本已	-9163
残暴	-9164
澄清	-9165
球员	-9166
生长	-9167
相去	-9168
私下	-9169
科斯	-9170
米兰	-9171
耶伦	-9172
蔑视	-9173
薄弱	-9174
说辞	-9175
谋求	-9176
迁移	-9177
▁仅仅	-9178
▁更为	-9179
▁该国	-9180
以前的	-9181
促成了	-9182
剥夺了	-9183
取消了	-9184
可能让	-9185
和军事	-9186
实际的	-9187
将会在	-9188
应该为	-9189
情形中	-9190
托马斯	-9191
数量的	-9192
新一代	-9193
最终会	-9194
欧盟在	-9195
游击队	-9196
演变成	-9197
状况的	-9198
规定的	-9199
超出了	-9200
达尔文	-9201
里程碑	-9202
arry	-9203
orld	-9204
▁有些人	-9205
亚太地区	-9206
候选人的	-9207
只有一个	-9208
可以帮助	-9209
将不得不	-9210
普通民众	-9211
比较优势	-9212
没有理由	-9213
清洁能源	-9214
独裁统治	-9215
破坏性的	-9216
重要性的	-9217
雪上加霜	-9218
▁发自伦敦	-9219
▁长期以来	-9220
他们自己的	-9221
付出的代价	-9222
伊斯坦布尔	-9223
原子能机构	-9224
叙利亚内战	-9225
成百上千万	-9226
的经济复苏	-9227
的问题在于	-9228
af	-9229
▁各	-9230
一笔	-9231
一面	-9232
不啻	-9233
之年	-9234
会说	-9235
其后	-9236
华沙	-9237
参选	-9238
只需	-9239
可言	-9240
同僚	-9241
和他	-9242
在我	-9243
塞拉	-9244
处的	-9245
多人	-9246
奴隶	-9247
她在	-9248
幸存	-9249
延迟	-9250
战役	-9251
拥护	-9252
文学	-9253
最不	-9254
服装	-9255
泰勒	-9256
热烈	-9257
燃煤	-9258
砍伐	-9259
罪名	-9260
老板	-9261
聚焦	-9262
节奏	-9263
花旗	-9264
莱坞	-9265
蒙蒂	-9266
被杀	-9267
议案	-9268
随处	-9269
颇有	-9270
高峰	-9271
Jam	-9272
eal	-9273
ris	-9274
▁值得	-9275
▁这对	-9276
乳腺癌	-9277
五年前	-9278
人心的	-9279
但是它	-9280
公司在	-9281
利率的	-9282
发动了	-9283
和自由	-9284
坚定的	-9285
增值税	-9286
如今的	-9287
必须要	-9288
成本和	-9289
所有者	-9290
承担了	-9291
承担起	-9292
抑郁症	-9293
教训是	-9294
方面都	-9295
是一次	-9296
欧佩克	-9297
法兰克	-9298
现实中	-9299
的对话	-9300
的机制	-9301
的身份	-9302
经通胀	-9303
而受到	-9304
而这种	-9305
能力和	-9306
舞台上	-9307
财富的	-9308
那里的	-9309
集中于	-9310
之处在于	-9311
令人难以	-9312
债务水平	-9313
几十年中	-9314
原因在于	-9315
受到威胁	-9316
国际机构	-9317
对他们的	-9318
应该成为	-9319
很难想象	-9320
无处不在	-9321
某些国家	-9322
没有得到	-9323
波罗的海	-9324
的前提下	-9325
而不能倒	-9326
长久以来	-9327
集体行动	-9328
以色列总理	-9329
法国和德国	-9330
美国和其他	-9331
美国和英国	-9332
Global	-9333
新兴市场经济体	-9334
非常规货币政策	-9335
▁̄	-9336
上而	-9337
之手	-9338
也很	-9339
伪善	-9340
侵害	-9341
修补	-9342
僵化	-9343
先锋	-9344
公然	-9345
前瞻	-9346
合格	-9347
同行	-9348
呼吸	-9349
士顿	-9350
大获	-9351
宽带	-9352
年均	-9353
库存	-9354
愉快	-9355
斯托	-9356
是无	-9357
是谁	-9358
普尔	-9359
次要	-9360
的三	-9361
相近	-9362
省份	-9363
维基	-9364
缩水	-9365
罹患	-9366
者在	-9367
能给	-9368
血液	-9369
赖以	-9370
金斯	-9371
铭记	-9372
预先	-9373
鸦片	-9374
ack	-9375
ald	-9376
▁11	-9377
▁传统	-9378
▁有关	-9379
上一次	-9380
举行了	-9381
了一半	-9382
仅次于	-9383
和家庭	-9384
对世界	-9385
对其他	-9386
希腊和	-9387
扩大到	-9388
技术上	-9389
政府所	-9390
更有效	-9391
某些人	-9392
波士顿	-9393
的过度	-9394
的还有	-9395
约翰逊	-9396
肯定的	-9397
被忽视	-9398
西方人	-9399
通胀的	-9400
都表明	-9401
马歇尔	-9402
avid	-9403
orge	-9404
▁但是在	-9405
▁黎巴嫩	-9406
中的作用	-9407
年代中期	-9408
很长时间	-9409
或许可以	-9410
援助计划	-9411
是否真的	-9412
有利可图	-9413
气候政策	-9414
的共和党	-9415
种族主义	-9416
美元贬值	-9417
能源效率	-9418
贸易谈判	-9419
重新思考	-9420
多大程度上	-9421
扮演的角色	-9422
经济增长率	-9423
阿萨德政权	-9424
世界贸易组织	-9425
▁Economic	-9426
39	-9427
yn	-9428
▁v	-9429
▁后	-9430
不力	-9431
中断	-9432
人体	-9433
位居	-9434
保密	-9435
倒塌	-9436
兴亚	-9437
划定	-9438
加工	-9439
占比	-9440
原料	-9441
合并	-9442
名叫	-9443
失调	-9444
宣誓	-9445
希尔	-9446
异见	-9447
悲惨	-9448
捐款	-9449
搁置	-9450
攫取	-9451
无异	-9452
次贷	-9453
流亡	-9454
混淆	-9455
电信	-9456
筛查	-9457
肺炎	-9458
自卫	-9459
视频	-9460
践踏	-9461
迎合	-9462
钞票	-9463
隐瞒	-9464
鼓动	-9465
TIP	-9466
ary	-9467
lan	-9468
ood	-9469
▁Ag	-9470
▁危机	-9471
▁现代	-9472
▁现实	-9473
▁认为	-9474
▁这在	-9475
▁这类	-9476
东道国	-9477
为首的	-9478
亚洲和	-9479
充其量	-9480
创始人	-9481
去监管	-9482
可信的	-9483
埃及和	-9484
大衰退	-9485
宣布了	-9486
年来的	-9487
并导致	-9488
报告中	-9489
日本在	-9490
机制的	-9491
来支持	-9492
核国家	-9493
的人士	-9494
的健康	-9495
的冲击	-9496
的妇女	-9497
的成员	-9498
的财富	-9499
的进程	-9500
相矛盾	-9501
等方面	-9502
罗兴亚	-9503
而且还	-9504
能够为	-9505
资源和	-9506
还要多	-9507
这不仅	-9508
金融和	-9509
错误地	-9510
首先是	-9511
一带一路	-9512
事实证明	-9513
他们应该	-9514
在短期内	-9515
宪法法院	-9516
市场力量	-9517
拒绝承认	-9518
白俄罗斯	-9519
研究中心	-9520
纽约时报	-9521
解决之道	-9522
重大影响	-9523
降低利率	-9524
非洲大陆	-9525
▁2004	-9526
▁布什政府	-9527
不平等性的	-9528
主要是因为	-9529
会发生什么	-9530
小儿麻痹症	-9531
民主国家的	-9532
美国和中国	-9533
CB	-9534
DA	-9535
KP	-9536
ue	-9537
▁n	-9538
下行	-9539
不快	-9540
不敢	-9541
不无	-9542
中叶	-9543
主办	-9544
之门	-9545
也已	-9546
书籍	-9547
人人	-9548
他还	-9549
伦齐	-9550
公认	-9551
冷漠	-9552
几千	-9553
利差	-9554
利斯	-9555
加重	-9556
反馈	-9557
可危	-9558
四大	-9559
国土	-9560
坚守	-9561
复燃	-9562
夸大	-9563
奥塞	-9564
实证	-9565
尽量	-9566
岌岌	-9567
巨量	-9568
并与	-9569
幽灵	-9570
延缓	-9571
归属	-9572
抉择	-9573
据此	-9574
改良	-9575
数年	-9576
时常	-9577
明天	-9578
沿着	-9579
泄漏	-9580
浮现	-9581
激情	-9582
现场	-9583
理智	-9584
疏远	-9585
突变	-9586
粒子	-9587
蚊子	-9588
贫富	-9589
连贯	-9590
革新	-9591
飞行	-9592
黑客	-9593
ath	-9594
▁re	-9595
与其说	-9596
主导的	-9597
也不再	-9598
了一条	-9599
几年的	-9600
出口商	-9601
取而代	-9602
可行性	-9603
和保护	-9604
和实施	-9605
和法国	-9606
大使馆	-9607
如果它	-9608
实现其	-9609
就一直	-9610
局限性	-9611
帮助下	-9612
年期间	-9613
心协力	-9614
必须将	-9615
控制了	-9616
推翻了	-9617
数十万	-9618
最需要	-9619
来维持	-9620
植根于	-9621
比以前	-9622
理查德	-9623
的基因	-9624
的极端	-9625
的疾病	-9626
的袭击	-9627
的话题	-9628
看作是	-9629
约瑟夫	-9630
经历过	-9631
绝不会	-9632
美国与	-9633
能够以	-9634
蛋白质	-9635
说服力	-9636
这正是	-9637
铀浓缩	-9638
1982	-9639
▁纽黑文	-9640
不仅限于	-9641
不足为奇	-9642
了他们的	-9643
似乎正在	-9644
保加利亚	-9645
医疗卫生	-9646
岌岌可危	-9647
技术创新	-9648
更有效的	-9649
武装分子	-9650
金融企业	-9651
高级官员	-9652
,2013	-9653
▁如果中国	-9654
▁正因如此	-9655
入侵伊拉克	-9656
和世界银行	-9657
已经发生了	-9658
经济增长和	-9659
美国和欧盟	-9660
越来越多的人	-9661
跨太平洋合作伙伴关系	-9662
48	-9663
PA	-9664
中介	-9665
仲裁	-9666
伎俩	-9667
体重	-9668
偏远	-9669
偶然	-9670
先发	-9671
光靠	-9672
典范	-9673
再到	-9674
出租	-9675
出身	-9676
列宁	-9677
刚果	-9678
初期	-9679
古典	-9680
吸纳	-9681
和在	-9682
图景	-9683
地在	-9684
处决	-9685
大坝	-9686
女权	-9687
宁愿	-9688
定在	-9689
尼尔	-9690
废墟	-9691
建制	-9692
携手	-9693
滑向	-9694
苦苦	-9695
获利	-9696
行之	-9697
要高	-9698
观看	-9699
诊所	-9700
起初	-9701
通用	-9702
遗忘	-9703
金氏	-9704
错的	-9705
降临	-9706
顾客	-9707
高兴	-9708
鹰派	-9709
350	-9710
4%,	-9711
anc	-9712
ark	-9713
ect	-9714
▁4%	-9715
▁到了	-9716
▁每年	-9717
不具备	-9718
丧失了	-9719
为一个	-9720
也十分	-9721
人听闻	-9722
只是在	-9723
合法的	-9724
和未来	-9725
在日本	-9726
夜之间	-9727
宏大的	-9728
将如何	-9729
差不多	-9730
平衡的	-9731
应该将	-9732
开启了	-9733
很显然	-9734
很长的	-9735
心脏病	-9736
思想家	-9737
思想的	-9738
把这些	-9739
支持下	-9740
教科书	-9741
明确地	-9742
极少数	-9743
的对象	-9744
的消息	-9745
的盟友	-9746
的真实	-9747
的革命	-9748
相关性	-9749
知识的	-9750
第一位	-9751
而且在	-9752
解决了	-9753
让欧洲	-9754
还为时	-9755
1981	-9756
reen	-9757
▁这需要	-9758
一切代价	-9759
令人印象	-9760
取而代之	-9761
固定汇率	-9762
国际秩序	-9763
宗教信仰	-9764
将是一个	-9765
市场份额	-9766
引人注目	-9767
成为全球	-9768
我们不能	-9769
核武器的	-9770
欧盟宪法	-9771
正好相反	-9772
消费支出	-9773
经济制裁	-9774
这些挑战	-9775
这种方法	-9776
长期停滞	-9777
,2011	-9778
ative	-9779
▁如果他们	-9780
中东地区的	-9781
之间的冲突	-9782
发展中世界	-9783
民粹主义的	-9784
发达经济体的	-9785
▁从这个角度讲	-9786
第二次世界大战	-9787
一批	-9788
不禁	-9789
不见	-9790
之旅	-9791
亲眼	-9792
克罗	-9793
利昂	-9794
到处	-9795
区区	-9796
印刷	-9797
压低	-9798
压抑	-9799
变动	-9800
可怜	-9801
堕落	-9802
复国	-9803
家人	-9804
少年	-9805
峰值	-9806
巴罗	-9807
引向	-9808
当权	-9809
截至	-9810
打消	-9811
抗击	-9812
收拾	-9813
是被	-9814
曾说	-9815
服用	-9816
杀手	-9817
添加	-9818
特质	-9819
的好	-9820
的纳	-9821
空白	-9822
管齐	-9823
累计	-9824
罚款	-9825
茶党	-9826
荣誉	-9827
讲述	-9828
超额	-9829
转化	-9830
过往	-9831
退化	-9832
透露	-9833
闹剧	-9834
霍尔	-9835
额度	-9836
Jos	-9837
ina	-9838
▁也有	-9839
▁货币	-9840
▁需要	-9841
一个由	-9842
为世界	-9843
为全球	-9844
为欧洲	-9845
了中国	-9846
从现在	-9847
他认为	-9848
任期内	-9849
你可以	-9850
加强了	-9851
十年后	-9852
历史性	-9853
发言权	-9854
呈现出	-9855
基辛格	-9856
威胁要	-9857
将产生	-9858
小规模	-9859
引出了	-9860
手段来	-9861
执行的	-9862
投票权	-9863
核设施	-9864
泰米尔	-9865
犯下的	-9866
的人才	-9867
的人物	-9868
的声音	-9869
的大选	-9870
等其他	-9871
管理层	-9872
结束的	-9873
罗塞夫	-9874
计划和	-9875
▁Res	-9876
关键问题	-9877
其领导人	-9878
军事政变	-9879
因为美国	-9880
国内消费	-9881
国际组织	-9882
如果他们	-9883
实现这一	-9884
对于那些	-9885
已经证明	-9886
接下来的	-9887
政府可以	-9888
更加难以	-9889
有所增加	-9890
流动性的	-9891
的国家的	-9892
约束力的	-9893
贸易协议	-9894
贸易壁垒	-9895
阿卜杜拉	-9896
,2015	-9897
主要经济体	-9898
实现这一点	-9899
的财政政策	-9900
▁沙特阿拉伯	-9901
▁这并不是说	-9902
和发展中国家	-9903
38	-9904
IA	-9905
iz	-9906
▁h	-9907
▁仅	-9908
▁受	-9909
一只	-9910
一股	-9911
上都	-9912
不成	-9913
世人	-9914
买家	-9915
二次	-9916
他也	-9917
以内	-9918
们的	-9919
偏执	-9920
入狱	-9921
关门	-9922
冰岛	-9923
凌驾	-9924
动议	-9925
南北	-9926
卡尼	-9927
向来	-9928
增量	-9929
多米	-9930
彰显	-9931
影片	-9932
惨重	-9933
或多	-9934
振兴	-9935
掣肘	-9936
提倡	-9937
旧的	-9938
景象	-9939
格林	-9940
波及	-9941
特性	-9942
犯下	-9943
略微	-9944
的近	-9945
相符	-9946
维夫	-9947
罗格	-9948
者是	-9949
莫拉	-9950
螺旋	-9951
论断	-9952
说话	-9953
象棋	-9954
过热	-9955
部族	-9956
里达	-9957
靠近	-9958
额的	-9959
骗局	-9960
高官	-9961
7%。	-9962
ond	-9963
▁另一	-9964
▁美元	-9965
不同意	-9966
中得到	-9967
主权的	-9968
交易的	-9969
例子中	-9970
公正的	-9971
军队的	-9972
农产品	-9973
参与率	-9974
否决权	-9975
和收入	-9976
和治疗	-9977
在西方	-9978
地方的	-9979
它们对	-9980
实行的	-9981
年之前	-9982
建筑业	-9983
指出了	-9984
无条件	-9985
有一点	-9986
格拉斯	-9987
着一个	-9988
硬着陆	-9989
融资的	-9990
被允许	-9991
讨论的	-9992
让世界	-9993
超越了	-9994
远高于	-9995
问题时	-9996
▁但欧洲	-9997
中的一个	-9998
了这一点	-9999
以及美国	-10000
俄罗斯在	-10001
出口导向	-10002
利益相关	-10003
合作组织	-10004
多个国家	-10005
大部分人	-10006
家庭收入	-10007
工作时间	-10008
巴黎协定	-10009
巴黎气候	-10010
弹道导弹	-10011
日本银行	-10012
更深层次	-10013
每个国家	-10014
甚至可以	-10015
生活质量	-10016
相去甚远	-10017
紧张关系	-10018
经济上的	-10019
美国应该	-10020
而是因为	-10021
重新谈判	-10022
领导人们	-10023
领导地位	-10024
David	-10025
▁这是因为	-10026
基础设施和	-10027
已经过去了	-10028
所说的那样	-10029
的人道主义	-10030
伊斯兰主义者	-10031
BM	-10032
lo	-10033
ph	-10034
uk	-10035
一日	-10036
下属	-10037
不时	-10038
东海	-10039
事后	-10040
侨民	-10041
克格	-10042
军费	-10043
卓越	-10044
南极	-10045
反腐	-10046
布勒	-10047
布托	-10048
归结	-10049
战火	-10050
教义	-10051
斯堪	-10052
无穷	-10053
景气	-10054
有待	-10055
本周	-10056
权势	-10057
杜罗	-10058
枢纽	-10059
没完	-10060
滋生	-10061
热门	-10062
空军	-10063
而未	-10064
节能	-10065
营商	-10066
虚弱	-10067
规律	-10068
许诺	-10069
论据	-10070
赤裸	-10071
跟进	-10072
还未	-10073
连串	-10074
重于	-10075
闻名	-10076
马利	-10077
驻扎	-10078
高盛	-10079
Ben	-10080
NCD	-10081
▁2%	-10082
▁25	-10083
▁建立	-10084
中东欧	-10085
交易所	-10086
他们都	-10087
低技能	-10088
停留在	-10089
克格勃	-10090
公务员	-10091
凌驾于	-10092
危机和	-10093
发现的	-10094
在危机	-10095
基础的	-10096
增强了	-10097
必要性	-10098
旅游业	-10099
无疑是	-10100
是他们	-10101
最贫穷	-10102
朝鲜的	-10103
潜力的	-10104
的信念	-10105
的大型	-10106
的日子	-10107
的系统	-10108
的美元	-10109
监管的	-10110
竞争的	-10111
第一大	-10112
第三大	-10113
能得到	-10114
自民党	-10115
观点的	-10116
解决的	-10117
资本的	-10118
轻易地	-10119
这对于	-10120
遭受了	-10121
遭遇了	-10122
阿尔巴	-10123
附加值	-10124
面对的	-10125
食品和	-10126
eter	-10127
▁在这里	-10128
▁投资者	-10129
▁美国在	-10130
▁而尽管	-10131
世卫组织	-10132
仍然没有	-10133
变得日益	-10134
国内经济	-10135
在最近的	-10136
所引发的	-10137
效率低下	-10138
整个欧洲	-10139
无所作为	-10140
更多的钱	-10141
特拉维夫	-10142
的目标是	-10143
相互依存	-10144
经验表明	-10145
这一点上	-10146
都有可能	-10147
企业家精神	-10148
巴勒斯坦国	-10149
提高生产率	-10150
的一个重要	-10151
创造就业机会	-10152
,9	-10153
75	-10154
sk	-10155
▁人	-10156
▁十	-10157
一块	-10158
一战	-10159
临界	-10160
乎其	-10161
亚当	-10162
仅占	-10163
借鉴	-10164
克莱	-10165
出任	-10166
则会	-10167
初步	-10168
前夕	-10169
卢比	-10170
参考	-10171
可比	-10172
可用	-10173
史蒂	-10174
和大	-10175
和谈	-10176
四分	-10177
处置	-10178
大楼	-10179
夫妇	-10180
好转	-10181
开了	-10182
微小	-10183
忠实	-10184
总数	-10185
惯例	-10186
打着	-10187
折扣	-10188
摇摇	-10189
更别	-10190
核子	-10191
深感	-10192
渔业	-10193
盯住	-10194
看见	-10195
磋商	-10196
篮子	-10197
行径	-10198
表决	-10199
被判	-10200
贫民	-10201
赫特	-10202
跻身	-10203
连锁	-10204
那次	-10205
预警	-10206
黯淡	-10207
MDG	-10208
ael	-10209
ian	-10210
▁具有	-10211
▁北约	-10212
▁我在	-10213
▁自由	-10214
一定的	-10215
一揽子	-10216
中国海	-10217
也只能	-10218
但如今	-10219
保护和	-10220
催化剂	-10221
再融资	-10222
创造力	-10223
制度和	-10224
原则上	-10225
国有化	-10226
地区和	-10227
失败了	-10228
年全球	-10229
很高的	-10230
恢复了	-10231
战略的	-10232
拉加德	-10233
政党的	-10234
既没有	-10235
是一件	-10236
更强的	-10237
最初的	-10238
欧洲在	-10239
的两个	-10240
的就业	-10241
的群体	-10242
罗格夫	-10243
罗纳德	-10244
被要求	-10245
计划在	-10246
迈出了	-10247
还可能	-10248
还远未	-10249
这两大	-10250
通常会	-10251
道理的	-10252
领导下	-10253
▁一开始	-10254
▁阿富汗	-10255
也不例外	-10256
也越来越	-10257
人们认为	-10258
任何国家	-10259
共同货币	-10260
包括美国	-10261
北欧国家	-10262
十分困难	-10263
和他们的	-10264
对俄罗斯	-10265
统计数据	-10266
美国公司	-10267
能源安全	-10268
艾哈迈迪	-10269
达尔富尔	-10270
退休年龄	-10271
重新分配	-10272
▁但是如果	-10273
▁其他国家	-10274
▁埃尔多安	-10275
万亿美元的	-10276
世界各地的	-10277
的新兴市场	-10278
美国国务卿	-10279
阿尔巴尼亚	-10280
George	-10281
不惜一切代价	-10282
基础设施项目	-10283
应对气候变化	-10284
讽刺意味的是	-10285
▁果真如此的话	-10286
上来	-10287
不计	-10288
之多	-10289
了他	-10290
但不	-10291
侮辱	-10292
便已	-10293
军人	-10294
列强	-10295
力地	-10296
卢森	-10297
又会	-10298
又在	-10299
发病	-10300
合乎	-10301
吉拉	-10302
回国	-10303
因其	-10304
女人	-10305
审计	-10306
并向	-10307
强权	-10308
所要	-10309
据称	-10310
斯克	-10311
新药	-10312
最优	-10313
朔伊	-10314
枪击	-10315
欲坠	-10316
油气	-10317
注资	-10318
潜能	-10319
特的	-10320
的钱	-10321
神秘	-10322
禁忌	-10323
离岸	-10324
耗资	-10325
肿瘤	-10326
被控	-10327
话语	-10328
课税	-10329
转为	-10330
输入	-10331
迟迟	-10332
迪拜	-10333
送到	-10334
霸主	-10335
验证	-10336
默许	-10337
ail	-10338
ast	-10339
erv	-10340
ker	-10341
▁放眼	-10342
▁最新	-10343
下跌了	-10344
下降至	-10345
中之重	-10346
主席国	-10347
产出的	-10348
以支持	-10349
先发制	-10350
兰克林	-10351
农作物	-10352
利益和	-10353
包括对	-10354
发出了	-10355
合作和	-10356
央行的	-10357
崛起的	-10358
当今的	-10359
我们会	-10360
我们要	-10361
战争和	-10362
所产生	-10363
是没有	-10364
环境和	-10365
现在就	-10366
生命的	-10367
的年轻	-10368
等领域	-10369
签署的	-10370
紧迫性	-10371
设计的	-10372
试图将	-10373
贫困的	-10374
辩论中	-10375
过时的	-10376
这可能	-10377
非国家	-10378
马德里	-10379
30%。	-10380
able	-10381
▁而如今	-10382
▁而这些	-10383
▁阿拉伯	-10384
▁阿根廷	-10385
人口增长	-10386
什么时候	-10387
佛罗里达	-10388
发展趋势	-10389
多边主义	-10390
大幅提高	-10391
安全部队	-10392
希腊债务	-10393
必不可少	-10394
成立一个	-10395
摇摇欲坠	-10396
无法通过	-10397
朔伊布勒	-10398
法兰克福	-10399
现实主义	-10400
社会民主	-10401
联邦基金	-10402
这些机构	-10403
这种做法	-10404
远远超过	-10405
长期增长	-10406
领导人在	-10407
,2010	-10408
3,000	-10409
▁2016	-10410
▁特朗普的	-10411
充满活力的	-10412
大部分国家	-10413
自己的国家	-10414
欧洲货币联盟	-10415
以色列和巴勒斯坦	-10416
31	-10417
▁t	-10418
上下	-10419
不佳	-10420
不公	-10421
他国	-10422
低廉	-10423
俱增	-10424
前例	-10425
剧变	-10426
反击	-10427
只在	-10428
含糊	-10429
善意	-10430
嘲笑	-10431
回收	-10432
塞族	-10433
天堂	-10434
头的	-10435
夺取	-10436
尔顿	-10437
巧合	-10438
带给	-10439
并由	-10440
恰好	-10441
感受	-10442
捕获	-10443
推测	-10444
放宽	-10445
新政	-10446
无序	-10447
明了	-10448
明的	-10449
智库	-10450
更迭	-10451
死灰	-10452
洞见	-10453
点的	-10454
男子	-10455
纯属	-10456
薄熙	-10457
读者	-10458
赌博	-10459
轻微	-10460
这座	-10461
远程	-10462
迷于	-10463
重负	-10464
骚扰	-10465
cil	-10466
ice	-10467
umm	-10468
▁9%	-10469
▁冷战	-10470
▁沙特	-10471
▁眼下	-10472
一代人	-10473
一小撮	-10474
不亚于	-10475
两年前	-10476
严厉的	-10477
中受益	-10478
为中心	-10479
为核心	-10480
乎其微	-10481
以失败	-10482
低下的	-10483
充足的	-10484
卢森堡	-10485
发表的	-10486
取代了	-10487
和腐败	-10488
和货币	-10489
国外的	-10490
在一些	-10491
对政府	-10492
想起了	-10493
掩盖了	-10494
摄氏度	-10495
无前例	-10496
柏林墙	-10497
每一次	-10498
甚至比	-10499
的命运	-10500
的平均	-10501
的贡献	-10502
究竟是	-10503
繁荣和	-10504
结束时	-10505
美国所	-10506
而易举	-10507
观点是	-10508
赤裸裸	-10509
难民营	-10510
高加索	-10511
20%,	-10512
不良贷款	-10513
之一就是	-10514
也出现了	-10515
其它国家	-10516
发生变化	-10517
可持续的	-10518
名义利率	-10519
团结起来	-10520
实质性的	-10521
微乎其微	-10522
我们这个	-10523
投资组合	-10524
更有效地	-10525
最高领袖	-10526
死灰复燃	-10527
的环境中	-10528
相关利益	-10529
研究发现	-10530
科学家们	-10531
纳税人的	-10532
资本外逃	-10533
资本要求	-10534
轻而易举	-10535
这一挑战	-10536
这一政策	-10537
通胀预期	-10538
meric	-10539
▁总体而言	-10540
▁总而言之	-10541
▁我们已经	-10542
灾难性后果	-10543
这个国家的	-10544
预见的未来	-10545
▁欧盟委员会	-10546
Twitter	-10547
北美自由贸易协定	-10548
,5	-10549
32	-10550
FS	-10551
MR	-10552
ya	-10553
▁西	-10554
三角	-10555
不被	-10556
不通	-10557
也从	-10558
也使	-10559
也曾	-10560
五裂	-10561
令其	-10562
以其	-10563
作俑	-10564
保住	-10565
倘若	-10566
几位	-10567
区间	-10568
博士	-10569
卢卡	-10570
反犹	-10571
取缔	-10572
听众	-10573
坦克	-10574
大错	-10575
失踪	-10576
好比	-10577
宏大	-10578
家的	-10579
将与	-10580
平庸	-10581
强人	-10582
总和	-10583
扎伊	-10584
挫败	-10585
捕捉	-10586
撒钱	-10587
日报	-10588
明朗	-10589
更长	-10590
最早	-10591
期货	-10592
演变	-10593
瓦哈	-10594
男人	-10595
碎片	-10596
税务	-10597
绕过	-10598
而有	-10599
而生	-10600
耶夫	-10601
肆意	-10602
落到	-10603
说的	-10604
路易	-10605
迈出	-10606
这点	-10607
逍遥	-10608
面目	-10609
高中	-10610
1⁄4	-10611
AKP	-10612
olf	-10613
▁1%	-10614
▁一项	-10615
也不愿	-10616
事实是	-10617
亿人口	-10618
使用了	-10619
促进了	-10620
保守的	-10621
却依然	-10622
可以是	-10623
和医疗	-10624
和控制	-10625
国防部	-10626
始作俑	-10627
应该由	-10628
才开始	-10629
扮演着	-10630
支持了	-10631
日俱增	-10632
最后一	-10633
有多大	-10634
有组织	-10635
束手无	-10636
来帮助	-10637
来形容	-10638
来确保	-10639
的情绪	-10640
的改变	-10641
的攻击	-10642
的腐败	-10643
的逻辑	-10644
结果的	-10645
维持了	-10646
老年人	-10647
而不会	-10648
至今日	-10649
让经济	-10650
该机构	-10651
进行过	-10652
1968	-10653
50%,	-10654
▁同样地	-10655
临床试验	-10656
也面临着	-10657
他们就会	-10658
保护责任	-10659
全球市场	-10660
八国集团	-10661
可以实现	-10662
史无前例	-10663
和墨西哥	-10664
哪个国家	-10665
四分五裂	-10666
实际上是	-10667
将取决于	-10668
怀疑态度	-10669
想象一下	-10670
承担责任	-10671
提供一个	-10672
收入水平	-10673
数以百万	-10674
本国货币	-10675
没完没了	-10676
犹太人的	-10677
电动汽车	-10678
研究成果	-10679
联邦储备	-10680
贫困国家	-10681
金融动荡	-10682
ealth	-10683
—2008	-10684
▁气候变化	-10685
世界银行的	-10686
从一开始就	-10687
伊斯兰革命	-10688
叙利亚难民	-10689
是不可能的	-10690
某种意义上	-10691
清楚地表明	-10692
社会民主党	-10693
加利福尼亚州	-10694
▁Institute	-10695
GO	-10696
万个	-10697
不让	-10698
乘数	-10699
也都	-10700
伊始	-10701
会的	-10702
作风	-10703
倾斜	-10704
免遭	-10705
公园	-10706
几率	-10707
划分	-10708
初选	-10709
制于	-10710
原先	-10711
原有	-10712
叫做	-10713
名誉	-10714
向下	-10715
唯有	-10716
回升	-10717
地亚	-10718
坦桑	-10719
堕胎	-10720
小泉	-10721
小额	-10722
平常	-10723
年就	-10724
度过	-10725
忌惮	-10726
快于	-10727
想让	-10728
托斯	-10729
政见	-10730
新任	-10731
晓夫	-10732
普罗	-10733
步入	-10734
气氛	-10735
消退	-10736
熟练	-10737
班农	-10738
登上	-10739
礼物	-10740
种类	-10741
笔者	-10742
简化	-10743
纳斯	-10744
考量	-10745
联网	-10746
腐蚀	-10747
薪水	-10748
被动	-10749
角落	-10750
谬误	-10751
贯彻	-10752
赞赏	-10753
起源	-10754
连通	-10755
迷失	-10756
逃脱	-10757
重心	-10758
重获	-10759
7%,	-10760
amm	-10761
per	-10762
▁un	-10763
▁它还	-10764
▁科学	-10765
▁这与	-10766
一个新	-10767
不可及	-10768
为导向	-10769
乌拉圭	-10770
也不太	-10771
人权和	-10772
价值链	-10773
会认为	-10774
但现在	-10775
关系到	-10776
军政府	-10777
削减了	-10778
变革的	-10779
向中国	-10780
因素的	-10781
困扰着	-10782
在今天	-10783
在政府	-10784
地球上	-10785
大城市	-10786
天安门	-10787
对政治	-10788
对日本	-10789
将军们	-10790
将超过	-10791
希腊人	-10792
性行为	-10793
性问题	-10794
总体上	-10795
或多或	-10796
拥有了	-10797
改革派	-10798
显示了	-10799
有任何	-10800
有缺陷	-10801
比里亚	-10802
灵活的	-10803
的全部	-10804
的商品	-10805
的大国	-10806
的政权	-10807
的高级	-10808
被推翻	-10809
认为的	-10810
认为这	-10811
过程的	-10812
进程的	-10813
非洲和	-10814
韩国和	-10815
风险和	-10816
1962	-10817
▁但由于	-10818
▁其中的	-10819
▁近年来	-10820
不断上升	-10821
主权国家	-10822
令人鼓舞	-10823
发现自己	-10824
可以作为	-10825
和叙利亚	-10826
在以色列	-10827
在华盛顿	-10828
坦桑尼亚	-10829
塞拉利昂	-10830
外国投资	-10831
大大增加	-10832
寻求庇护	-10833
并不需要	-10834
得出结论	-10835
德克萨斯	-10836
执政期间	-10837
更加复杂	-10838
束手无策	-10839
特里赫特	-10840
相似之处	-10841
萎靡不振	-10842
赫鲁晓夫	-10843
这一决定	-10844
重点放在	-10845
陷入困境	-10846
领导下的	-10847
,2012	-10848
▁近几年来	-10849
共产主义的	-10850
的民族主义	-10851
这样的结果	-10852
高收入国家	-10853
亚洲金融危机	-10854
原教旨主义者	-10855
欧洲央行行长	-10856
特别是考虑到	-10857
的经济和政治	-10858
马斯特里赫特	-10859
44	-10860
au	-10861
一月	-10862
人性	-10863
仿佛	-10864
会比	-10865
停顿	-10866
克什	-10867
公立	-10868
共鸣	-10869
力更	-10870
加斯	-10871
助推	-10872
发酵	-10873
名词	-10874
启蒙	-10875
基辅	-10876
复仇	-10877
天真	-10878
对该	-10879
广受	-10880
异议	-10881
当成	-10882
快乐	-10883
悲哀	-10884
把钱	-10885
拥挤	-10886
救命	-10887
更像	-10888
欢呼	-10889
法外	-10890
海域	-10891
特使	-10892
班加	-10893
突发	-10894
筹资	-10895
红色	-10896
脚步	-10897
自满	-10898
营利	-10899
要将	-10900
赞美	-10901
走了	-10902
蹂躏	-10903
重现	-10904
附带	-10905
除外	-10906
75%	-10907
NPT	-10908
red	-10909
一国的	-10910
不一定	-10911
也因为	-10912
也并非	-10913
也随之	-10914
了道路	-10915
事务的	-10916
五年中	-10917
伙伴国	-10918
保护的	-10919
共同点	-10920
北部的	-10921
和西方	-10922
哈里发	-10923
多大的	-10924
寄希望	-10925
将最终	-10926
开放的	-10927
怎样的	-10928
总统和	-10929
成员的	-10930
手旁观	-10931
数据库	-10932
时间和	-10933
是基于	-10934
有更多	-10935
有用的	-10936
核扩散	-10937
正在向	-10938
的不是	-10939
的大学	-10940
的最好	-10941
的民族	-10942
的消费	-10943
的那些	-10944
碳定价	-10945
福克斯	-10946
罗姆人	-10947
而那些	-10948
自上而	-10949
蔓延到	-10950
通过的	-10951
都可能	-10952
都同意	-10953
采取更	-10954
锋相对	-10955
30%,	-10956
ital	-10957
▁克林顿	-10958
▁而这一	-10959
▁这对于	-10960
不难理解	-10961
与中国的	-10962
了自己的	-10963
公共资金	-10964
公私合作	-10965
利比里亚	-10966
只有通过	-10967
可以利用	-10968
可能无法	-10969
和其他人	-10970
国家主权	-10971
在欧元区	-10972
大不相同	-10973
居高不下	-10974
很多国家	-10975
报告显示	-10976
提供帮助	-10977
支出削减	-10978
数据表明	-10979
最后一个	-10980
极权主义	-10981
核反应堆	-10982
特别是对	-10983
特朗普在	-10984
犹太复国	-10985
科学研究	-10986
移动电话	-10987
结合起来	-10988
野生动物	-10989
金融交易	-10990
陷入衰退	-10991
齐心协力	-10992
▁具体而言	-10993
▁这一观点	-10994
▁这个问题	-10995
世界经济的	-10996
伊朗核计划	-10997
极端主义的	-10998
▁内塔尼亚胡	-10999
主权债务危机	-11000
作为一个整体	-11001
太大而不能倒	-11002
国际原子能机构	-11003
布雷顿森林体系	-11004
49	-11005
Ar	-11006
FC	-11007
OP	-11008
PD	-11009
▁Z	-11010
▁布	-11011
▁还	-11012
三十	-11013
不入	-11014
中全	-11015
中日	-11016
乱象	-11017
二世	-11018
全职	-11019
全胜	-11020
共担	-11021
关乎	-11022
占到	-11023
听取	-11024
商店	-11025
四处	-11026
塞拜	-11027
壮大	-11028
天才	-11029
它会	-11030
审议	-11031
带头	-11032
平方	-11033
度和	-11034
建成	-11035
抽象	-11036
拍卖	-11037
拿破	-11038
推理	-11039
收取	-11040
曙光	-11041
更难	-11042
杀虫	-11043
欲望	-11044
泄露	-11045
海峡	-11046
游客	-11047
灵魂	-11048
率和	-11049
用以	-11050
祸首	-11051
算盘	-11052
维埃	-11053
缺点	-11054
置信	-11055
美德	-11056
而来	-11057
聚变	-11058
胚胎	-11059
能以	-11060
自称	-11061
良多	-11062
营销	-11063
视作	-11064
说他	-11065
财长	-11066
赔偿	-11067
走到	-11068
运气	-11069
这三	-11070
陌生	-11071
ARC	-11072
ear	-11073
ish	-11074
▁债务	-11075
▁唯一	-11076
三个月	-11077
也有所	-11078
事件中	-11079
仍处于	-11080
代表团	-11081
作为其	-11082
其政治	-11083
和国内	-11084
和银行	-11085
塞拜疆	-11086
增加的	-11087
大体上	-11088
安全与	-11089
对这种	-11090
将他们	-11091
层面的	-11092
并要求	-11093
必须为	-11094
悬而未	-11095
才能够	-11096
拿破仑	-11097
指挥官	-11098
据估计	-11099
数据的	-11100
暴露出	-11101
月以来	-11102
标志性	-11103
正面临	-11104
永远是	-11105
现在是	-11106
的一点	-11107
的中心	-11108
的举动	-11109
的意义	-11110
的愤怒	-11111
的报道	-11112
的生产	-11113
的破坏	-11114
的高度	-11115
而感到	-11116
而无法	-11117
规模和	-11118
进步的	-11119
都存在	-11120
都非常	-11121
钦斯基	-11122
马杜罗	-11123
高技能	-11124
▁凯恩斯	-11125
▁换言之	-11126
一小部分	-11127
中国已经	-11128
亿万富翁	-11129
他们已经	-11130
做出贡献	-11131
克罗地亚	-11132
南中国海	-11133
即所谓的	-11134
发生改变	-11135
可能已经	-11136
外围国家	-11137
实际利率	-11138
寄希望于	-11139
富兰克林	-11140
并不总是	-11141
建设性的	-11142
弱势群体	-11143
德国政府	-11144
意大利的	-11145
所获得的	-11146
提供融资	-11147
收入差距	-11148
收支平衡	-11149
斯洛伐克	-11150
毫无意义	-11151
的投资者	-11152
职业生涯	-11153
自相矛盾	-11154
这一现象	-11155
进行谈判	-11156
退出欧盟	-11157
重要角色	-11158
金融资产	-11159
James	-11160
▁迄今为止	-11161
中国共产党	-11162
在巴基斯坦	-11163
欧洲理事会	-11164
的增长模式	-11165
臭名昭著的	-11166
预算办公室	-11167
世界上最大的	-11168
世界其他地方	-11169
欧盟成员资格	-11170
货币基金组织	-11171
量化宽松政策	-11172
欧盟委员会主席	-11173
第一次世界大战	-11174
34	-11175
ly	-11176
▁拜	-11177
下调	-11178
不该	-11179
为负	-11180
之又	-11181
仇外	-11182
但又	-11183
冠军	-11184
出路	-11185
力求	-11186
召集	-11187
向其	-11188
土著	-11189
好了	-11190
威廉	-11191
宣战	-11192
年份	-11193
度假	-11194
得不	-11195
战线	-11196
托尼	-11197
投向	-11198
放心	-11199
昔日	-11200
显露	-11201
欠缺	-11202
测验	-11203
消亡	-11204
申根	-11205
直至	-11206
矛头	-11207
神社	-11208
童工	-11209
网上	-11210
美日	-11211
自私	-11212
虔诚	-11213
觉醒	-11214
赶上	-11215
轮值	-11216
通向	-11217
那摩	-11218
隔绝	-11219
180	-11220
35%	-11221
FDI	-11222
ace	-11223
ain	-11224
ley	-11225
uel	-11226
ven	-11227
▁但其	-11228
▁公共	-11229
▁国会	-11230
▁她们	-11231
▁总之	-11232
▁想想	-11233
▁整个	-11234
不一样	-11235
不仅要	-11236
不会在	-11237
不相信	-11238
与政府	-11239
与日本	-11240
了我们	-11241
供给侧	-11242
儿童的	-11243
南苏丹	-11244
另一位	-11245
和工作	-11246
和行动	-11247
坚定地	-11248
失业和	-11249
宗教和	-11250
将受到	-11251
将因此	-11252
小企业	-11253
布拉格	-11254
希望在	-11255
心理学	-11256
性力量	-11257
所导致	-11258
抗药性	-11259
支出和	-11260
支持和	-11261
新常态	-11262
是由于	-11263
更快地	-11264
核武库	-11265
每年的	-11266
注定要	-11267
由政府	-11268
的一面	-11269
的主题	-11270
的定义	-11271
的灾难	-11272
的网络	-11273
目前所	-11274
相应的	-11275
眼中的	-11276
结论是	-11277
脱维亚	-11278
让政府	-11279
试图在	-11280
都是在	-11281
1914	-11282
▁当前的	-11283
▁欧洲人	-11284
▁该计划	-11285
不稳定的	-11286
也意味着	-11287
以及如何	-11288
关于如何	-11289
关塔那摩	-11290
决定是否	-11291
只能通过	-11292
可以带来	-11293
因为我们	-11294
多元化的	-11295
完全没有	-11296
官僚机构	-11297
容易受到	-11298
对中国的	-11299
导弹防御	-11300
悬而未决	-11301
或多或少	-11302
排除在外	-11303
施加压力	-11304
溢出效应	-11305
激进分子	-11306
竞争优势	-11307
继续保持	-11308
英国选民	-11309
范围内的	-11310
获得成功	-11311
这些风险	-11312
重新考虑	-11313
,2014	-11314
▁而事实上	-11315
▁讽刺的是	-11316
几乎肯定会	-11317
已经取得了	-11318
形成了鲜明	-11319
的民主国家	-11320
私人投资者	-11321
财政政策的	-11322
还远远不够	-11323
麦肯锡全球	-11324
ouncil	-11325
俄罗斯和中国	-11326
某种程度上说	-11327
注意力集中在	-11328
随着时间的推移	-11329
基础设施投资银行	-11330
2°	-11331
Af	-11332
BR	-11333
▁%	-11334
不休	-11335
不抵	-11336
业绩	-11337
为由	-11338
主体	-11339
之初	-11340
乌托	-11341
优点	-11342
党员	-11343
关切	-11344
其与	-11345
内亚	-11346
写照	-11347
加息	-11348
同期	-11349
吞噬	-11350
四国	-11351
基点	-11352
多达	-11353
大小	-11354
大谈	-11355
媲美	-11356
子里	-11357
忠于	-11358
思议	-11359
愈加	-11360
抵挡	-11361
挤出	-11362
政局	-11363
新近	-11364
无核	-11365
是说	-11366
更糟	-11367
替罪	-11368
有余	-11369
权宜	-11370
权限	-11371
李克	-11372
极化	-11373
枪支	-11374
毁掉	-11375
清真	-11376
演习	-11377
物品	-11378
监视	-11379
真心	-11380
眼里	-11381
米洛	-11382
素质	-11383
维利	-11384
罢了	-11385
罪恶	-11386
而他	-11387
航班	-11388
茨基	-11389
街道	-11390
警示	-11391
辉煌	-11392
这会	-11393
都市	-11394
随意	-11395
鱼类	-11396
OMT	-11397
▁假设	-11398
▁拥有	-11399
▁有了	-11400
▁能源	-11401
临时性	-11402
乌托邦	-11403
也应当	-11404
也能够	-11405
从而在	-11406
会引发	-11407
作出了	-11408
像美国	-11409
减少对	-11410
出现过	-11411
占多数	-11412
却无法	-11413
反周期	-11414
各自为	-11415
告诉我	-11416
它应该	-11417
对所有	-11418
将它们	-11419
将美国	-11420
就不能	-11421
屈服于	-11422
常常被	-11423
干细胞	-11424
平等的	-11425
应该从	-11426
强制性	-11427
所取代	-11428
抑制了	-11429
政客和	-11430
方式来	-11431
无异于	-11432
无法再	-11433
明智地	-11434
是不会	-11435
暂时的	-11436
有超过	-11437
法律的	-11438
清真寺	-11439
的交易	-11440
的宪法	-11441
的工资	-11442
的成就	-11443
的气候	-11444
的活动	-11445
的积极	-11446
的运动	-11447
而导致	-11448
自力更	-11449
至少有	-11450
苏维埃	-11451
要求在	-11452
观察员	-11453
让所有	-11454
都拥有	-11455
预计将	-11456
驱动的	-11457
魁祸首	-11458
1971	-11459
TTIP	-11460
▁For	-11461
▁不久前	-11462
▁在最近	-11463
▁慕尼黑	-11464
全球治理	-11465
减少贫困	-11466
几个世纪	-11467
创造一个	-11468
叙利亚和	-11469
多元文化	-11470
孤立主义	-11471
完全可以	-11472
对冲基金	-11473
希望看到	-11474
年轻人的	-11475
形成一个	-11476
形成一致	-11477
情报机构	-11478
投资项目	-11479
改革计划	-11480
政治动荡	-11481
时至今日	-11482
海湾国家	-11483
的结果是	-11484
短期利率	-11485
税收制度	-11486
议会选举	-11487
贸易顺差	-11488
这是一种	-11489
这种状况	-11490
这种观点	-11491
重大挑战	-11492
阿塞拜疆	-11493
▁这一方针	-11494
完全不同的	-11495
工业化国家	-11496
带来的好处	-11497
根本不可能	-11498
的经济表现	-11499
经济和金融	-11500
是显而易见的	-11501
俄罗斯总统普京	-11502
国内生产总值的	-11503
西班牙和意大利	-11504
)”	-11505
UN	-11506
ef	-11507
一周	-11508
不决	-11509
不合	-11510
东正	-11511
之计	-11512
五十	-11513
伊尔	-11514
会为	-11515
侨汇	-11516
信徒	-11517
信条	-11518
兴建	-11519
冒犯	-11520
减贫	-11521
半叶	-11522
半球	-11523
多克	-11524
头巾	-11525
实例	-11526
对新	-11527
就得	-11528
市值	-11529
带动	-11530
年至	-11531
序列	-11532
悠久	-11533
抗拒	-11534
挖掘	-11535
支箭	-11536
放贷	-11537
斯密	-11538
昂山	-11539
暴涨	-11540
更小	-11541
有损	-11542
术语	-11543
校园	-11544
沙文	-11545
法制	-11546
男孩	-11547
简称	-11548
累进	-11549
级的	-11550
纺织	-11551
细分	-11552
罢工	-11553
联酋	-11554
良性	-11555
萨利	-11556
要把	-11557
要走	-11558
视野	-11559
评判	-11560
诉诸	-11561
说得	-11562
资深	-11563
钻石	-11564
阳光	-11565
▁数字	-11566
▁这份	-11567
一半的	-11568
上升了	-11569
不关心	-11570
不属于	-11571
不抵债	-11572
了这个	-11573
产量的	-11574
从而为	-11575
代人的	-11576
以保护	-11577
以及与	-11578
保持了	-11579
其中最	-11580
原子弹	-11581
发展出	-11582
受制于	-11583
和个人	-11584
国政府	-11585
在他的	-11586
在伊朗	-11587
媒体和	-11588
它们将	-11589
届政府	-11590
巴西的	-11591
德意志	-11592
怎么办	-11593
我们能	-11594
战略性	-11595
持不同	-11596
掌握了	-11597
控制在	-11598
援助的	-11599
新西兰	-11600
无助于	-11601
本可以	-11602
此前的	-11603
消失了	-11604
牺牲品	-11605
瓦哈比	-11606
的具体	-11607
的复苏	-11608
的最初	-11609
科学的	-11610
管齐下	-11611
而如今	-11612
自由地	-11613
该如何	-11614
钓鱼岛	-11615
预见到	-11616
饮用水	-11617
1986	-11618
edic	-11619
ency	-11620
rans	-11621
▁2%,	-11622
▁Act	-11623
▁Uni	-11624
▁即便是	-11625
一种新的	-11626
二战结束	-11627
军备竞赛	-11628
历史性的	-11629
压力测试	-11630
反过来又	-11631
四分之三	-11632
始作俑者	-11633
尤其重要	-11634
数十年的	-11635
是否愿意	-11636
更加严重	-11637
欧盟内部	-11638
物理学家	-11639
经济状况	-11640
统计数字	-11641
袖手旁观	-11642
财政悬崖	-11643
财政联盟	-11644
货币刺激	-11645
资不抵债	-11646
过程中的	-11647
退休基金	-11648
都面临着	-11649
长远来看	-11650
▁Summ	-11651
▁举例来讲	-11652
▁几十年来	-11653
▁发达国家	-11654
▁委内瑞拉	-11655
他们的国家	-11656
伊斯兰教徒	-11657
国家的政府	-11658
的一小部分	-11659
自由贸易区	-11660
许多人认为	-11661
国际刑事法庭	-11662
经合组织国家	-11663
解决这一问题	-11664
叙利亚总统巴沙尔	-11665
EM	-11666
US	-11667
za	-11668
”;	-11669
▁好	-11670
一句	-11671
中印	-11672
乌里	-11673
仿效	-11674
会员	-11675
元首	-11676
出不	-11677
则被	-11678
刻意	-11679
力图	-11680
勘探	-11681
反美	-11682
受人	-11683
可笑	-11684
含有	-11685
在该	-11686
多项	-11687
女童	-11688
实时	-11689
对准	-11690
局长	-11691
屈从	-11692
巴巴	-11693
年所	-11694
应急	-11695
抑或	-11696
拼命	-11697
推断	-11698
擅长	-11699
数目	-11700
族群	-11701
日期	-11702
时日	-11703
是他	-11704
晓波	-11705
暴政	-11706
极高	-11707
每周	-11708
每月	-11709
流传	-11710
海滩	-11711
用作	-11712
税制	-11713
端的	-11714
类别	-11715
系数	-11716
要做	-11717
认清	-11718
访者	-11719
负有	-11720
赚钱	-11721
轻重	-11722
近邻	-11723
违法	-11724
避开	-11725
陆军	-11726
集会	-11727
高额	-11728
oal	-11729
old	-11730
▁总统	-11731
▁投资	-11732
▁改善	-11733
▁本月	-11734
▁而是	-11735
不对称	-11736
两年中	-11737
为目的	-11738
之前就	-11739
也成为	-11740
习惯于	-11741
了新的	-11742
从美国	-11743
低增长	-11744
发布了	-11745
向世界	-11746
听上去	-11747
和暴力	-11748
在希腊	-11749
埃及人	-11750
失业者	-11751
威尔逊	-11752
孩子的	-11753
就不是	-11754
工作和	-11755
已经将	-11756
年之后	-11757
并开始	-11758
扮演了	-11759
把他们	-11760
控制和	-11761
提供者	-11762
揭示了	-11763
无限期	-11764
替罪羊	-11765
月中旬	-11766
有多么	-11767
来决定	-11768
来处理	-11769
查尔斯	-11770
沃尔玛	-11771
留下了	-11772
的内部	-11773
的前任	-11774
的结构	-11775
确保了	-11776
经验的	-11777
计划中	-11778
超国家	-11779
转向了	-11780
迅速地	-11781
还存在	-11782
,500	-11783
ersh	-11784
reat	-11785
▁GDP	-11786
▁他们还	-11787
▁利比亚	-11788
▁在其他	-11789
▁尤其是	-11790
▁所谓的	-11791
▁看起来	-11792
不断扩大	-11793
与其说是	-11794
主义者的	-11795
侵犯人权	-11796
几个国家	-11797
刚刚开始	-11798
包括中国	-11799
医疗体系	-11800
双边贸易	-11801
大部分是	-11802
宏观审慎	-11803
已经不再	-11804
已经导致	-11805
成百上千	-11806
政治体制	-11807
日本政府	-11808
是巨大的	-11809
的劳动力	-11810
自由化的	-11811
货币操纵	-11812
金融监管	-11813
高速公路	-11814
▁中国政府	-11815
▁全球经济	-11816
▁即便如此	-11817
▁如果欧洲	-11818
▁我们知道	-11819
中国经济的	-11820
之间的差距	-11821
债券持有人	-11822
充分的理由	-11823
加入欧盟的	-11824
半岛电视台	-11825
印度和中国	-11826
欧元区危机	-11827
的政治制度	-11828
穆斯林国家	-11829
越来越大的	-11830
远远超过了	-11831
金融危机的	-11832
世界卫生组织	-11833
巴勒斯坦人的	-11834
政策制定者们	-11835
ability	-11836
,(	-11837
Ph	-11838
TO	-11839
▁—	-11840
一心	-11841
万名	-11842
上诉	-11843
不懈	-11844
两场	-11845
中部	-11846
为他	-11847
亲信	-11848
们在	-11849
僵尸	-11850
免税	-11851
协同	-11852
口头	-11853
口气	-11854
品种	-11855
哈利	-11856
哈尔	-11857
善于	-11858
因果	-11859
图拉	-11860
外人	-11861
套利	-11862
它与	-11863
巨资	-11864
巴林	-11865
常识	-11866
并被	-11867
强行	-11868
憎恨	-11869
手笔	-11870
接替	-11871
提起	-11872
斯诺	-11873
方位	-11874
暗杀	-11875
权重	-11876
每桶	-11877
民事	-11878
激活	-11879
火车	-11880
炮制	-11881
牢牢	-11882
环节	-11883
理工	-11884
用处	-11885
的多	-11886
离婚	-11887
符号	-11888
纵容	-11889
维艰	-11890
萨拉	-11891
裂痕	-11892
贩毒	-11893
走势	-11894
越是	-11895
路上	-11896
这套	-11897
这家	-11898
远超	-11899
逃税	-11900
阈值	-11901
领取	-11902
190	-11903
ith	-11904
itz	-11905
pro	-11906
”)。	-11907
▁此前	-11908
不透明	-11909
两年的	-11910
中国将	-11911
之中的	-11912
五年的	-11913
享受到	-11914
但这种	-11915
作出的	-11916
作用的	-11917
做好了	-11918
其国内	-11919
几内亚	-11920
刘晓波	-11921
到美国	-11922
发电厂	-11923
可预测	-11924
和东欧	-11925
和信用	-11926
国神社	-11927
在长期	-11928
地进行	-11929
威胁着	-11930
安全感	-11931
家庭和	-11932
已经让	-11933
年危机	-11934
应该对	-11935
开始的	-11936
所创造	-11937
提到了	-11938
改变其	-11939
昂山素	-11940
权利和	-11941
来推动	-11942
案例中	-11943
济于事	-11944
百万人	-11945
的一样	-11946
的宗教	-11947
的来说	-11948
的结束	-11949
的难度	-11950
的领土	-11951
目的地	-11952
硬实力	-11953
而是在	-11954
让自己	-11955
谈判桌	-11956
贷款的	-11957
身上的	-11958
这一幕	-11959
这两者	-11960
进口国	-11961
道德上	-11962
采用了	-11963
问题和	-11964
面对着	-11965
ight	-11966
inan	-11967
omas	-11968
▁但正如	-11969
▁当我们	-11970
▁爱尔兰	-11971
不仅包括	-11972
不可思议	-11973
不大可能	-11974
与日俱增	-11975
令人振奋	-11976
传统智慧	-11977
公司税率	-11978
创造就业	-11979
刺激经济	-11980
印度政府	-11981
历史上看	-11982
多样性的	-11983
它们可以	-11984
已经存在	-11985
已经有了	-11986
并非所有	-11987
影子银行	-11988
恐怖活动	-11989
泡沫破裂	-11990
注意的是	-11991
的纳维亚	-11992
的继任者	-11993
相互依赖	-11994
科夫斯基	-11995
美元计价	-11996
自力更生	-11997
西奈半岛	-11998
货币升值	-11999
这样才能	-12000
随处可见	-12001
一个国家的	-12002
不确定性的	-12003
二氧化碳的	-12004
以失败告终	-12005
发生的事件	-12006
欧洲央行和	-12007
正义与发展	-12008
的必要条件	-12009
的生活水平	-12010
俄罗斯天然气	-12011
在发展中国家	-12012
联邦基金利率	-12013
Michael	-12014
伊拉克和阿富汗	-12015
International	-12016
IR	-12017
St	-12018
aj	-12019
ty	-12020
▁月	-12021
两人	-12022
主任	-12023
之事	-12024
之和	-12025
先是	-12026
免除	-12027
列入	-12028
则为	-12029
午餐	-12030
压缩	-12031
受灾	-12032
变量	-12033
后面	-12034
在家	-12035
坏事	-12036
增大	-12037
天赋	-12038
头寸	-12039
孕育	-12040
它能	-12041
宏伟	-12042
对应	-12043
已在	-12044
巴解	-12045
帐户	-12046
年被	-12047
库德	-12048
弹劾	-12049
怨恨	-12050
息息	-12051
扶贫	-12052
招聘	-12053
推销	-12054
放射	-12055
教士	-12056
无常	-12057
旧金	-12058
曲线	-12059
有何	-12060
松散	-12061
款项	-12062
此人	-12063
比特	-12064
比索	-12065
沃伦	-12066
油田	-12067
灵丹	-12068
熟虑	-12069
牢记	-12070
牧师	-12071
特尔	-12072
现存	-12073
突显	-12074
结算	-12075
联手	-12076
能将	-12077
脱贫	-12078
舞弊	-12079
节节	-12080
莱因	-12081
血管	-12082
要对	-12083
讨厌	-12084
设在	-12085
辩解	-12086
这部	-12087
邮报	-12088
部件	-12089
锁定	-12090
阿勒	-12091
集合	-12092
顺从	-12093
驳斥	-12094
10.	-12095
And	-12096
Con	-12097
Ste	-12098
arm	-12099
▁个人	-12100
▁增加	-12101
下降的	-12102
不会再	-12103
不断的	-12104
东北亚	-12105
也只是	-12106
也难以	-12107
了那些	-12108
人们在	-12109
以适应	-12110
会不会	-12111
但仍然	-12112
体现出	-12113
使我们	-12114
副主席	-12115
十年期	-12116
发生时	-12117
发言人	-12118
只能在	-12119
可支配	-12120
各自的	-12121
后不久	-12122
和外部	-12123
和平奖	-12124
基金的	-12125
大范围	-12126
将需要	-12127
就变得	-12128
已久的	-12129
市场中	-12130
并不比	-12131
很清楚	-12132
批准了	-12133
抛弃了	-12134
抵押品	-12135
措施来	-12136
描述了	-12137
提供给	-12138
效率和	-12139
效率的	-12140
新德里	-12141
旧金山	-12142
更紧密	-12143
服务和	-12144
本身的	-12145
杀虫剂	-12146
正常的	-12147
沉重的	-12148
没有在	-12149
没有被	-12150
泛欧洲	-12151
波兰和	-12152
波动性	-12153
激起了	-12154
牵涉到	-12155
独特的	-12156
的名字	-12157
的正确	-12158
的潜力	-12159
的知识	-12160
的诱惑	-12161
相似的	-12162
确定的	-12163
管理和	-12164
管理局	-12165
美好的	-12166
老布什	-12167
而欧洲	-12168
职人员	-12169
艰难的	-12170
落后的	-12171
议会中	-12172
责任的	-12173
非洲人	-12174
高增长	-12175
Mart	-12176
▁7%,	-12177
▁而中国	-12178
不必要的	-12179
不断增长	-12180
两极分化	-12181
严重依赖	-12182
债务融资	-12183
可能会在	-12184
国内需求	-12185
在过去的	-12186
外交手段	-12187
天主教徒	-12188
如此多的	-12189
就是为了	-12190
已不再是	-12191
平均而言	-12192
并不足以	-12193
应该如何	-12194
我们如何	-12195
拉脱维亚	-12196
改革方案	-12197
教育体系	-12198
是这样的	-12199
晚些时候	-12200
欧盟预算	-12201
消极影响	-12202
特朗普和	-12203
的环境下	-12204
美元升值	-12205
联合行动	-12206
莱因哈特	-12207
裔美国人	-12208
认为美国	-12209
认识到了	-12210
购买计划	-12211
造成严重	-12212
金融中心	-12213
长期债券	-12214
风险溢价	-12215
▁俄罗斯的	-12216
▁这些措施	-12217
▁这些问题	-12218
和其他地区	-12219
大部分地区	-12220
日益增长的	-12221
机构投资者	-12222
的军事行动	-12223
规模最大的	-12224
购买力平价	-12225
这一问题的	-12226
吞并克里米亚	-12227
基础设施建设	-12228
跨大西洋贸易和投资	-12229
Ab	-12230
不为	-12231
与他	-12232
中华	-12233
中去	-12234
之源	-12235
产油	-12236
人文	-12237
优越	-12238
体化	-12239
佩斯	-12240
入主	-12241
公信	-12242
助益	-12243
博物	-12244
博科	-12245
又一	-12246
国度	-12247
基斯	-12248
处方	-12249
大跌	-12250
太高	-12251
嫌疑	-12252
学历	-12253
家和	-12254
惨遭	-12255
或在	-12256
手握	-12257
承包	-12258
挤压	-12259
排外	-12260
提取	-12261
撤退	-12262
断言	-12263
暗中	-12264
更替	-12265
永恒	-12266
流出	-12267
积压	-12268
税基	-12269
税负	-12270
端倪	-12271
翼翼	-12272
自发	-12273
节制	-12274
蚊帐	-12275
诚信	-12276
说出	-12277
贵族	-12278
辅助	-12279
这段	-12280
那场	-12281
酒店	-12282
里克	-12283
重商	-12284
顺序	-12285
频率	-12286
风潮	-12287
驻军	-12288
▁en	-12289
▁可是	-12290
不可靠	-12291
不足的	-12292
与印度	-12293
严重性	-12294
争论的	-12295
事务上	-12296
亚历山	-12297
以美国	-12298
佩雷斯	-12299
先进的	-12300
出生的	-12301
印度洋	-12302
只剩下	-12303
只能是	-12304
可用于	-12305
和行为	-12306
国内部	-12307
埃克森	-12308
外交部	-12309
大企业	-12310
季度的	-12311
对他的	-12312
对银行	-12313
将通过	-12314
应用于	-12315
当我们	-12316
所采取	-12317
持有者	-12318
政府与	-12319
时期内	-12320
最后的	-12321
李克强	-12322
比特币	-12323
沃尔福	-12324
百分比	-12325
的人都	-12326
的假设	-12327
的对立	-12328
的现代	-12329
的精神	-12330
给予了	-12331
被人们	-12332
要实现	-12333
证实了	-12334
较大的	-12335
过多的	-12336
运行的	-12337
这只是	-12338
道德的	-12339
道路上	-12340
遗传学	-12341
100%	-12342
40%。	-12343
▁Cor	-12344
▁但这个	-12345
▁另一种	-12346
▁我们在	-12347
▁该地区	-12348
▁这表明	-12349
世界上的	-12350
主要来自	-12351
克什米尔	-12352
全民公投	-12353
其他任何	-12354
几个月中	-12355
出口市场	-12356
可以肯定	-12357
商界领袖	-12358
基础上的	-12359
增长战略	-12360
如果美国	-12361
对其进行	-12362
应该通过	-12363
应该采取	-12364
开放社会	-12365
数据显示	-12366
新成员国	-12367
每个人都	-12368
深思熟虑	-12369
游戏规则	-12370
爱国主义	-12371
的合法性	-12372
经济停滞	-12373
能够实现	-12374
能够通过	-12375
蓬勃发展	-12376
认为自己	-12377
过度依赖	-12378
逊尼派和	-12379
针锋相对	-12380
陷入停滞	-12381
▁1989	-12382
劳动生产率	-12383
在未来十年	-12384
建立了一个	-12385
生活在一个	-12386
的最佳方式	-12387
直升机撒钱	-12388
议会选举中	-12389
金融机构的	-12390
ership	-12391
正义与发展党	-12392
金融危机爆发	-12393
inancial	-12394
,6	-12395
BT	-12396
ID	-12397
JP	-12398
eh	-12399
ey	-12400
gl	-12401
为一	-12402
书记	-12403
争相	-12404
他会	-12405
代际	-12406
伴侣	-12407
低位	-12408
保存	-12409
假装	-12410
假说	-12411
出乎	-12412
十倍	-12413
卸任	-12414
原来	-12415
名人	-12416
地向	-12417
坐在	-12418
大事	-12419
大权	-12420
将要	-12421
强度	-12422
归还	-12423
心目	-12424
我对	-12425
拖入	-12426
拘留	-12427
拿到	-12428
推荐	-12429
收买	-12430
时就	-12431
期权	-12432
板球	-12433
橙色	-12434
步履	-12435
水域	-12436
活着	-12437
淹没	-12438
漂亮	-12439
热点	-12440
球迷	-12441
瓶颈	-12442
用词	-12443
界的	-12444
登记	-12445
种姓	-12446
立足	-12447
红线	-12448
置身	-12449
美丽	-12450
而该	-12451
脱节	-12452
脱钩	-12453
草根	-12454
补救	-12455
见解	-12456
财阀	-12457
趋向	-12458
较大	-12459
迅猛	-12460
选手	-12461
那就	-12462
销毁	-12463
降息	-12464
青睐	-12465
高位	-12466
ild	-12467
org	-12468
▁不出	-12469
▁人口	-12470
▁公众	-12471
▁反对	-12472
▁后来	-12473
▁年的	-12474
▁气候	-12475
▁研究	-12476
▁移民	-12477
不应当	-12478
价格和	-12479
低工资	-12480
例子是	-12481
关系中	-12482
则需要	-12483
区域性	-12484
原来的	-12485
友好的	-12486
受教育	-12487
同样也	-12488
在国会	-12489
在应对	-12490
地使用	-12491
夸大了	-12492
她们的	-12493
如果他	-12494
工人和	-12495
幸福感	-12496
彻底的	-12497
感觉到	-12498
我们都	-12499
把它们	-12500
捷克斯	-12501
提供商	-12502
政治中	-12503
新总统	-12504
是唯一	-12505
有三个	-12506
沃尔夫	-12507
疾病和	-12508
的口号	-12509
的愿望	-12510
的方针	-12511
的特殊	-12512
的规定	-12513
的通胀	-12514
盎格鲁	-12515
结构和	-12516
而德国	-12517
货币化	-12518
赶下台	-12519
这部分	-12520
非如此	-12521
鲍威尔	-12522
1929	-12523
ried	-12524
▁人民币	-12525
▁我们还	-12526
▁有鉴于	-12527
▁默克尔	-12528
不可逆转	-12529
低碳能源	-12530
偿还债务	-12531
几乎完全	-12532
只是为了	-12533
只有不到	-12534
可以解释	-12535
可能引发	-12536
各国央行	-12537
商业周期	-12538
多样化的	-12539
多边机构	-12540
小心翼翼	-12541
并不那么	-12542
必要条件	-12543
我们希望	-12544
我们应当	-12545
接近于零	-12546
提供支持	-12547
改革措施	-12548
政府机构	-12549
无一例外	-12550
日常生活	-12551
是全世界	-12552
更不要说	-12553
更加糟糕	-12554
有价值的	-12555
构建一个	-12556
欧盟机构	-12557
毋庸置疑	-12558
民主选举	-12559
潜在增长	-12560
的情况是	-12561
的最重要	-12562
直到最近	-12563
相对较小	-12564
经济合作	-12565
网络空间	-12566
莫拉莱斯	-12567
货币当局	-12568
走上街头	-12569
采取任何	-12570
重中之重	-12571
靖国神社	-12572
预期寿命	-12573
首脑会议	-12574
▁Bank	-12575
劳动力成本	-12576
华盛顿共识	-12577
必须认识到	-12578
的国家之一	-12579
的民粹主义	-12580
经济发展的	-12581
结构性问题	-12582
▁中国领导人	-12583
▁所有这些都	-12584
捷克斯洛伐克	-12585
经常账户赤字	-12586
诺贝尔和平奖	-12587
二氧化碳排放量	-12588
▁Commission	-12589
33	-12590
FA	-12591
▁试	-12592
一手	-12593
一提	-12594
不好	-12595
专属	-12596
丧命	-12597
个州	-12598
亚哥	-12599
交战	-12600
亿吨	-12601
什图	-12602
侵入	-12603
信托	-12604
克逊	-12605
兰经	-12606
共处	-12607
共有	-12608
分水	-12609
加紧	-12610
印钞	-12611
各式	-12612
合情	-12613
吹嘘	-12614
地与	-12615
备忘	-12616
外币	-12617
失效	-12618
对称	-12619
将它	-12620
小于	-12621
就任	-12622
布斯	-12623
弊端	-12624
忡忡	-12625
怪异	-12626
恶意	-12627
悲伤	-12628
战败	-12629
收效	-12630
斯达	-12631
旱灾	-12632
旷日	-12633
格雷	-12634
此事	-12635
比作	-12636
比克	-12637
没收	-12638
洛克	-12639
流氓	-12640
演员	-12641
濒临	-12642
盛行	-12643
相形	-12644
真诚	-12645
矿产	-12646
空缺	-12647
线索	-12648
腰包	-12649
艾伦	-12650
英美	-12651
菲利	-12652
警报	-12653
貌似	-12654
赋权	-12655
身后	-12656
迟缓	-12657
追加	-12658
遗余	-12659
长官	-12660
问及	-12661
首个	-12662
马士	-12663
黎加	-12664
默认	-12665
170	-12666
lex	-12667
lic	-12668
▁其二	-12669
▁智利	-12670
▁确保	-12671
▁部分	-12672
一个月	-12673
一年前	-12674
中右翼	-12675
什么是	-12676
他自己	-12677
任务是	-12678
会因为	-12679
但是却	-12680
出不穷	-12681
制度性	-12682
加沙的	-12683
博物馆	-12684
占世界	-12685
印度教	-12686
和一个	-12687
和中东	-12688
和平和	-12689
和移民	-12690
和许多	-12691
在很多	-12692
在纽约	-12693
将出现	-12694
将获得	-12695
尽一切	-12696
年达到	-12697
很明显	-12698
必须有	-12699
慢性病	-12700
战争罪	-12701
投入到	-12702
投票率	-12703
持续到	-12704
掌权的	-12705
政府都	-12706
斗争中	-12707
方面也	-12708
普遍的	-12709
有大量	-12710
来解释	-12711
比现在	-12712
沉迷于	-12713
略高于	-12714
的一场	-12715
的上升	-12716
的代表	-12717
的全面	-12718
的决心	-12719
的则是	-12720
的名义	-12721
的对比	-12722
的时机	-12723
的痛苦	-12724
矛盾的	-12725
科尔宾	-12726
积累了	-12727
竞争和	-12728
纯粹的	-12729
转型的	-12730
远没有	-12731
选择是	-12732
通过将	-12733
造就了	-12734
阿联酋	-12735
需要对	-12736
青少年	-12737
非理性	-12738
马拉雅	-12739
1987	-12740
3000	-12741
ound	-12742
▁3%。	-12743
▁Ass	-12744
▁在一些	-12745
▁在全球	-12746
▁而美国	-12747
▁而那些	-12748
▁说到底	-12749
不无道理	-12750
两国方案	-12751
中国正在	-12752
令人惊奇	-12753
似乎认为	-12754
债务上限	-12755
决策者的	-12756
南欧国家	-12757
大获全胜	-12758
实力平衡	-12759
层出不穷	-12760
应该得到	-12761
影响深远	-12762
拥有一个	-12763
摆脱贫困	-12764
政府干预	-12765
政治意愿	-12766
极端天气	-12767
民主联盟	-12768
注意力从	-12769
生物技术	-12770
社会契约	-12771
资源配置	-12772
起的作用	-12773
这一方案	-12774
这一概念	-12775
进行合作	-12776
道德风险	-12777
重新评估	-12778
随之而来	-12779
食品价格	-12780
imate	-12781
▁其中一个	-12782
▁在此期间	-12783
▁美国总统	-12784
▁这种情况	-12785
不断扩大的	-12786
几乎不可能	-12787
劳动密集型	-12788
并没有什么	-12789
政治和社会	-12790
欧洲委员会	-12791
深远的影响	-12792
的国家来说	-12793
的政治意愿	-12794
铺平了道路	-12795
人道主义援助	-12796
二十世纪九十年代	-12797
2008—2009	-12798
CN	-12799
CR	-12800
DD	-12801
TC	-12802
▁g	-12803
▁安	-12804
一去	-12805
不切	-12806
之战	-12807
也最	-12808
以免	-12809
优化	-12810
倾听	-12811
养活	-12812
减支	-12813
别处	-12814
助手	-12815
匹马	-12816
十足	-12817
又能	-12818
可归	-12819
可知	-12820
司令	-12821
同比	-12822
后期	-12823
大惊	-12824
季莫	-12825
年会	-12826
年对	-12827
得的	-12828
患有	-12829
我说	-12830
投了	-12831
招致	-12832
捐献	-12833
救世	-12834
整套	-12835
斯塔	-12836
无休	-12837
无误	-12838
无遗	-12839
普斯	-12840
样子	-12841
样本	-12842
格斯	-12843
独自	-12844
球队	-12845
甚少	-12846
生理	-12847
用在	-12848
电台	-12849
症候	-12850
碰撞	-12851
祖先	-12852
移植	-12853
第十	-12854
笼罩	-12855
算是	-12856
紧随	-12857
纾困	-12858
老人	-12859
考试	-12860
而战	-12861
肮脏	-12862
自给	-12863
萨卡	-12864
裁员	-12865
裙带	-12866
见到	-12867
警钟	-12868
赦免	-12869
足联	-12870
逼近	-12871
酒精	-12872
面孔	-12873
须知	-12874
顾及	-12875
ESM	-12876
ade	-12877
arg	-12878
min	-12879
▁利用	-12880
▁南非	-12881
▁成功	-12882
▁没错	-12883
▁瑞典	-12884
▁石油	-12885
上半年	-12886
不论是	-12887
个基点	-12888
中左翼	-12889
中美洲	-12890
伊朗人	-12891
似乎都	-12892
但只有	-12893
低水平	-12894
低油价	-12895
全方位	-12896
出口的	-12897
分水岭	-12898
加入到	-12899
区域内	-12900
反映在	-12901
另一方	-12902
可以把	-12903
号决议	-12904
哥斯达	-12905
地区性	-12906
地马拉	-12907
备忘录	-12908
大会上	-12909
它必须	-12910
它需要	-12911
就是要	-12912
就能够	-12913
崩溃的	-12914
已经对	-12915
常常是	-12916
年时间	-12917
当地的	-12918
所在的	-12919
技能和	-12920
推行的	-12921
斗争的	-12922
是否有	-12923
更长的	-12924
来保护	-12925
来衡量	-12926
此以后	-12927
浓缩铀	-12928
独立于	-12929
的举措	-12930
的声明	-12931
的大门	-12932
的形象	-12933
的支出	-12934
的根本	-12935
的立法	-12936
的辩论	-12937
缅甸的	-12938
而不必	-12939
而且是	-12940
能实现	-12941
萨尔瓦	-12942
行不通	-12943
认真的	-12944
让伊朗	-12945
资金和	-12946
运动中	-12947
这一次	-12948
这笔钱	-12949
遥远的	-12950
那么多	-12951
阿拉维	-12952
马士革	-12953
15%。	-12954
1948	-12955
▁世界上	-12956
▁其结果	-12957
▁据估计	-12958
不断变化	-12959
从中受益	-12960
作为一种	-12961
做得更好	-12962
制定一个	-12963
势力范围	-12964
历史上的	-12965
受欢迎的	-12966
可以用来	-12967
各自为政	-12968
喜马拉雅	-12969
固定资产	-12970
圣地亚哥	-12971
在联合国	-12972
增长最快	-12973
存款保险	-12974
实际情况	-12975
应该获得	-12976
忧心忡忡	-12977
意大利人	-12978
我们无法	-12979
按揭贷款	-12980
新的全球	-12981
智能手机	-12982
最主要的	-12983
最终导致	-12984
欧洲政治	-12985
永远无法	-12986
没有必要	-12987
物价指数	-12988
留在欧盟	-12989
的世界里	-12990
的伊拉克	-12991
能源供应	-12992
脱离欧盟	-12993
营商环境	-12994
调查显示	-12995
过去十年	-12996
这一局面	-12997
远远不够	-12998
远远低于	-12999
高速增长	-13000
urity	-13001
▁1999	-13002
▁在最近的	-13003
▁显而易见	-13004
中央情报局	-13005
哥斯达黎加	-13006
基地组织的	-13007
增长和就业	-13008
完成的任务	-13009
收入和财富	-13010
方面取得了	-13011
日本和韩国	-13012
的速度增长	-13013
相关利益方	-13014
美国财政部	-13015
Martin	-13016
Thomas	-13017
经通胀调整的	-13018
nership	-13019
跨太平洋伙伴关系	-13020
-7	-13021
ok	-13022
▁r	-13023
一时	-13024
上一	-13025
上扬	-13026
两家	-13027
也无	-13028
乱局	-13029
亚的	-13030
会见	-13031
似的	-13032
但从	-13033
倒是	-13034
先前	-13035
加之	-13036
加税	-13037
劫持	-13038
化肥	-13039
卓著	-13040
吉斯	-13041
同道	-13042
和前	-13043
图书	-13044
委会	-13045
庄稼	-13046
开辟	-13047
弥漫	-13048
弱化	-13049
往常	-13050
很不	-13051
得势	-13052
感和	-13053
扎尔	-13054
打印	-13055
扶持	-13056
挽回	-13057
支点	-13058
新高	-13059
日后	-13060
曾是	-13061
条路	-13062
构造	-13063
格莱	-13064
殴打	-13065
深渊	-13066
温床	-13067
潜艇	-13068
激动	-13069
牛肉	-13070
率先	-13071
的两	-13072
知情	-13073
竟然	-13074
筹码	-13075
索尔	-13076
纠缠	-13077
致富	-13078
虚伪	-13079
裁量	-13080
讨好	-13081
诗人	-13082
避孕	-13083
长足	-13084
陈述	-13085
高点	-13086
魔鬼	-13087
黑色	-13088
1/3	-13089
eph	-13090
ial	-13091
omp	-13092
tor	-13093
▁不难	-13094
▁但要	-13095
▁在其	-13096
▁大量	-13097
▁经过	-13098
▁财政	-13099
下一任	-13100
下半年	-13101
不承认	-13102
不遗余	-13103
中国与	-13104
了一切	-13105
了整个	-13106
人人都	-13107
以致于	-13108
出租车	-13109
分配给	-13110
和希腊	-13111
和非洲	-13112
和韩国	-13113
商品的	-13114
国际化	-13115
在当今	-13116
在选举	-13117
在面对	-13118
地区内	-13119
大面积	-13120
奥尔默	-13121
实践中	-13122
对希腊	-13123
对自己	-13124
将很快	-13125
展示了	-13126
巩固了	-13127
年以前	-13128
年龄段	-13129
廉价的	-13130
德国在	-13131
或至少	-13132
把美国	-13133
持续了	-13134
提升了	-13135
政治化	-13136
无非是	-13137
有义务	-13138
有问题	-13139
框架内	-13140
正逐渐	-13141
毁灭性	-13142
特征是	-13143
理论的	-13144
的产物	-13145
的位置	-13146
的困境	-13147
的官员	-13148
的所谓	-13149
的政客	-13150
的文章	-13151
的警告	-13152
的预算	-13153
结构的	-13154
而遭到	-13155
英国在	-13156
误导性	-13157
路要走	-13158
身份的	-13159
适应性	-13160
需求和	-13161
需要为	-13162
预计到	-13163
1933	-13164
1947	-13165
1975	-13166
ture	-13167
uman	-13168
vers	-13169
▁6%,	-13170
▁真正的	-13171
▁而随着	-13172
▁这正是	-13173
一个事实	-13174
中国必须	-13175
似乎并不	-13176
保持沉默	-13177
健康问题	-13178
公民自由	-13179
削减开支	-13180
危地马拉	-13181
发展日程	-13182
另外一种	-13183
困难重重	-13184
基本收入	-13185
外汇市场	-13186
市场准入	-13187
市场失灵	-13188
希腊退出	-13189
并不存在	-13190
总统任期	-13191
所做出的	-13192
投资者和	-13193
支持者的	-13194
方向发展	-13195
更加重要	-13196
更长时间	-13197
未来十年	-13198
标准普尔	-13199
正在日益	-13200
民调显示	-13201
流动资金	-13202
现在正在	-13203
生产力的	-13204
的什叶派	-13205
的以色列	-13206
粮食安全	-13207
经济利益	-13208
美元汇率	-13209
美国已经	-13210
货币战争	-13211
这种说法	-13212
逍遥法外	-13213
重新定义	-13214
长期投资	-13215
enter	-13216
人民币汇率	-13217
各国领导人	-13218
在未来几年	-13219
姆斯菲尔德	-13220
已经达到了	-13221
持怀疑态度	-13222
极端主义者	-13223
法西斯主义	-13224
的一个关键	-13225
的巴基斯坦	-13226
的政策制定	-13227
美国和日本	-13228
重要的作用	-13229
▁欧洲领导人	-13230
所指出的那样	-13231
民意调查显示	-13232
的政治和经济	-13233
遏制气候变化	-13234
▁Health	-13235
▁但这并不意味着	-13236
,7	-13237
58	-13238
▁.	-13239
三位	-13240
不胜	-13241
专栏	-13242
之行	-13243
互惠	-13244
些许	-13245
仍能	-13246
位列	-13247
佛教	-13248
使他	-13249
军国	-13250
出访	-13251
创设	-13252
卖给	-13253
合力	-13254
国和	-13255
在向	-13256
地域	-13257
地讲	-13258
处罚	-13259
外流	-13260
多了	-13261
安装	-13262
强健	-13263
当初	-13264
思路	-13265
想在	-13266
战时	-13267
抵触	-13268
拉低	-13269
摆在	-13270
旗帜	-13271
暴乱	-13272
演进	-13273
灌输	-13274
爱因	-13275
牢固	-13276
的下	-13277
盲目	-13278
相差	-13279
眼睛	-13280
碳税	-13281
窗口	-13282
纠结	-13283
诸塞	-13284
谁来	-13285
调解	-13286
谈到	-13287
越过	-13288
趋于	-13289
远景	-13290
远非	-13291
迷惑	-13292
遇刺	-13293
降级	-13294
饭店	-13295
高尚	-13296
麻省	-13297
11%	-13298
6%,	-13299
900	-13300
ech	-13301
ick	-13302
▁An	-13303
▁双方	-13304
▁女性	-13305
▁更加	-13306
▁罗马	-13307
▁这位	-13308
不超过	-13309
与他们	-13310
世界里	-13311
两个月	-13312
之不去	-13313
也承认	-13314
也知道	-13315
了一番	-13316
产生于	-13317
以促进	-13318
但他的	-13319
低得多	-13320
使人们	-13321
假新闻	-13322
储蓄者	-13323
光是在	-13324
免不了	-13325
关注点	-13326
其主要	-13327
利库德	-13328
占到了	-13329
另一次	-13330
只关注	-13331
司法部	-13332
和波兰	-13333
和疟疾	-13334
在埃及	-13335
它已经	-13336
密尔顿	-13337
对人类	-13338
对它们	-13339
寻常的	-13340
将中国	-13341
尽管在	-13342
强加给	-13343
所在地	-13344
担心的	-13345
是确保	-13346
普通人	-13347
最低的	-13348
最糟糕	-13349
枪匹马	-13350
框架下	-13351
法院的	-13352
的多数	-13353
的情形	-13354
的服务	-13355
的爆发	-13356
的许多	-13357
的评论	-13358
的费用	-13359
目标和	-13360
研究中	-13361
米歇尔	-13362
统治下	-13363
群体的	-13364
自卫队	-13365
薄熙来	-13366
解释说	-13367
证券化	-13368
足轻重	-13369
路易斯	-13370
较小的	-13371
达不到	-13372
银行在	-13373
难以为	-13374
零售商	-13375
马里奥	-13376
默多克	-13377
1985	-13378
ount	-13379
vest	-13380
▁3%,	-13381
▁8%,	-13382
▁在印度	-13383
▁我相信	-13384
▁新加坡	-13385
▁而现在	-13386
▁这些人	-13387
两个国家	-13388
刺激方案	-13389
削减支出	-13390
卫生设施	-13391
危机期间	-13392
发动战争	-13393
可以避免	-13394
可能不会	-13395
和伊斯兰	-13396
商业模式	-13397
在该地区	-13398
大幅降低	-13399
平均每年	-13400
强劲增长	-13401
总统普京	-13402
息息相关	-13403
担任总统	-13404
指导原则	-13405
政府正在	-13406
暴力冲突	-13407
更强大的	-13408
最大限度	-13409
正在迅速	-13410
武装部队	-13411
殖民主义	-13412
民主政体	-13413
没有多少	-13414
游说集团	-13415
爱因斯坦	-13416
物价稳定	-13417
特别是当	-13418
犹豫不决	-13419
社会经济	-13420
科学家和	-13421
移民问题	-13422
税收改革	-13423
紧急状态	-13424
经济转型	-13425
绿色能源	-13426
能够提供	-13427
认为这是	-13428
货币交易	-13429
货币宽松	-13430
资金支持	-13431
这项任务	-13432
远远高于	-13433
那么我们	-13434
除此之外	-13435
NAFTA	-13436
▁一些国家	-13437
▁在我看来	-13438
▁如果这些	-13439
▁我们不能	-13440
▁有鉴于此	-13441
▁这样一来	-13442
产品和服务	-13443
地区和全球	-13444
奥斯曼帝国	-13445
已经超过了	-13446
所做的那样	-13447
的中产阶级	-13448
经济学家们	-13449
美国经济的	-13450
是至关重要的	-13451
的经济和社会	-13452
▁可以肯定的是	-13453
,4	-13454
Ed	-13455
一千	-13456
一同	-13457
两可	-13458
之于	-13459
也好	-13460
争辩	-13461
人是	-13462
人身	-13463
人造	-13464
仅靠	-13465
仍旧	-13466
体的	-13467
例证	-13468
借用	-13469
八年	-13470
几种	-13471
出国	-13472
刊登	-13473
制订	-13474
剔除	-13475
勾结	-13476
卖出	-13477
却对	-13478
后才	-13479
困局	-13480
堆积	-13481
塞罗	-13482
外科	-13483
大通	-13484
天后	-13485
威茨	-13486
子和	-13487
学费	-13488
孱弱	-13489
密度	-13490
左倾	-13491
当其	-13492
惊奇	-13493
成人	-13494
我和	-13495
手脚	-13496
打下	-13497
扣除	-13498
拿马	-13499
既不	-13500
更换	-13501
曼谷	-13502
本书	-13503
极力	-13504
树木	-13505
格利	-13506
梅尼	-13507
毛里	-13508
水电	-13509
犯了	-13510
甚于	-13511
生死	-13512
由来	-13513
的传	-13514
相邻	-13515
福特	-13516
类比	-13517
粗暴	-13518
累累	-13519
能从	-13520
规格	-13521
诅咒	-13522
诺言	-13523
蹒跚	-13524
食用	-13525
鲨鱼	-13526
AMR	-13527
air	-13528
ans	-13529
for	-13530
nit	-13531
oci	-13532
▁En	-13533
▁不要	-13534
▁增长	-13535
▁就算	-13536
▁当局	-13537
▁莫迪	-13538
▁难民	-13539
一年的	-13540
一无所	-13541
不仅在	-13542
与我们	-13543
与政治	-13544
东正教	-13545
丝毫不	-13546
两位数	-13547
为中国	-13548
了一套	-13549
了超过	-13550
但中国	-13551
但是在	-13552
作斗争	-13553
其结果	-13554
出一辙	-13555
制定出	-13556
原则的	-13557
可能给	-13558
合理地	-13559
否决了	-13560
和埃及	-13561
在巴黎	-13562
在短期	-13563
大约为	-13564
大问题	-13565
奢侈品	-13566
宣布将	-13567
家可归	-13568
对国际	-13569
将再次	-13570
就足以	-13571
年中国	-13572
年实现	-13573
年收入	-13574
延伸到	-13575
当美国	-13576
很难说	-13577
怀疑派	-13578
恐惧和	-13579
恢复到	-13580
承认了	-13581
投入了	-13582
持续性	-13583
接受过	-13584
提名人	-13585
政策是	-13586
是否是	-13587
是这一	-13588
更安全	-13589
更糟糕	-13590
最紧迫	-13591
正处在	-13592
沃尔克	-13593
消费品	-13594
灾难的	-13595
的一代	-13596
的人力	-13597
的传播	-13598
的减少	-13599
的分裂	-13600
的外国	-13601
的对策	-13602
的演讲	-13603
的相关	-13604
的著作	-13605
的评估	-13606
真实的	-13607
第三方	-13608
能够将	-13609
该条约	-13610
谢里夫	-13611
贝鲁特	-13612
起源于	-13613
过高的	-13614
还不是	-13615
进入到	-13616
远大于	-13617
风险是	-13618
驱动力	-13619
1500	-13620
60%。	-13621
ISIS	-13622
▁7%。	-13623
▁中国在	-13624
▁失业率	-13625
▁很显然	-13626
▁民主党	-13627
不是为了	-13628
不满情绪	-13629
也受到了	-13630
二十年中	-13631
债务减免	-13632
健康保险	-13633
公开市场	-13634
其中之一	-13635
其中许多	-13636
几个月来	-13637
单枪匹马	-13638
单边主义	-13639
卡尔德隆	-13640
卡尔扎伊	-13641
发展计划	-13642
受害者的	-13643
基因工程	-13644
奥尔默特	-13645
实现目标	-13646
必须接受	-13647
所未有的	-13648
把自己的	-13649
挥之不去	-13650
提供援助	-13651
收入增长	-13652
昂山素季	-13653
是另一个	-13654
是否定的	-13655
普通公民	-13656
暴力活动	-13657
正在快速	-13658
正面临着	-13659
汉密尔顿	-13660
清算银行	-13661
的一体化	-13662
的目的是	-13663
真实利率	-13664
社会责任	-13665
私人企业	-13666
税收优惠	-13667
能够得到	-13668
蒙受损失	-13669
说服力的	-13670
贸易盈余	-13671
资本外流	-13672
资本重组	-13673
都不可能	-13674
骇人听闻	-13675
▁也就是说	-13676
不平等状况	-13677
不平等现象	-13678
人民币升值	-13679
传染性疾病	-13680
在发达国家	-13681
引人注目的	-13682
房地产价格	-13683
所有国家都	-13684
捷克共和国	-13685
特别是那些	-13686
由此产生的	-13687
的研究表明	-13688
这个问题的	-13689
Joseph	-13690
国际货币体系	-13691
巴黎气候协定	-13692
带来了巨大的	-13693
经常账户盈余	-13694
解释了为什么	-13695
ecurity	-13696
▁Council	-13697
▁美国总统奥巴马	-13698
马斯特里赫特条约	-13699
"。	-13700
ND	-13701
ax	-13702
eg	-13703
▁̃	-13704
▁四	-13705
不一	-13706
不尽	-13707
严酷	-13708
举债	-13709
之所	-13710
争吵	-13711
五月	-13712
亲属	-13713
令我	-13714
会令	-13715
低点	-13716
你会	-13717
公斤	-13718
六方	-13719
兴旺	-13720
冲绳	-13721
劝说	-13722
半个	-13723
占有	-13724
即可	-13725
参谋	-13726
启示	-13727
坐等	-13728
声望	-13729
多家	-13730
寥寥	-13731
差额	-13732
市盈	-13733
年为	-13734
底线	-13735
弱小	-13736
怒火	-13737
悄悄	-13738
想一	-13739
我是	-13740
房地	-13741
所料	-13742
手可	-13743
扰乱	-13744
把他	-13745
拟议	-13746
拥抱	-13747
撤回	-13748
效忠	-13749
文盲	-13750
无尽	-13751
明博	-13752
每人	-13753
水准	-13754
法令	-13755
法兰	-13756
猖獗	-13757
的同	-13758
的阿	-13759
监察	-13760
种群	-13761
空洞	-13762
精明	-13763
罗毕	-13764
老化	-13765
者所	-13766
肆无	-13767
舒适	-13768
船只	-13769
诺贝	-13770
通知	-13771
错失	-13772
陈词	-13773
随心	-13774
马哈	-13775
130	-13776
45%	-13777
CCS	-13778
GCC	-13779
ICT	-13780
NGO	-13781
icy	-13782
ure	-13783
▁Ab	-13784
▁之后	-13785
▁反之	-13786
▁战争	-13787
▁据说	-13788
一个有	-13789
不动产	-13790
不包括	-13791
世界观	-13792
个人和	-13793
中指出	-13794
中的一	-13795
为人知	-13796
了一倍	-13797
了解到	-13798
人来说	-13799
以应对	-13800
以维持	-13801
全欧洲	-13802
其影响	-13803
军队和	-13804
准确地	-13805
加拉瓜	-13806
危机时	-13807
反移民	-13808
发出的	-13809
只能让	-13810
可以使	-13811
可以和	-13812
和法律	-13813
圣诞节	-13814
好莱坞	-13815
官员的	-13816
对任何	-13817
对国内	-13818
对环境	-13819
市场化	-13820
年以后	-13821
并试图	-13822
必须的	-13823
承诺将	-13824
敌人的	-13825
数十亿	-13826
是怎样	-13827
是这样	-13828
暂时性	-13829
最脆弱	-13830
有效性	-13831
本人的	-13832
李明博	-13833
核裁军	-13834
病人的	-13835
的人员	-13836
的境地	-13837
的复杂	-13838
的希腊	-13839
的最终	-13840
目睹了	-13841
石油的	-13842
网络的	-13843
聚焦于	-13844
被发现	-13845
观察到	-13846
解释是	-13847
贸易战	-13848
资产和	-13849
近一半	-13850
这一新	-13851
集中的	-13852
饥饿和	-13853
马利基	-13854
▁con	-13855
▁他认为	-13856
▁但事实	-13857
▁但许多	-13858
▁委员会	-13859
▁理论上	-13860
▁这不仅	-13861
▁这也许	-13862
▁这是个	-13863
一点都不	-13864
与土耳其	-13865
世界主要	-13866
严重威胁	-13867
二十年前	-13868
亚历山大	-13869
仅仅因为	-13870
从长期看	-13871
但是他们	-13872
公众支持	-13873
公平贸易	-13874
关系密切	-13875
军事打击	-13876
利益冲突	-13877
可能认为	-13878
团结一致	-13879
在选举中	-13880
对叙利亚	-13881
对土耳其	-13882
将会继续	-13883
将在今年	-13884
尼加拉瓜	-13885
建立新的	-13886
政治精英	-13887
民间社会	-13888
沙文主义	-13889
的一点是	-13890
的欧元区	-13891
经济崩溃	-13892
美国国家	-13893
肆无忌惮	-13894
角度来看	-13895
解决方法	-13896
足够多的	-13897
这一情况	-13898
重新开始	-13899
重新获得	-13900
金融时报	-13901
银行监管	-13902
银行贷款	-13903
随心所欲	-13904
需要采取	-13905
ocial	-13906
▁2002	-13907
▁但特朗普	-13908
▁此外还有	-13909
▁澳大利亚	-13910
▁许多国家	-13911
不可或缺的	-13912
亿美元用于	-13913
保护主义的	-13914
基础设施的	-13915
已经失去了	-13916
沃尔福威茨	-13917
贸易自由化	-13918
资本市场的	-13919
近几十年来	-13920
令人印象深刻	-13921
使用化学武器	-13922
全球经济增长	-13923
斯堪的纳维亚	-13924
证明了这一点	-13925
货币市场基金	-13926
首席经济学家	-13927
▁Summers	-13928
国际货币基金组织的	-13929
▁Partnership	-13930
1⁄	-13931
CS	-13932
▁乍	-13933
▁哈	-13934
▁所	-13935
一书	-13936
一篇	-13937
一组	-13938
上看	-13939
不移	-13940
丢掉	-13941
两周	-13942
中也	-13943
会以	-13944
伦斯	-13945
内尔	-13946
分解	-13947
分量	-13948
切尼	-13949
制品	-13950
加盟	-13951
劳力	-13952
匆忙	-13953
厌倦	-13954
取悦	-13955
固执	-13956
地质	-13957
基尼	-13958
墨尔	-13959
声势	-13960
大厦	-13961
它来	-13962
室内	-13963
少量	-13964
尔班	-13965
引进	-13966
总能	-13967
才华	-13968
投降	-13969
暗淡	-13970
更早	-13971
杉矶	-13972
极易	-13973
果实	-13974
欧安	-13975
民权	-13976
水面	-13977
汇聚	-13978
沙皇	-13979
注射	-13980
满了	-13981
爱沙	-13982
物资	-13983
狭窄	-13984
现已	-13985
皇家	-13986
相连	-13987
碳化	-13988
离心	-13989
穆特	-13990
缺位	-13991
美俄	-13992
耶鲁	-13993
胜于	-13994
自问	-13995
莫桑	-13996
菲尔	-13997
蛊惑	-13998
调动	-13999
赞誉	-14000
越好	-14001
较弱	-14002
运送	-14003
避风	-14004
降雨	-14005
限额	-14006
雅克	-14007
频道	-14008
首任	-14009
/11	-14010
12%	-14011
Jer	-14012
age	-14013
ari	-14014
enn	-14015
ome	-14016
ump	-14017
▁Th	-14018
▁le	-14019
▁与其	-14020
▁在他	-14021
▁外国	-14022
▁它的	-14023
▁家庭	-14024
▁超过	-14025
一书中	-14026
上涨了	-14027
不但是	-14028
两者的	-14029
也更加	-14030
了一位	-14031
以每年	-14032
会引起	-14033
其长期	-14034
则认为	-14035
利率和	-14036
和也门	-14037
和执行	-14038
和改善	-14039
在其中	-14040
地支持	-14041
墨尔本	-14042
对朝鲜	-14043
将不再	-14044
将大大	-14045
就显得	-14046
尽管有	-14047
左右的	-14048
已故的	-14049
并实施	-14050
开放和	-14051
归结为	-14052
微生物	-14053
我相信	-14054
所引发	-14055
推高了	-14056
提到的	-14057
方设法	-14058
明年的	-14059
极端的	-14060
桑托斯	-14061
欧尔班	-14062
比如说	-14063
洛杉矶	-14064
然而然	-14065
的信仰	-14066
的干预	-14067
的快速	-14068
的指控	-14069
的普遍	-14070
的短期	-14071
的繁荣	-14072
的联邦	-14073
的象征	-14074
的转型	-14075
的重点	-14076
研究和	-14077
确实是	-14078
而他们	-14079
而欧盟	-14080
能说明	-14081
至今仍	-14082
萨诸塞	-14083
要么是	-14084
让这些	-14085
该区域	-14086
贫困率	-14087
走上了	-14088
这需要	-14089
进程中	-14090
都是由	-14091
阿布哈	-14092
降到了	-14093
高油价	-14094
2500	-14095
40%,	-14096
FARC	-14097
roup	-14098
▁2%。	-14099
▁互联网	-14100
▁他们在	-14101
▁但上述	-14102
▁只有当	-14103
▁很多人	-14104
▁这两种	-14105
▁这可能	-14106
一直处于	-14107
一直没有	-14108
不断恶化	-14109
不是因为	-14110
严重问题	-14111
中美两国	-14112
他的政府	-14113
令人满意	-14114
债务问题	-14115
切尔诺贝	-14116
创纪录的	-14117
刺激增长	-14118
十分有限	-14119
和乌克兰	-14120
和平谈判	-14121
在美国的	-14122
增长率为	-14123
如出一辙	-14124
平衡预算	-14125
心理学家	-14126
怀疑论者	-14127
急剧下降	-14128
投资者们	-14129
持续增长	-14130
整个国家	-14131
更倾向于	-14132
最后一次	-14133
没有哪个	-14134
爱沙尼亚	-14135
理由认为	-14136
电子邮件	-14137
的第二个	-14138
积极参与	-14139
维和部队	-14140
能够带来	-14141
莫桑比克	-14142
萨尔瓦多	-14143
表面上看	-14144
财政扩张	-14145
转移到了	-14146
金融抑制	-14147
非法移民	-14148
麻省理工	-14149
ution	-14150
—2012	-14151
▁各国政府	-14152
▁哥本哈根	-14153
▁根据这一	-14154
▁绝大多数	-14155
▁这些都是	-14156
一定程度的	-14157
中国的崛起	-14158
之间的差异	-14159
众所周知的	-14160
总理默克尔	-14161
持不同政见	-14162
提供更多的	-14163
生活水平的	-14164
的原因之一	-14165
的社会保障	-14166
社会安全网	-14167
表现出来的	-14168
还有待观察	-14169
马克思主义	-14170
ations	-14171
▁但不幸的是	-14172
全球金融体系	-14173
拉姆斯菲尔德	-14174
解决这个问题	-14175
▁在这样的环境下	-14176
亚洲基础设施投资银行	-14177
,8	-14178
▁按	-14179
▁曾	-14180
一人	-14181
丽莎	-14182
乃是	-14183
也给	-14184
乡村	-14185
付款	-14186
保有	-14187
光荣	-14188
兴盛	-14189
内陆	-14190
决非	-14191
分娩	-14192
办事	-14193
化身	-14194
单个	-14195
另类	-14196
可控	-14197
各有	-14198
国与	-14199
国库	-14200
圣经	-14201
场景	-14202
坦白	-14203
堡垒	-14204
大局	-14205
大打	-14206
夭折	-14207
失利	-14208
如下	-14209
将有	-14210
少于	-14211
尽头	-14212
届时	-14213
巨人	-14214
年起	-14215
并存	-14216
并能	-14217
开设	-14218
录像	-14219
怀孕	-14220
怀有	-14221
惨败	-14222
手下	-14223
护士	-14224
护照	-14225
拖欠	-14226
接班	-14227
控股	-14228
推崇	-14229
摒弃	-14230
摧残	-14231
收费	-14232
整顿	-14233
斯顿	-14234
旗号	-14235
是的	-14236
暴君	-14237
本该	-14238
构筑	-14239
概括	-14240
法郎	-14241
涌向	-14242
滞后	-14243
电报	-14244
的头	-14245
科特	-14246
穆勒	-14247
第六	-14248
签字	-14249
纸币	-14250
细致	-14251
而无	-14252
耶克	-14253
色情	-14254
蓝领	-14255
诺斯	-14256
跟上	-14257
跟随	-14258
车辆	-14259
迁往	-14260
运河	-14261
追逐	-14262
错觉	-14263
雅图	-14264
领地	-14265
领衔	-14266
餐厅	-14267
马琳	-14268
高潮	-14269
17%	-14270
ECB	-14271
WTO	-14272
ney	-14273
yan	-14274
▁东盟	-14275
▁二战	-14276
▁尤其	-14277
▁改变	-14278
▁而对	-14279
▁近期	-14280
▁降低	-14281
一切都	-14282
世纪末	-14283
为实现	-14284
乌里韦	-14285
了不起	-14286
享受着	-14287
仅有的	-14288
仍没有	-14289
从中国	-14290
他人的	-14291
以解决	-14292
但对于	-14293
使它们	-14294
信用卡	-14295
党派的	-14296
内罗毕	-14297
前提是	-14298
南奥塞	-14299
却未能	-14300
参加了	-14301
发动机	-14302
古老的	-14303
向公众	-14304
和城市	-14305
和越南	-14306
和道德	-14307
因此在	-14308
国家间	-14309
大约有	-14310
奇怪的	-14311
完整的	-14312
对外国	-14313
导致其	-14314
就会被	-14315
尼古拉	-14316
屈从于	-14317
强化的	-14318
我们从	-14319
我们还	-14320
或者在	-14321
扩展到	-14322
投机者	-14323
捍卫者	-14324
放弃其	-14325
普通的	-14326
更严重	-14327
有一半	-14328
比任何	-14329
深深地	-14330
爆发后	-14331
特里谢	-14332
理论家	-14333
生存的	-14334
的义务	-14335
的借口	-14336
的债券	-14337
的农民	-14338
的回报	-14339
的实施	-14340
的收益	-14341
的福利	-14342
米尔顿	-14343
组成了	-14344
绝不能	-14345
而得到	-14346
而政府	-14347
联系的	-14348
自主权	-14349
走到了	-14350
这一步	-14351
这三个	-14352
这件事	-14353
退出的	-14354
遇到了	-14355
避风港	-14356
阿勒颇	-14357
革命性	-14358
领袖们	-14359
领袖的	-14360
15%,	-14361
1974	-14362
Jean	-14363
tain	-14364
▁8%。	-14365
▁再加上	-14366
▁反过来	-14367
▁当时的	-14368
▁肯尼亚	-14369
▁莫斯科	-14370
一个更加	-14371
一个问题	-14372
一致同意	-14373
为什么要	-14374
人们可以	-14375
保持稳定	-14376
共同市场	-14377
再次发生	-14378
几个月前	-14379
包括那些	-14380
医疗补助	-14381
博科圣地	-14382
和联合国	-14383
坚持要求	-14384
实现经济	-14385
密切关注	-14386
工作机会	-14387
已经结束	-14388
帮助他们	-14389
很可能是	-14390
快速发展	-14391
想方设法	-14392
意识到了	-14393
成为美国	-14394
战略利益	-14395
所有问题	-14396
换句话说	-14397
摩根大通	-14398
政治学家	-14399
数十年来	-14400
无家可归	-14401
无法接受	-14402
有所帮助	-14403
有所改善	-14404
本身就是	-14405
来说都是	-14406
正在成为	-14407
激励机制	-14408
生产率和	-14409
的不信任	-14410
的反对者	-14411
的领导者	-14412
相互作用	-14413
石油出口	-14414
研究显示	-14415
管理不善	-14416
自然而然	-14417
英国经济	-14418
该委员会	-14419
边际税率	-14420
这些数据	-14421
这种现象	-14422
金融公司	-14423
难以为继	-14424
风险资本	-14425
onald	-14426
▁Fund	-14427
▁我们现在	-14428
▁遗憾的是	-14429
之间的分歧	-14430
从而进一步	-14431
伊斯兰世界	-14432
创造了一个	-14433
劳动力大军	-14434
发生了变化	-14435
可持续增长	-14436
和委内瑞拉	-14437
指出的那样	-14438
数万亿美元	-14439
新兴国家的	-14440
由此带来的	-14441
的国家安全	-14442
的经济状况	-14443
中等收入国家	-14444
今年早些时候	-14445
全球经济危机	-14446
很长一段时间	-14447
100,000	-14448
2/	-14449
47	-14450
BA	-14451
BC	-14452
PR	-14453
▁个	-14454
上空	-14455
上调	-14456
下限	-14457
东扩	-14458
东非	-14459
丝毫	-14460
丢失	-14461
两院	-14462
严苛	-14463
丰厚	-14464
主人	-14465
之嫌	-14466
也没	-14467
事的	-14468
互补	-14469
亲自	-14470
他就	-14471
以求	-14472
倾销	-14473
单身	-14474
古代	-14475
周刊	-14476
咄咄	-14477
回家	-14478
回落	-14479
外衣	-14480
够了	-14481
天生	-14482
奴役	-14483
好奇	-14484
孤独	-14485
它还	-14486
定罪	-14487
寨卡	-14488
尔森	-14489
屈辱	-14490
广为	-14491
广袤	-14492
废物	-14493
患病	-14494
惨痛	-14495
感知	-14496
所属	-14497
所持	-14498
担当	-14499
接壤	-14500
措辞	-14501
撒谎	-14502
支援	-14503
收容	-14504
施行	-14505
是件	-14506
有罪	-14507
板上	-14508
档案	-14509
橄榄	-14510
死的	-14511
毁坏	-14512
每位	-14513
然大	-14514
犀牛	-14515
电气	-14516
的书	-14517
直言	-14518
相容	-14519
约合	-14520
约国	-14521
终将	-14522
维度	-14523
航天	-14524
苏尔	-14525
苛刻	-14526
表象	-14527
订立	-14528
谅解	-14529
赖于	-14530
跌幅	-14531
躲避	-14532
适度	-14533
递交	-14534
都已	-14535
铁幕	-14536
防火	-14537
高价	-14538
110	-14539
12.	-14540
Moh	-14541
ase	-14542
ier	-14543
ise	-14544
lam	-14545
lin	-14546
▁21	-14547
▁Ad	-14548
▁上周	-14549
▁东亚	-14550
▁可能	-14551
▁扩大	-14552
▁技术	-14553
▁曾经	-14554
一次性	-14555
三中全	-14556
不会被	-14557
不具有	-14558
中只有	-14559
中找到	-14560
也不应	-14561
也变得	-14562
也未能	-14563
也确实	-14564
了他们	-14565
从一个	-14566
他已经	-14567
会受到	-14568
但最终	-14569
使美国	-14570
做的事	-14571
入学率	-14572
动荡的	-14573
卡特尔	-14574
受到的	-14575
和维持	-14576
回答说	-14577
围绕着	-14578
在伦敦	-14579
在这种	-14580
多数派	-14581
它能够	-14582
完成的	-14583
宪法的	-14584
富人的	-14585
对这个	-14586
将得到	-14587
峰会的	-14588
市盈率	-14589
并减少	-14590
开发和	-14591
必须从	-14592
总额的	-14593
成熟的	-14594
所发生	-14595
承诺在	-14596
掌握着	-14597
收到了	-14598
放大了	-14599
方方面	-14600
是值得	-14601
更像是	-14602
最近对	-14603
月开始	-14604
权力和	-14605
来管理	-14606
正在被	-14607
残酷的	-14608
每个月	-14609
比过去	-14610
水平上	-14611
波兰人	-14612
独立党	-14613
甚至还	-14614
的一篇	-14615
的农业	-14616
的性质	-14617
的朝鲜	-14618
经济区	-14619
给自己	-14620
给那些	-14621
翻一番	-14622
而遭受	-14623
联合会	-14624
行为和	-14625
表现在	-14626
规定了	-14627
该报告	-14628
调查局	-14629
赋予了	-14630
过渡期	-14631
这句话	-14632
部门和	-14633
随时间	-14634
霍梅尼	-14635
高昂的	-14636
高通胀	-14637
1988	-14638
Mark	-14639
ront	-14640
tive	-14641
▁TPP	-14642
▁但人们	-14643
▁在经济	-14644
▁对美国	-14645
▁最新的	-14646
中国需要	-14647
也得到了	-14648
令人瞩目	-14649
以及欧洲	-14650
住房价格	-14651
公众舆论	-14652
公共利益	-14653
共同努力	-14654
关注的是	-14655
关键因素	-14656
军事基地	-14657
及其盟友	-14658
可以继续	-14659
可能引起	-14660
合作关系	-14661
土耳其人	-14662
在乌克兰	-14663
大幅上升	-14664
大有裨益	-14665
尽可能地	-14666
德国经济	-14667
德国联邦	-14668
所引起的	-14669
所持有的	-14670
投资不足	-14671
提供更多	-14672
提供服务	-14673
政治力量	-14674
政治权力	-14675
整体经济	-14676
斯蒂格尔	-14677
是不可能	-14678
更为重要	-14679
有所改变	-14680
橙色革命	-14681
生产成本	-14682
的联合国	-14683
结构调整	-14684
继续存在	-14685
苦苦挣扎	-14686
要归功于	-14687
赢得选举	-14688
这一战略	-14689
这一状况	-14690
重新统一	-14691
阿卜杜勒	-14692
阿布哈兹	-14693
风险管理	-14694
4,000	-14695
—2011	-14696
▁1979	-14697
▁作为一个	-14698
▁对于那些	-14699
▁尼日利亚	-14700
世界各国的	-14701
其他地区的	-14702
出人意料地	-14703
取得了成功	-14704
和其他许多	-14705
在巴勒斯坦	-14706
并不是一个	-14707
欧盟和美国	-14708
的生活方式	-14709
自由主义者	-14710
越来越难以	-14711
这样的情况	-14712
马歇尔计划	-14713
▁越来越多的	-14714
和其他国家的	-14715
在过去十年中	-14716
民族主义情绪	-14717
▁同样重要的是	-14718
美国总统特朗普	-14719
跨大西洋贸易和投资伙伴关系	-14720
,3	-14721
CT	-14722
SC	-14723
ek	-14724
▁́	-14725
▁照	-14726
▁给	-14727
下注	-14728
不放	-14729
不远	-14730
之苦	-14731
事宜	-14732
付钱	-14733
何况	-14734
儒家	-14735
光耀	-14736
兜售	-14737
公告	-14738
公顷	-14739
养殖	-14740
内涵	-14741
刑法	-14742
初创	-14743
匿名	-14744
却又	-14745
反之	-14746
后尘	-14747
向往	-14748
听说	-14749
基什	-14750
夏季	-14751
契合	-14752
存储	-14753
对俄	-14754
寻租	-14755
尔逊	-14756
年一	-14757
并于	-14758
排挤	-14759
推论	-14760
提炼	-14761
收场	-14762
断然	-14763
斯洛	-14764
无几	-14765
有钱	-14766
村民	-14767
格格	-14768
流的	-14769
浓度	-14770
涨幅	-14771
渔民	-14772
狼藉	-14773
珍视	-14774
矿业	-14775
矿物	-14776
研制	-14777
碳氢	-14778
称作	-14779
窒息	-14780
立陶	-14781
算计	-14782
索瓦	-14783
线上	-14784
而当	-14785
肉类	-14786
腹泻	-14787
舍尔	-14788
被占	-14789
识字	-14790
财力	-14791
贩卖	-14792
身陷	-14793
迪克	-14794
邦的	-14795
钻井	-14796
面包	-14797
韧性	-14798
驯服	-14799
10—	-14800
1⁄2	-14801
Pro	-14802
ust	-14803
▁30	-14804
▁·&	-14805
▁一份	-14806
▁但该	-14807
▁军事	-14808
▁同理	-14809
▁希望	-14810
▁本周	-14811
▁第五	-14812
▁议会	-14813
一直都	-14814
一致性	-14815
与经济	-14816
两年内	-14817
中发挥	-14818
为这一	-14819
之又少	-14820
之处是	-14821
也相当	-14822
于美国	-14823
亚图拉	-14824
仍有待	-14825
他本人	-14826
会如何	-14827
会影响	-14828
供给端	-14829
利用了	-14830
前首相	-14831
占据着	-14832
又一场	-14833
古兰经	-14834
后危机	-14835
向我们	-14836
和增加	-14837
和媒体	-14838
和资源	-14839
在当前	-14840
在这场	-14841
奠定了	-14842
安全性	-14843
对许多	-14844
将会被	-14845
将更加	-14846
将欧洲	-14847
将被迫	-14848
尤科斯	-14849
已经为	-14850
巴拿马	-14851
席之地	-14852
并增加	-14853
应当是	-14854
当其冲	-14855
必须由	-14856
必须让	-14857
想象力	-14858
所遭受	-14859
承受着	-14860
投机性	-14861
指的是	-14862
推动的	-14863
支付的	-14864
是那些	-14865
李光耀	-14866
来看待	-14867
法基斯	-14868
活力和	-14869
清晰地	-14870
疫苗的	-14871
的一方	-14872
的两倍	-14873
的主张	-14874
的准备	-14875
的崩溃	-14876
的汇率	-14877
的生存	-14878
的这一	-14879
的首要	-14880
稳定与	-14881
穷人和	-14882
突破性	-14883
签署国	-14884
米洛舍	-14885
给中国	-14886
给出的	-14887
维持其	-14888
维持着	-14889
罕见的	-14890
臂之力	-14891
萨利赫	-14892
袭击了	-14893
让市场	-14894
该政策	-14895
释放出	-14896
需要有	-14897
高利率	-14898
8000	-14899
Uber	-14900
berg	-14901
▁1%,	-14902
▁但他的	-14903
▁只有在	-14904
▁在他们	-14905
▁在某些	-14906
▁很明显	-14907
▁我希望	-14908
▁接下来	-14909
不仅没有	-14910
与欧盟的	-14911
中国官员	-14912
人的生活	-14913
人类活动	-14914
从中获益	-14915
从未有过	-14916
从本质上	-14917
他们能够	-14918
他们需要	-14919
公司治理	-14920
六十年代	-14921
其他许多	-14922
包容性的	-14923
历史记录	-14924
因为政府	-14925
国际体系	-14926
在墨西哥	-14927
地理位置	-14928
坚定不移	-14929
基本原则	-14930
外部需求	-14931
如何处理	-14932
季莫申科	-14933
少之又少	-14934
工作的人	-14935
并不容易	-14936
愿意接受	-14937
担任总理	-14938
提振增长	-14939
政府开支	-14940
整个经济	-14941
无法得到	-14942
最有效的	-14943
构成威胁	-14944
核心问题	-14945
格格不入	-14946
毁灭性的	-14947
毫不犹豫	-14948
深度衰退	-14949
漠不关心	-14950
生产效率	-14951
目前已经	-14952
直接影响	-14953
确实如此	-14954
纳米比亚	-14955
葛兰运动	-14956
要求他们	-14957
贸易平衡	-14958
通胀压力	-14959
重要问题	-14960
金融产品	-14961
阿富汗和	-14962
革命性的	-14963
预算盈余	-14964
首当其冲	-14965
马萨诸塞	-14966
—2010	-14967
▁1998	-14968
▁Bern	-14969
▁为了避免	-14970
▁哥伦比亚	-14971
▁在过去的	-14972
▁拉丁美洲	-14973
▁美国经济	-14974
严重的问题	-14975
低收入家庭	-14976
华盛顿特区	-14977
后共产主义	-14978
实实在在的	-14979
毫无意义的	-14980
海平面上升	-14981
的一个主要	-14982
的经济改革	-14983
自由主义的	-14984
ichard	-14985
▁这就是为何	-14986
中低收入国家	-14987
凯恩斯主义者	-14988
可预见的未来	-14989
在这个问题上	-14990
很长的路要走	-14991
诺贝尔奖得主	-14992
逊尼派和什叶派	-14993
vestment	-14994
▁在这样的情况下	-14995
巴勒斯坦权力机构	-14996
▁International	-14997
HP	-14998
ww	-14999
—“	-15000
▁二	-15001
▁梅	-15002
▁跟	-15003
一生	-15004
上层	-15005
乌兹	-15006
五国	-15007
人手	-15008
从其	-15009
任意	-15010
低价	-15011
充裕	-15012
先生	-15013
克拉	-15014
几项	-15015
列举	-15016
别国	-15017
刺杀	-15018
单单	-15019
印证	-15020
厄运	-15021
原谅	-15022
哥拉	-15023
囚禁	-15024
在最	-15025
多国	-15026
大到	-15027
媒介	-15028
季节	-15029
孤儿	-15030
安纳	-15031
定为	-15032
定于	-15033
定论	-15034
对华	-15035
小农	-15036
尔尼	-15037
尚早	-15038
层级	-15039
已成	-15040
带到	-15041
年才	-15042
当我	-15043
心里	-15044
我国	-15045
所受	-15046
执掌	-15047
抗衡	-15048
拉宾	-15049
指南	-15050
攸关	-15051
敌视	-15052
文献	-15053
新来	-15054
施以	-15055
早先	-15056
是用	-15057
机密	-15058
杜绝	-15059
来做	-15060
某人	-15061
梵蒂	-15062
欣赏	-15063
歪曲	-15064
消防	-15065
炫耀	-15066
疼痛	-15067
的长	-15068
管治	-15069
紧紧	-15070
联络	-15071
肥料	-15072
胜过	-15073
能与	-15074
能对	-15075
自决	-15076
自足	-15077
贯穿	-15078
越高	-15079
路口	-15080
过大	-15081
错综	-15082
错配	-15083
闲置	-15084
震荡	-15085
饲养	-15086
13%	-15087
8%,	-15088
ore	-15089
▁Ar	-15090
▁Kr	-15091
▁Mc	-15092
▁保护	-15093
▁应对	-15094
▁牛津	-15095
▁这让	-15096
▁选举	-15097
▁难道	-15098
下一步	-15099
不及待	-15100
不可行	-15101
与英国	-15102
专业化	-15103
中所占	-15104
乌兹别	-15105
了一致	-15106
了全球	-15107
了很多	-15108
今后的	-15109
以保证	-15110
但许多	-15111
俄国人	-15112
全人类	-15113
全国性	-15114
公信力	-15115
其他的	-15116
准备着	-15117
分裂为	-15118
制造出	-15119
北约的	-15120
压力下	-15121
反对票	-15122
只有当	-15123
吸引着	-15124
和公民	-15125
和外交	-15126
和失业	-15127
圣保罗	-15128
在面临	-15129
地指出	-15130
大气中	-15131
妇女的	-15132
将减少	-15133
尼日尔	-15134
并允许	-15135
并非是	-15136
并鼓励	-15137
应该把	-15138
徘徊在	-15139
想要的	-15140
愚蠢的	-15141
所要求	-15142
承包商	-15143
支持其	-15144
改革者	-15145
政策上	-15146
新生儿	-15147
普什图	-15148
最令人	-15149
机会的	-15150
梵蒂冈	-15151
欧元和	-15152
正在为	-15153
由国家	-15154
的动力	-15155
的另一	-15156
的各种	-15157
的媒体	-15158
的官方	-15159
的对外	-15160
的开始	-15161
的投票	-15162
的榜样	-15163
的治疗	-15164
的种族	-15165
的竞选	-15166
的访问	-15167
相当长	-15168
相形见	-15169
研究院	-15170
立陶宛	-15171
竞争中	-15172
系统和	-15173
而我们	-15174
被告知	-15175
被看作	-15176
认为它	-15177
该协定	-15178
进口品	-15179
连通性	-15180
部长们	-15181
限制的	-15182
预料到	-15183
1969	-15184
1984	-15185
6000	-15186
ange	-15187
anke	-15188
emoc	-15189
ject	-15190
land	-15191
▁4%。	-15192
▁The	-15193
▁今年的	-15194
▁匈牙利	-15195
▁无论是	-15196
▁突尼斯	-15197
▁美国和	-15198
上述目标	-15199
不可否认	-15200
不同国家	-15201
不断加剧	-15202
世界最大	-15203
六方会谈	-15204
养老基金	-15205
军事冲突	-15206
分离主义	-15207
加入其中	-15208
参与其中	-15209
和共和党	-15210
国家经济	-15211
国际关系	-15212
在利比亚	-15213
外部冲击	-15214
对乌克兰	-15215
导致美国	-15216
将他们的	-15217
就业增长	-15218
尼古拉斯	-15219
市场上的	-15220
市场价格	-15221
年代早期	-15222
必须成为	-15223
总统宝座	-15224
截然相反	-15225
支持这一	-15226
新领导人	-15227
无法确定	-15228
更是如此	-15229
权宜之计	-15230
正在改变	-15231
段时间内	-15232
沙特王国	-15233
浮动汇率	-15234
生机勃勃	-15235
的失业率	-15236
的欧洲人	-15237
的进一步	-15238
社会动荡	-15239
私人债务	-15240
统治下的	-15241
而产生的	-15242
航空公司	-15243
要大得多	-15244
认真考虑	-15245
还有许多	-15246
这些项目	-15247
迫不及待	-15248
都能获得	-15249
金融工具	-15250
高失业率	-15251
6,000	-15252
ilton	-15253
▁特别是在	-15254
世界银行和	-15255
也不太可能	-15256
仍然是一个	-15257
出口导向型	-15258
切尔诺贝利	-15259
发生了什么	-15260
周年纪念日	-15261
和欧洲央行	-15262
奥巴马医保	-15263
委员会成员	-15264
很好的例子	-15265
成立了一个	-15266
更加可持续	-15267
根本不存在	-15268
欧洲国家的	-15269
独一无二的	-15270
的国家利益	-15271
的国际秩序	-15272
的经济利益	-15273
米洛舍维奇	-15274
系统性风险	-15275
经济的增长	-15276
艰巨的任务	-15277
解释了为何	-15278
达成的协议	-15279
进一步加剧	-15280
面临的挑战	-15281
▁Fried	-15282
▁克里姆林宫	-15283
在全球范围内	-15284
年轻人失业率	-15285
所面临的问题	-15286
欧洲中央银行	-15287
诺贝尔奖获得者	-15288
▁Climate	-15289
中国国家主席习近平	-15290
59	-15291
BS	-15292
Le	-15293
NI	-15294
TM	-15295
▁e	-15296
▁波	-15297
▁皮	-15298
▁达	-15299
一党	-15300
一根	-15301
一波	-15302
三世	-15303
三项	-15304
不停	-15305
不开	-15306
不经	-15307
专长	-15308
之国	-15309
之大	-15310
也令	-15311
五倍	-15312
交接	-15313
代孕	-15314
传输	-15315
俘虏	-15316
先行	-15317
全盘	-15318
兼职	-15319
写入	-15320
决意	-15321
出面	-15322
分销	-15323
刑警	-15324
利他	-15325
前线	-15326
升至	-15327
卓识	-15328
卢布	-15329
又有	-15330
古怪	-15331
吸毒	-15332
和可	-15333
团伙	-15334
地被	-15335
塞内	-15336
大增	-15337
大片	-15338
好战	-15339
安然	-15340
居然	-15341
干净	-15342
幼稚	-15343
弗雷	-15344
微型	-15345
急迫	-15346
意欲	-15347
手册	-15348
才有	-15349
扫地	-15350
扫清	-15351
捉摸	-15352
敏锐	-15353
文字	-15354
斯登	-15355
既定	-15356
朝向	-15357
杰出	-15358
水源	-15359
泛美	-15360
派对	-15361
热爱	-15362
特纳	-15363
直观	-15364
看清	-15365
破碎	-15366
算法	-15367
绿党	-15368
美孚	-15369
聚会	-15370
胜选	-15371
臭氧	-15372
英法	-15373
要多	-15374
警觉	-15375
还多	-15376
这片	-15377
重叠	-15378
问鼎	-15379
队的	-15380
防治	-15381
附属	-15382
领海	-15383
颜色	-15384
,10	-15385
,18	-15386
16%	-15387
CDS	-15388
agh	-15389
eet	-15390
ous	-15391
ren	-15392
yri	-15393
·11	-15394
▁50	-15395
▁Pe	-15396
▁农业	-15397
▁宗教	-15398
▁当年	-15399
▁特别	-15400
▁谈判	-15401
▁首尔	-15402
不如说	-15403
个性化	-15404
之一的	-15405
也希望	-15406
也表明	-15407
他可以	-15408
以满足	-15409
价值和	-15410
伊朗在	-15411
会持续	-15412
克里斯	-15413
再培训	-15414
决策的	-15415
出台了	-15416
出生率	-15417
制造的	-15418
前主席	-15419
加强对	-15420
医疗和	-15421
即便在	-15422
厢情愿	-15423
另一些	-15424
和南非	-15425
和消费	-15426
和财政	-15427
国内和	-15428
国民党	-15429
图书馆	-15430
圣彼得	-15431
圣战者	-15432
在上述	-15433
在解决	-15434
增加值	-15435
大手笔	-15436
姆斯特	-15437
它们都	-15438
安哥拉	-15439
完全的	-15440
实行了	-15441
密特朗	-15442
对印度	-15443
对西方	-15444
将迫使	-15445
小得多	-15446
就成为	-15447
尼赫鲁	-15448
尽管它	-15449
已有的	-15450
平均为	-15451
想一想	-15452
想不到	-15453
意思是	-15454
我们有	-15455
所表明	-15456
抗议者	-15457
拉动型	-15458
掌握在	-15459
推动下	-15460
收益的	-15461
政府还	-15462
斯诺登	-15463
是人类	-15464
是政治	-15465
杠杆率	-15466
条道路	-15467
核安全	-15468
消除了	-15469
理想的	-15470
的公开	-15471
的双重	-15472
的呼声	-15473
的回应	-15474
的宣传	-15475
的就是	-15476
的总体	-15477
的敌人	-15478
着重于	-15479
研究了	-15480
竞选中	-15481
等国的	-15482
签订了	-15483
纽约市	-15484
而增加	-15485
而如果	-15486
至少从	-15487
艺术家	-15488
被禁止	-15489
让许多	-15490
趣的是	-15491
这么多	-15492
透明的	-15493
都具有	-15494
都将是	-15495
非法的	-15496
预期的	-15497
鼓励了	-15498
1944	-15499
1972	-15500
4000	-15501
▁Ind	-15502
▁Pen	-15503
▁Rep	-15504
▁pro	-15505
▁但也有	-15506
▁但今天	-15507
▁尽管在	-15508
▁最大的	-15509
▁有人说	-15510
▁第二种	-15511
▁而对于	-15512
▁而由于	-15513
▁而这种	-15514
▁这导致	-15515
七十年代	-15516
不再需要	-15517
不可侵犯	-15518
严重后果	-15519
中的地位	-15520
也适用于	-15521
二战以来	-15522
产业政策	-15523
仍在继续	-15524
从而实现	-15525
但并没有	-15526
做的事情	-15527
偿债能力	-15528
共同目标	-15529
其他部分	-15530
决定因素	-15531
冷战时期	-15532
冷战结束	-15533
出口增长	-15534
协调一致	-15535
卡钦斯基	-15536
危机前的	-15537
即使是在	-15538
发展战略	-15539
发展模式	-15540
可能破坏	-15541
商业利益	-15542
因为没有	-15543
因果关系	-15544
国际储备	-15545
国际经济	-15546
在欧洲的	-15547
基什内尔	-15548
外部势力	-15549
它们必须	-15550
完全不同	-15551
实现和平	-15552
对欧洲的	-15553
尚不清楚	-15554
工人阶级	-15555
巴以冲突	-15556
平价医疗	-15557
所采取的	-15558
援助资金	-15559
收效甚微	-15560
方方面面	-15561
无法避免	-15562
是世界上	-15563
是美国的	-15564
最近一次	-15565
欧洲工程	-15566
欧盟必须	-15567
消费增长	-15568
环境破坏	-15569
环境问题	-15570
的人民币	-15571
的价值观	-15572
的例子是	-15573
的国家中	-15574
的天然气	-15575
税收政策	-15576
穆斯林的	-15577
经济顾问	-15578
网络攻击	-15579
美国政治	-15580
要求我们	-15581
解释为何	-15582
贸易部门	-15583
这个目标	-15584
这些公司	-15585
远见卓识	-15586
遭到破坏	-15587
银行账户	-15588
阿拉维派	-15589
预算平衡	-15590
食品安全	-15591
,2009	-15592
Frank	-15593
Trans	-15594
▁1992	-15595
▁与此相反	-15596
▁如果这一	-15597
▁这一过程	-15598
▁这一问题	-15599
世界最大的	-15600
二十国集团	-15601
埃克森美孚	-15602
埃博拉病毒	-15603
德国和法国	-15604
快速增长的	-15605
特别是如果	-15606
的社会福利	-15607
碳氢化合物	-15608
究竟是什么	-15609
经济学家的	-15610
迫切需要的	-15611
▁所有这一切	-15612
国务卿希拉里	-15613
欧盟成员国的	-15614
解决这些问题	-15615
Richard	-15616
vention	-15617
▁Americ	-15618
▁Global	-15619
▁Policy	-15620
政府间气候变化	-15621
至关重要的作用	-15622
itiative	-15623
▁具有讽刺意味的是	-15624
诺贝尔经济学奖获得者	-15625
",	-15626
54	-15627
PE	-15628
oy	-15629
▁科	-15630
▁纵	-15631
▁罗	-15632
一线	-15633
上所	-15634
下而	-15635
不丹	-15636
业已	-15637
严密	-15638
中俄	-15639
举步	-15640
争斗	-15641
从不	-15642
他和	-15643
传导	-15644
偏爱	-15645
做过	-15646
储藏	-15647
先科	-15648
先驱	-15649
割裂	-15650
助澜	-15651
单靠	-15652
即在	-15653
参拜	-15654
参观	-15655
发的	-15656
可悲	-15657
喇嘛	-15658
国营	-15659
大行	-15660
如其	-15661
子弹	-15662
字母	-15663
导师	-15664
已知	-15665
布兰	-15666
幼儿	-15667
引力	-15668
引渡	-15669
引爆	-15670
引诱	-15671
得过	-15672
德罗	-15673
急速	-15674
意地	-15675
抗争	-15676
拱手	-15677
推波	-15678
斡旋	-15679
斯尼	-15680
期刊	-15681
木材	-15682
流域	-15683
消化	-15684
温暖	-15685
热浪	-15686
父辈	-15687
狂欢	-15688
独有	-15689
留欧	-15690
疲劳	-15691
的女	-15692
皇帝	-15693
眼看	-15694
知晓	-15695
税法	-15696
给他	-15697
绩效	-15698
肥沃	-15699
能被	-15700
自拔	-15701
荒唐	-15702
蒂亚	-15703
表述	-15704
要点	-15705
贝巴	-15706
贪污	-15707
资质	-15708
赛尔	-15709
赤贫	-15710
赫勒	-15711
起步	-15712
还款	-15713
这块	-15714
逾越	-15715
遵从	-15716
采伐	-15717
量子	-15718
雅尔	-15719
雨林	-15720
颓势	-15721
高调	-15722
麦加	-15723
齐兹	-15724
14%	-15725
140	-15726
act	-15727
ign	-15728
ire	-15729
les	-15730
off	-15731
ver	-15732
”),	-15733
▁什么	-15734
▁媒体	-15735
▁提高	-15736
▁更糟	-15737
▁相对	-15738
▁简单	-15739
▁资本	-15740
不容易	-15741
不自由	-15742
与会者	-15743
两方面	-15744
个月中	-15745
中占据	-15746
之以鼻	-15747
也一样	-15748
也只有	-15749
也很难	-15750
也正是	-15751
也逐渐	-15752
了一篇	-15753
了下来	-15754
交易员	-15755
从前的	-15756
令他们	-15757
以时日	-15758
会削弱	-15759
会破坏	-15760
似乎对	-15761
决定着	-15762
副总理	-15763
双方的	-15764
可能将	-15765
咄咄逼	-15766
和地方	-15767
因为对	-15768
基础是	-15769
塞罗那	-15770
增加对	-15771
复苏的	-15772
多数人	-15773
大错特	-15774
如是说	-15775
妨碍了	-15776
它不会	-15777
官员和	-15778
对一个	-15779
对社会	-15780
将利率	-15781
将持续	-15782
少数人	-15783
工资税	-15784
已经使	-15785
必要时	-15786
惩罚性	-15787
戏剧性	-15788
所隐含	-15789
手段的	-15790
打开了	-15791
把我们	-15792
报告的	-15793
报告说	-15794
排放的	-15795
排除了	-15796
推出的	-15797
政府会	-15798
救世主	-15799
无政府	-15800
有价值	-15801
朋友和	-15802
机会和	-15803
来换取	-15804
来看看	-15805
杰出的	-15806
极低的	-15807
核聚变	-15808
棱两可	-15809
正准备	-15810
每一位	-15811
每一项	-15812
泡沫的	-15813
的区域	-15814
的巨额	-15815
的年度	-15816
的现状	-15817
的相对	-15818
破产法	-15819
科学和	-15820
纪念碑	-15821
美关系	-15822
背负着	-15823
能成为	-15824
萨达特	-15825
行动者	-15826
被美国	-15827
讨论了	-15828
记者的	-15829
该法案	-15830
说到底	-15831
近几年	-15832
这些新	-15833
退休者	-15834
都会被	-15835
集中营	-15836
面前的	-15837
韩国人	-15838
1949	-15839
1978	-15840
25%,	-15841
tice	-15842
▁4%,	-15843
▁Mon	-15844
▁事实是	-15845
▁但日本	-15846
▁但这是	-15847
▁对中国	-15848
▁第一种	-15849
▁这一切	-15850
▁这使得	-15851
万亿欧元	-15852
不堪重负	-15853
与叙利亚	-15854
他自己的	-15855
以及一个	-15856
任何人都	-15857
伊朗的核	-15858
优先事项	-15859
信用评级	-15860
全球化和	-15861
关税壁垒	-15862
其成员国	-15863
劳动者的	-15864
南奥塞梯	-15865
向全世界	-15866
嗤之以鼻	-15867
土地使用	-15868
在中国的	-15869
在土耳其	-15870
基本权利	-15871
大马士革	-15872
如何解决	-15873
安全保障	-15874
密切相关	-15875
已经变得	-15876
应该考虑	-15877
成为一种	-15878
我们可能	-15879
所拥有的	-15880
推波助澜	-15881
无法提供	-15882
暂时性的	-15883
最佳实践	-15884
朝鲜政权	-15885
正在崛起	-15886
民意测验	-15887
治疗方法	-15888
的例子中	-15889
的时间里	-15890
的是一个	-15891
的消费者	-15892
的背景下	-15893
的阿拉伯	-15894
紧缩措施	-15895
经济结构	-15896
经济部门	-15897
维持现状	-15898
网络安全	-15899
美国国内	-15900
美国需要	-15901
而是为了	-15902
自由裁量	-15903
西方世界	-15904
要求政府	-15905
观点认为	-15906
货币扩张	-15907
贸易逆差	-15908
这么一个	-15909
重大变化	-15910
重新建立	-15911
Larry	-15912
overn	-15913
▁中央银行	-15914
▁二十世纪	-15915
▁伊斯兰国	-15916
▁新兴市场	-15917
▁有人认为	-15918
▁有趣的是	-15919
▁这些政策	-15920
不足为奇了	-15921
严峻的挑战	-15922
中东和北非	-15923
可持续性的	-15924
哈佛大学的	-15925
富裕国家的	-15926
已经出现了	-15927
已经成为了	-15928
总统选举中	-15929
新自由主义	-15930
最大限度地	-15931
欧洲和日本	-15932
民族主义和	-15933
法国和荷兰	-15934
的关键因素	-15935
管理委员会	-15936
而与此同时	-15937
两次世界大战	-15938
伊斯兰共和国	-15939
并不令人奇怪	-15940
民粹主义政党	-15941
五大常任理事国	-15942
货币和财政政策	-15943
日本首相安倍晋三	-15944
▁Friedman	-15945
99	-15946
GI	-15947
gy	-15948
ru	-15949
▁又	-15950
▁因	-15951
▁奥	-15952
一刀	-15953
一窥	-15954
三名	-15955
上游	-15956
专政	-15957
东德	-15958
为新	-15959
之声	-15960
之情	-15961
之高	-15962
付费	-15963
代言	-15964
代谢	-15965
以期	-15966
仰仗	-15967
价比	-15968
偏袒	-15969
内心	-15970
创办	-15971
利特	-15972
十六	-15973
去做	-15974
参照	-15975
又被	-15976
双赢	-15977
反感	-15978
国情	-15979
圈子	-15980
地是	-15981
地步	-15982
坏账	-15983
坚称	-15984
坦率	-15985
塔吉	-15986
多余	-15987
大亨	-15988
天鹅	-15989
奋力	-15990
契机	-15991
学到	-15992
家乡	-15993
将向	-15994
尚不	-15995
幻灭	-15996
心怀	-15997
怀旧	-15998
惧怕	-15999
或将	-16000
所占	-16001
所处	-16002
把戏	-16003
担负	-16004
挺身	-16005
救市	-16006
无权	-16007
时宜	-16008
时才	-16009
曼努	-16010
最强	-16011
朝圣	-16012
查理	-16013
次数	-16014
正逢	-16015
求助	-16016
火上	-16017
灭亡	-16018
玩笑	-16019
珍珠	-16020
瓦鲁	-16021
画面	-16022
研讨	-16023
神奇	-16024
窘境	-16025
第七	-16026
给人	-16027
绝佳	-16028
胃口	-16029
脱盟	-16030
脱颖	-16031
艾森	-16032
菲特	-16033
萌芽	-16034
血统	-16035
被指	-16036
让你	-16037
诱人	-16038
走强	-16039
这给	-16040
逝世	-16041
都比	-16042
长大	-16043
防空	-16044
阴暗	-16045
阿赫	-16046
难怪	-16047
非凡	-16048
高地	-16049
鲁兹	-16050
麦当	-16051
III	-16052
fer	-16053
ory	-16054
▁0.	-16055
▁1.	-16056
▁Kh	-16057
▁但有	-16058
▁更有	-16059
▁泰国	-16060
▁约翰	-16061
▁要么	-16062
▁身为	-16063
▁这笔	-16064
一定要	-16065
一直被	-16066
也日益	-16067
也认为	-16068
什维利	-16069
他们还	-16070
以使其	-16071
以阻止	-16072
会选择	-16073
但由于	-16074
低效的	-16075
公开的	-16076
兴奋剂	-16077
农业和	-16078
几年里	-16079
利润的	-16080
包括我	-16081
升高的	-16082
卡梅隆	-16083
即将在	-16084
参谋长	-16085
发起的	-16086
句名言	-16087
可以与	-16088
和人权	-16089
和改革	-16090
和荷兰	-16091
国家对	-16092
在那些	-16093
境内的	-16094
奥斯本	-16095
如此多	-16096
学校和	-16097
学院的	-16098
对民主	-16099
将影响	-16100
局势的	-16101
工业园	-16102
常常会	-16103
必须被	-16104
忘记了	-16105
情况的	-16106
愿意为	-16107
战争后	-16108
所显示	-16109
才能让	-16110
扩大其	-16111
拖累了	-16112
描述的	-16113
放在了	-16114
是出于	-16115
是欧盟	-16116
更喜欢	-16117
有损于	-16118
期间的	-16119
来承担	-16120
核威胁	-16121
根本就	-16122
格利茨	-16123
汽车和	-16124
法兰西	-16125
特殊的	-16126
现阶段	-16127
的利润	-16128
的姿态	-16129
的对抗	-16130
的将来	-16131
的平衡	-16132
的忧虑	-16133
的社区	-16134
的背后	-16135
的衰退	-16136
的阴影	-16137
看成是	-16138
科学界	-16139
称得上	-16140
突然间	-16141
站在了	-16142
第一批	-16143
第四次	-16144
继承人	-16145
美国也	-16146
而其他	-16147
自己是	-16148
艺术品	-16149
衡量的	-16150
被问及	-16151
设计和	-16152
证明其	-16153
话语权	-16154
该项目	-16155
足以让	-16156
这显然	-16157
都希望	-16158
都未能	-16159
霸权的	-16160
驱逐出	-16161
Alan	-16162
ific	-16163
▁-2.	-16164
▁amp	-16165
▁其他人	-16166
▁几年前	-16167
▁在今年	-16168
▁在德国	-16169
▁在整个	-16170
▁在日本	-16171
▁如果要	-16172
▁尽管有	-16173
▁斯坦福	-16174
▁日内瓦	-16175
▁鲁哈尼	-16176
一臂之力	-16177
万美元的	-16178
下降趋势	-16179
不可能在	-16180
世纪以来	-16181
中东国家	-16182
也可能会	-16183
也有一些	-16184
产出增长	-16185
他们无法	-16186
他们没有	-16187
价格下跌	-16188
伊朗政府	-16189
假以时日	-16190
克里斯蒂	-16191
决策者们	-16192
决策者和	-16193
几个星期	-16194
几十年前	-16195
创业企业	-16196
创造条件	-16197
十字路口	-16198
去年夏天	-16199
受过良好	-16200
可以理解	-16201
可以采取	-16202
可能发生	-16203
各式各样	-16204
和葡萄牙	-16205
因为中国	-16206
国家层面	-16207
国际收支	-16208
地区安全	-16209
坚决反对	-16210
多年以来	-16211
大学教授	-16212
官僚主义	-16213
实际工资	-16214
家庭消费	-16215
寿命预期	-16216
将人民币	-16217
将自己的	-16218
尤为重要	-16219
已经非常	-16220
并不仅仅	-16221
必须找到	-16222
必须采取	-16223
感到惊讶	-16224
或者其他	-16225
才能确保	-16226
政治人物	-16227
政治支持	-16228
政治改革	-16229
政治问题	-16230
数字技术	-16231
是可能的	-16232
有所上升	-16233
某种形式	-16234
模棱两可	-16235
欧洲安全	-16236
欧洲必须	-16237
流动性和	-16238
的结构性	-16239
私人消费	-16240
私营企业	-16241
移民政策	-16242
等方面的	-16243
精神疾病	-16244
结果如何	-16245
继续进行	-16246
美国官员	-16247
而导致的	-16248
行动计划	-16249
解决这一	-16250
贝尔斯登	-16251
财政契约	-16252
贸易政策	-16253
这一模式	-16254
重新审视	-16255
陷入混乱	-16256
需要进行	-16257
▁所有人都	-16258
▁更糟的是	-16259
▁这一趋势	-16260
三分之一的	-16261
伊斯兰教的	-16262
全球供应链	-16263
其中大部分	-16264
北约成员国	-16265
华盛顿邮报	-16266
国民收入的	-16267
在过去十年	-16268
在这方面的	-16269
应该认识到	-16270
形成了一个	-16271
我们不应该	-16272
日益严重的	-16273
最贫困国家	-16274
有可能导致	-16275
正确的方向	-16276
瓦鲁法基斯	-16277
留在欧元区	-16278
的最重要的	-16279
经济政策的	-16280
这些问题的	-16281
部分原因是	-16282
雄心勃勃的	-16283
首相卡梅伦	-16284
50,000	-16285
▁这就意味着	-16286
低收入国家的	-16287
和其他地区的	-16288
巴勒斯坦民族	-16289
本月早些时候	-16290
气候变化问题	-16291
美国总统大选	-16292
阿拉伯国家的	-16293
reement	-16294
宽松的货币政策	-16295
▁Bernanke	-16296
▁Security	-16297
):	-16298
▁̈	-16299
▁–	-16300
一丝	-16301
一堂	-16302
不均	-16303
不然	-16304
专员	-16305
乘客	-16306
五角	-16307
人说	-16308
他与	-16309
代议	-16310
传说	-16311
伦堡	-16312
伦比	-16313
住在	-16314
住所	-16315
使人	-16316
侵袭	-16317
先知	-16318
光诚	-16319
其道	-16320
农地	-16321
冬天	-16322
冰盖	-16323
冲销	-16324
决赛	-16325
冷酷	-16326
几家	-16327
凯利	-16328
剂量	-16329
加倍	-16330
助理	-16331
卡车	-16332
印巴	-16333
即时	-16334
受众	-16335
另有	-16336
可达	-16337
名副	-16338
告知	-16339
和以	-16340
和马	-16341
喜剧	-16342
回复	-16343
回想	-16344
国旗	-16345
在任	-16346
在前	-16347
在必	-16348
士气	-16349
声名	-16350
天花	-16351
夺回	-16352
好好	-16353
家中	-16354
寄生	-16355
富于	-16356
已将	-16357
干脆	-16358
年长	-16359
得了	-16360
得知	-16361
忘了	-16362
性格	-16363
截了	-16364
托宾	-16365
拉拉	-16366
拉迪	-16367
指示	-16368
捕鱼	-16369
摄入	-16370
收成	-16371
文本	-16372
斯亚	-16373
旦旦	-16374
时光	-16375
是它	-16376
有个	-16377
未被	-16378
条例	-16379
标榜	-16380
死了	-16381
水泥	-16382
洗钱	-16383
流量	-16384
浇油	-16385
浮出	-16386
特网	-16387
犯有	-16388
玷污	-16389
痕迹	-16390
瘟疫	-16391
白白	-16392
皮肤	-16393
看不	-16394
石头	-16395
示范	-16396
礼貌	-16397
离任	-16398
离谱	-16399
私募	-16400
移交	-16401
空想	-16402
章程	-16403
等价	-16404
粉碎	-16405
粮农	-16406
精诚	-16407
美分	-16408
而将	-16409
聆听	-16410
肤浅	-16411
肩负	-16412
自利	-16413
茂德	-16414
行星	-16415
西奥	-16416
誓言	-16417
请愿	-16418
调低	-16419
较之	-16420
还给	-16421
邻近	-16422
阿什	-16423
面值	-16424
颗粒	-16425
首选	-16426
高压	-16427
187	-16428
85%	-16429
AAA	-16430
aid	-16431
duc	-16432
ini	-16433
ive	-16434
out	-16435
tec	-16436
▁不能	-16437
▁与之	-16438
▁乔治	-16439
▁官方	-16440
▁政策	-16441
▁最初	-16442
▁此时	-16443
▁短期	-16444
下个月	-16445
不完美	-16446
与朝鲜	-16447
严肃的	-16448
中汲取	-16449
丽莎白	-16450
乐观的	-16451
事务中	-16452
以及为	-16453
以后的	-16454
以降低	-16455
企业在	-16456
伯利亚	-16457
但并未	-16458
但是这	-16459
倡导者	-16460
像过去	-16461
儿童和	-16462
公司将	-16463
公布的	-16464
军事化	-16465
决定在	-16466
准确的	-16467
几何时	-16468
则必须	-16469
劳动法	-16470
南部的	-16471
却并未	-16472
只限于	-16473
可以对	-16474
和司法	-16475
和生物	-16476
和种族	-16477
和组织	-16478
和能力	-16479
在公共	-16480
在决定	-16481
复杂化	-16482
大数据	-16483
安德鲁	-16484
富裕的	-16485
尤先科	-16486
布什的	-16487
年代和	-16488
并实现	-16489
并成为	-16490
并由此	-16491
应该以	-16492
志愿者	-16493
性价比	-16494
情况是	-16495
我们又	-16496
我们是	-16497
所接受	-16498
执政者	-16499
承认的	-16500
挑战和	-16501
捐助国	-16502
提振了	-16503
政治局	-16504
新鲜事	-16505
昔日的	-16506
是十分	-16507
更适合	-16508
有足够	-16509
机构来	-16510
来满足	-16511
欢迎的	-16512
武力的	-16513
沙特人	-16514
治疗的	-16515
活动中	-16516
爆发前	-16517
现在正	-16518
的大脑	-16519
的打击	-16520
的梦想	-16521
的死亡	-16522
的研发	-16523
的自我	-16524
的自然	-16525
直截了	-16526
看一看	-16527
破坏力	-16528
立场的	-16529
第三种	-16530
繁荣期	-16531
继续在	-16532
综合症	-16533
罪行的	-16534
能提供	-16535
自己和	-16536
见证了	-16537
让那些	-16538
许可证	-16539
负责人	-16540
轻松地	-16541
这也许	-16542
这将是	-16543
这条路	-16544
进出口	-16545
都有着	-16546
陈光诚	-16547
领土的	-16548
2100	-16549
IPCC	-16550
eral	-16551
rist	-16552
▁Car	-16553
▁Rev	-16554
▁但印度	-16555
▁但只要	-16556
▁但没有	-16557
▁卡梅伦	-16558
▁在希腊	-16559
▁在法国	-16560
▁芝加哥	-16561
一直保持	-16562
不会发生	-16563
不再能够	-16564
东乌克兰	-16565
严重不足	-16566
严重影响	-16567
为自己的	-16568
主权债券	-16569
举步维艰	-16570
也可以在	-16571
二十年来	-16572
交易成本	-16573
产生影响	-16574
令人不快	-16575
伊丽莎白	-16576
储蓄过剩	-16577
全面禁止	-16578
关键性的	-16579
减税政策	-16580
出了问题	-16581
制度改革	-16582
即将到来	-16583
压倒性的	-16584
双管齐下	-16585
可以选择	-16586
名副其实	-16587
和平共处	-16588
和平解决	-16589
和特朗普	-16590
商业投资	-16591
圣彼得堡	-16592
基准利率	-16593
增长前景	-16594
增长引擎	-16595
多元主义	-16596
大幅贬值	-16597
姆斯特丹	-16598
对此表示	-16599
就会发现	-16600
带来好处	-16601
帮助我们	-16602
形成鲜明	-16603
快速变化	-16604
性别差距	-16605
总人口的	-16606
意义深远	-16607
意义重大	-16608
我们认为	-16609
我们这些	-16610
所发生的	-16611
所要求的	-16612
政权更迭	-16613
政治压力	-16614
斯亚贝巴	-16615
新闻媒体	-16616
新闻自由	-16617
方面起到	-16618
更加容易	-16619
最伟大的	-16620
本世纪末	-16621
欧安组织	-16622
欧洲需要	-16623
正常运转	-16624
正确方向	-16625
民主体制	-16626
民主社会	-16627
民选政府	-16628
民间团体	-16629
消除贫困	-16630
深远影响	-16631
激进主义	-16632
火上浇油	-16633
的事实是	-16634
的领导层	-16635
监管者的	-16636
相当长的	-16637
石油收入	-16638
社会保险	-16639
积极影响	-16640
管理人员	-16641
粮食生产	-16642
系统性的	-16643
维持下去	-16644
翻了一番	-16645
能源需求	-16646
融资成本	-16647
这一角色	-16648
这些东西	-16649
透明度和	-16650
都出现了	-16651
重新回到	-16652
重要影响	-16653
银行部门	-16654
长期存在	-16655
陷入瘫痪	-16656
▁1997	-16657
▁不管怎样	-16658
▁他们希望	-16659
▁特拉维夫	-16660
▁直到最近	-16661
▁结果导致	-16662
一次又一次	-16663
中国的经济	-16664
主要集中在	-16665
之所以如此	-16666
伊朗领导人	-16667
前所未有地	-16668
存在巨大的	-16669
寻求庇护者	-16670
市场经济的	-16671
恐怖分子的	-16672
意识形态的	-16673
斯蒂格利茨	-16674
特朗普总统	-16675
环保主义者	-16676
的世界经济	-16677
的意识形态	-16678
美国的利益	-16679
萨卡什维利	-16680
▁但与此同时	-16681
▁奥巴马政府	-16682
不平等性加剧	-16683
宏观经济稳定	-16684
是不可避免的	-16685
的新兴经济体	-16686
贸易保护主义	-16687
▁这并不意味着	-16688
麦肯锡全球研究所	-16689
68	-16690
Ad	-16691
€‚	-16692
▁小	-16693
▁莫	-16694
▁贝	-16695
一向	-16696
一本	-16697
上月	-16698
下游	-16699
丑陋	-16700
世代	-16701
丹佛	-16702
了与	-16703
产值	-16704
人意	-16705
人格	-16706
供水	-16707
入境	-16708
公式	-16709
兰德	-16710
其为	-16711
分权	-16712
刑讯	-16713
判定	-16714
利尔	-16715
加里	-16716
助力	-16717
卡洛	-16718
厘清	-16719
去除	-16720
友谊	-16721
叫停	-16722
可是	-16723
同仁	-16724
告别	-16725
和被	-16726
商讨	-16727
塔米	-16728
奖赏	-16729
妖魔	-16730
学界	-16731
学的	-16732
定制	-16733
审讯	-16734
察觉	-16735
尔摩	-16736
尸体	-16737
山区	-16738
已达	-16739
库什	-16740
开会	-16741
开办	-16742
弗莱	-16743
影像	-16744
德华	-16745
忏悔	-16746
感的	-16747
成因	-16748
或不	-16749
或被	-16750
战事	-16751
所致	-16752
把这	-16753
抚养	-16754
抬高	-16755
拉姆	-16756
捆绑	-16757
损伤	-16758
插手	-16759
教导	-16760
散布	-16761
敲响	-16762
文官	-16763
无形	-16764
时尚	-16765
最先	-16766
月和	-16767
月度	-16768
有形	-16769
本意	-16770
核查	-16771
模拟	-16772
比这	-16773
水的	-16774
汇集	-16775
泥潭	-16776
流产	-16777
浪漫	-16778
涉嫌	-16779
淡化	-16780
版权	-16781
王室	-16782
畅销	-16783
病原	-16784
着实	-16785
硬币	-16786
票数	-16787
私利	-16788
科菲	-16789
第九	-16790
组装	-16791
臃肿	-16792
莱恩	-16793
蒙羞	-16794
蛋糕	-16795
西尔	-16796
解救	-16797
议事	-16798
课堂	-16799
贬低	-16800
越长	-16801
转嫁	-16802
转让	-16803
过量	-16804
这番	-16805
这股	-16806
违规	-16807
遥遥	-16808
邻为	-16809
邻邦	-16810
重量	-16811
错过	-16812
阳性	-16813
隐蔽	-16814
难逃	-16815
领头	-16816
默默	-16817
95%	-16818
CDU	-16819
Ken	-16820
OMC	-16821
eld	-16822
ink	-16823
ush	-16824
▁一般	-16825
▁减少	-16826
▁印尼	-16827
▁紧缩	-16828
▁那时	-16829
▁雅典	-16830
一个在	-16831
一连串	-16832
三年前	-16833
不但要	-16834
不公正	-16835
专家和	-16836
中世纪	-16837
为所有	-16838
也是最	-16839
也没能	-16840
了政治	-16841
事实的	-16842
人口中	-16843
从欧洲	-16844
从而将	-16845
以减少	-16846
以帮助	-16847
以牺牲	-16848
伐利亚	-16849
会如此	-16850
但显然	-16851
信任的	-16852
共有的	-16853
军队在	-16854
减少到	-16855
制度化	-16856
加速了	-16857
动力的	-16858
占领了	-16859
发病率	-16860
可能有	-16861
同事们	-16862
同意在	-16863
和右翼	-16864
和智利	-16865
和瑞典	-16866
和私人	-16867
哈维尔	-16868
培训和	-16869
增加和	-16870
外交和	-16871
大地震	-16872
完全不	-16873
就很难	-16874
尽管其	-16875
岁以上	-16876
已经向	-16877
希望和	-16878
平等性	-16879
并利用	-16880
并承诺	-16881
并提供	-16882
当下的	-16883
当年的	-16884
当然是	-16885
当选为	-16886
很强的	-16887
得出的	-16888
心血管	-16889
总数的	-16890
意见的	-16891
愤怒的	-16892
所提供	-16893
损失的	-16894
敏感性	-16895
无休止	-16896
时间表	-16897
是不能	-16898
更高效	-16899
月份的	-16900
有信心	-16901
正义党	-16902
比中国	-16903
清算所	-16904
犯下了	-16905
电动车	-16906
的反抗	-16907
的反腐	-16908
的扩张	-16909
的批准	-16910
的欧元	-16911
的汽车	-16912
的答案	-16913
的药物	-16914
的裁决	-16915
直接的	-16916
相适应	-16917
短暂的	-16918
确认了	-16919
种族和	-16920
突出的	-16921
第二天	-16922
等组织	-16923
缓慢的	-16924
缺陷的	-16925
美国是	-16926
而印度	-16927
股票和	-16928
自以为	-16929
艾森豪	-16930
衰退中	-16931
衰退的	-16932
被剥夺	-16933
计划将	-16934
论文中	-16935
设立了	-16936
设计师	-16937
试图用	-16938
该行业	-16939
这样说	-16940
追求的	-16941
那么他	-16942
陷入到	-16943
零排放	-16944
非正规	-16945
非营利	-16946
领土上	-16947
Alex	-16948
cher	-16949
▁更好的	-16950
▁更广泛	-16951
▁该报告	-16952
一定程度	-16953
上市公司	-16954
不可预测	-16955
中国崛起	-16956
也采取了	-16957
五角大楼	-16958
亚洲地区	-16959
从而降低	-16960
令人吃惊	-16961
以及欧盟	-16962
以色列对	-16963
价值观和	-16964
但同时也	-16965
修正主义	-16966
先发制人	-16967
入主白宫	-16968
全球气温	-16969
公共开支	-16970
公立学校	-16971
关键领域	-16972
劳动成本	-16973
叛乱分子	-16974
可以忽略	-16975
可能产生	-16976
可能最终	-16977
吉尔吉斯	-16978
国内储蓄	-16979
国际足联	-16980
在历史上	-16981
埃及总统	-16982
奇怪的是	-16983
实用主义	-16984
就是这样	-16985
工资水平	-16986
弗朗索瓦	-16987
弗朗西斯	-16988
很多人都	-16989
必须确保	-16990
思维方式	-16991
意料之外	-16992
成为欧洲	-16993
我们看到	-16994
所领导的	-16995
托克维尔	-16996
挑战在于	-16997
方面做得	-16998
无济于事	-16999
日益严重	-17000
是否可以	-17001
更严格的	-17002
最强大的	-17003
有所作为	-17004
有更多的	-17005
每一美元	-17006
民族身份	-17007
民营企业	-17008
永久性的	-17009
汇率政策	-17010
没有那么	-17011
油价下跌	-17012
法律框架	-17013
爆发以来	-17014
现代社会	-17015
现在应该	-17016
由来已久	-17017
矛头指向	-17018
确实存在	-17019
筹集资金	-17020
终于开始	-17021
经济学的	-17022
经济实力	-17023
经济模式	-17024
能够帮助	-17025
能源政策	-17026
被证明是	-17027
要求美国	-17028
解放出来	-17029
证据证明	-17030
贷款利率	-17031
这些企业	-17032
这些投资	-17033
遥不可及	-17034
银行业务	-17035
长期来看	-17036
零和博弈	-17037
非常相似	-17038
革命卫队	-17039
领导力的	-17040
黎巴嫩的	-17041
,2004	-17042
ublic	-17043
▁Sand	-17044
▁世界经济	-17045
▁事实证明	-17046
▁但事实上	-17047
▁否则的话	-17048
不受欢迎的	-17049
不遗余力地	-17050
与巴勒斯坦	-17051
严重的经济	-17052
任何形式的	-17053
伊斯兰教法	-17054
卫生工作者	-17055
年轻人失业	-17056
总理温家宝	-17057
欧元区外围	-17058
欧盟国家的	-17059
的人均收入	-17060
的地缘政治	-17061
经济的发展	-17062
自上而下的	-17063
解释为什么	-17064
赤字和债务	-17065
这两个国家	-17066
领导的政府	-17067
ustice	-17068
▁Found	-17069
亚的斯亚贝巴	-17070
以前所未有的	-17071
全球金融市场	-17072
固定资产投资	-17073
美国外交政策	-17074
olution	-17075
伊拉克和叙利亚	-17076
国会预算办公室	-17077
艾哈迈迪内贾德	-17078
▁Initiative	-17079
Am	-17080
En	-17081
FP	-17082
co	-17083
—6	-17084
”?	-17085
▁低	-17086
▁萨	-17087
一击	-17088
一团	-17089
一辆	-17090
上说	-17091
下定	-17092
下面	-17093
丰裕	-17094
之火	-17095
乌斯	-17096
习俗	-17097
争执	-17098
交谈	-17099
人皆	-17100
亿多	-17101
伸出	-17102
但有	-17103
倒向	-17104
八个	-17105
六大	-17106
六年	-17107
内斯	-17108
几大	-17109
出自	-17110
到位	-17111
前列	-17112
剧增	-17113
千禧	-17114
反叛	-17115
发端	-17116
发送	-17117
受控	-17118
合伙	-17119
名称	-17120
告诫	-17121
和最	-17122
增幅	-17123
大受	-17124
夺去	-17125
奈尔	-17126
它也	-17127
实物	-17128
小怪	-17129
尖端	-17130
就其	-17131
尼察	-17132
岛上	-17133
巴克	-17134
常谈	-17135
幕僚	-17136
并用	-17137
归为	-17138
心中	-17139
急转	-17140
总会	-17141
恩斯	-17142
悄然	-17143
情境	-17144
憧憬	-17145
房贷	-17146
手法	-17147
打压	-17148
投给	-17149
投诉	-17150
抹黑	-17151
排在	-17152
放下	-17153
放到	-17154
新疆	-17155
日在	-17156
易于	-17157
是指	-17158
某位	-17159
某项	-17160
横行	-17161
求斯	-17162
污点	-17163
沙拉	-17164
深信	-17165
滥调	-17166
漫画	-17167
濒危	-17168
热量	-17169
熊市	-17170
版的	-17171
现成	-17172
珊瑚	-17173
病态	-17174
病症	-17175
的亲	-17176
盟军	-17177
祈祷	-17178
禁飞	-17179
穆兄	-17180
穿着	-17181
童婚	-17182
等量	-17183
签名	-17184
纷争	-17185
老师	-17186
获奖	-17187
蔬菜	-17188
解密	-17189
误判	-17190
诱使	-17191
课以	-17192
豪华	-17193
退缩	-17194
适龄	-17195
逼迫	-17196
遍及	-17197
都很	-17198
酋长	-17199
重拾	-17200
铲除	-17201
锻炼	-17202
震慑	-17203
靠谱	-17204
面貌	-17205
飞速	-17206
餐馆	-17207
饲料	-17208
驾驭	-17209
高得	-17210
魔法	-17211
麻疹	-17212
黑手	-17213
2/3	-17214
9%,	-17215
Ber	-17216
ana	-17217
iam	-17218
lah	-17219
nie	-17220
ors	-17221
ruc	-17222
▁一场	-17223
▁不同	-17224
▁加州	-17225
▁加强	-17226
▁发展	-17227
▁外部	-17228
▁导致	-17229
▁无法	-17230
▁早在	-17231
▁明年	-17232
▁最为	-17233
▁此举	-17234
▁米兰	-17235
▁缅甸	-17236
▁缺乏	-17237
▁过度	-17238
不景气	-17239
不结盟	-17240
不能在	-17241
与伦比	-17242
中没有	-17243
为那些	-17244
之下的	-17245
之不理	-17246
也拥有	-17247
他们能	-17248
以下的	-17249
以及其	-17250
但至少	-17251
使用者	-17252
做生意	-17253
僵化的	-17254
公布了	-17255
其原因	-17256
到现在	-17257
制约了	-17258
加大了	-17259
包含着	-17260
却似乎	-17261
参与的	-17262
可见的	-17263
可预防	-17264
合作社	-17265
同情心	-17266
后果的	-17267
和巴西	-17268
和我们	-17269
国际上	-17270
在一边	-17271
学术界	-17272
完善的	-17273
对移民	-17274
就更加	-17275
州州长	-17276
年年中	-17277
并引发	-17278
并接受	-17279
并支持	-17280
并获得	-17281
废除了	-17282
当权者	-17283
彰显出	-17284
怎么样	-17285
总是会	-17286
恶化了	-17287
技术性	-17288
投入品	-17289
推向了	-17290
放射性	-17291
政府为	-17292
数以千	-17293
数千名	-17294
是德国	-17295
更强大	-17296
有两种	-17297
来作为	-17298
来支撑	-17299
核材料	-17300
浪费了	-17301
消费量	-17302
涵盖了	-17303
然后再	-17304
生常谈	-17305
的不良	-17306
的病人	-17307
的约束	-17308
的补贴	-17309
的语言	-17310
的迅速	-17311
的过去	-17312
相比较	-17313
种类的	-17314
算得上	-17315
结合了	-17316
美国前	-17317
而只是	-17318
而来的	-17319
而随着	-17320
能通过	-17321
萨赫勒	-17322
袭击的	-17323
誓旦旦	-17324
让国家	-17325
让这一	-17326
设备和	-17327
评论员	-17328
贫民窟	-17329
贷款和	-17330
费舍尔	-17331
还是有	-17332
还要高	-17333
首先要	-17334
form	-17335
tein	-17336
▁6%。	-17337
▁Hol	-17338
▁但现实	-17339
▁但目前	-17340
▁穆尔西	-17341
不断下降	-17342
不是什么	-17343
为了避免	-17344
之间进行	-17345
乌克兰人	-17346
人的利益	-17347
仍有可能	-17348
他们来说	-17349
价值观的	-17350
但却没有	-17351
但大部分	-17352
入盟谈判	-17353
再也无法	-17354
决策过程	-17355
几乎毫无	-17356
刺激政策	-17357
去监管化	-17358
发达世界	-17359
取得胜利	-17360
可能还会	-17361
同样重要	-17362
和加勒比	-17363
哈马斯和	-17364
国家机构	-17365
国际法庭	-17366
圣战分子	-17367
基本问题	-17368
大大降低	-17369
大惊小怪	-17370
大行其道	-17371
奥巴马在	-17372
安全威胁	-17373
家庭成员	-17374
将其视为	-17375
小额信贷	-17376
州参议员	-17377
已经过去	-17378
已经通过	-17379
希望通过	-17380
年轻一代	-17381
并不只是	-17382
悲哀的是	-17383
情报部门	-17384
战争期间	-17385
所必需的	-17386
所支持的	-17387
提供贷款	-17388
改变现状	-17389
政府需要	-17390
无可否认	-17391
早期阶段	-17392
有时甚至	-17393
根本问题	-17394
正在走向	-17395
毛里求斯	-17396
民主政治	-17397
治理结构	-17398
盈利能力	-17399
相互关联	-17400
相形见绌	-17401
碳排放量	-17402
税收减免	-17403
等问题上	-17404
经济前景	-17405
置之不理	-17406
而这正是	-17407
自给自足	-17408
至少部分	-17409
花旗集团	-17410
衡量标准	-17411
视为一个	-17412
许多其他	-17413
象征意义	-17414
负担得起	-17415
财富效应	-17416
贫富差距	-17417
资金用于	-17418
赤字削减	-17419
这一方向	-17420
这一转变	-17421
这些改革	-17422
这些都是	-17423
迫使他们	-17424
通信技术	-17425
重蹈覆辙	-17426
阿里巴巴	-17427
需要通过	-17428
领导者的	-17429
黎巴嫩和	-17430
Charl	-17431
World	-17432
nited	-17433
▁1990	-17434
▁以色列的	-17435
▁圣地亚哥	-17436
▁法国总统	-17437
▁美国国会	-17438
中欧和东欧	-17439
农村地区的	-17440
决策者应该	-17441
单一市场的	-17442
可能会导致	-17443
同样的问题	-17444
和其他地方	-17445
和安全政策	-17446
国内和国际	-17447
大学毕业生	-17448
市场参与者	-17449
布什政府的	-17450
数以百万计	-17451
最为重要的	-17452
有可能成为	-17453
的民主制度	-17454
真正的问题	-17455
结合在一起	-17456
许多国家的	-17457
还为时过早	-17458
10,000	-17459
▁Front	-17460
▁Green	-17461
▁原因很简单	-17462
▁在此过程中	-17463
刺激经济增长	-17464
劳动力参与率	-17465
国家资本主义	-17466
将不可避免地	-17467
法国和意大利	-17468
经济学家认为	-17469
美国和欧洲的	-17470
金融稳定基金	-17471
印度和巴基斯坦	-17472
国民生产总值的	-17473
英格兰银行行长	-17474
欧洲央行行长德拉吉	-17475
联合国秘书长潘基文	-17476
+1	-17477
89	-17478
AC	-17479
DS	-17480
EP	-17481
IF	-17482
――	-17483
▁德	-17484
、“	-17485
一等	-17486
三月	-17487
上是	-17488
之谜	-17489
交往	-17490
人将	-17491
仇视	-17492
他又	-17493
兀鹫	-17494
先后	-17495
公职	-17496
兼容	-17497
内卢	-17498
内幕	-17499
军火	-17500
冲浪	-17501
列岛	-17502
前后	-17503
卡因	-17504
即刻	-17505
反响	-17506
反射	-17507
向上	-17508
听从	-17509
和与	-17510
土崩	-17511
塔克	-17512
外表	-17513
天空	-17514
太久	-17515
失落	-17516
奉献	-17517
奥林	-17518
好友	-17519
好过	-17520
妄想	-17521
安娜	-17522
定时	-17523
寄望	-17524
将此	-17525
将钱	-17526
帕克	-17527
开脱	-17528
开销	-17529
式微	-17530
当事	-17531
得分	-17532
执照	-17533
投身	-17534
抛售	-17535
抛开	-17536
拍摄	-17537
改观	-17538
散播	-17539
敬姬	-17540
斗士	-17541
斯卡	-17542
明晰	-17543
本营	-17544
来对	-17545
来得	-17546
检讨	-17547
横跨	-17548
欢欣	-17549
欣慰	-17550
正轨	-17551
死后	-17552
水扁	-17553
洛夫	-17554
洛普	-17555
津贴	-17556
海牙	-17557
渐行	-17558
满满	-17559
漠视	-17560
版图	-17561
甚者	-17562
由我	-17563
百科	-17564
益的	-17565
相悖	-17566
看好	-17567
眼球	-17568
碳排	-17569
秘诀	-17570
税的	-17571
线的	-17572
经纪	-17573
绝无	-17574
维斯	-17575
美欧	-17576
而起	-17577
自尊	-17578
自负	-17579
至上	-17580
虚构	-17581
要靠	-17582
见效	-17583
让位	-17584
论述	-17585
诱导	-17586
诸国	-17587
诺基	-17588
谣言	-17589
质问	-17590
费尔	-17591
走廊	-17592
超市	-17593
路德	-17594
身亡	-17595
近在	-17596
连同	-17597
都曾	-17598
都由	-17599
配给	-17600
链条	-17601
阵痛	-17602
陈旧	-17603
降幅	-17604
震撼	-17605
饿死	-17606
黎明	-17607
,12	-17608
22%	-17609
8%。	-17610
ann	-17611
igh	-17612
ram	-17613
▁和平	-17614
▁妇女	-17615
▁已经	-17616
▁此类	-17617
▁看看	-17618
▁网络	-17619
▁苏联	-17620
▁风险	-17621
三角洲	-17622
下一场	-17623
下降和	-17624
不完全	-17625
不情愿	-17626
不相容	-17627
不至于	-17628
与社会	-17629
世纪前	-17630
丰厚的	-17631
之后才	-17632
也一直	-17633
事件后	-17634
亿美金	-17635
会变得	-17636
但人们	-17637
军事上	-17638
击败了	-17639
别人的	-17640
制度下	-17641
劳伦斯	-17642
历史和	-17643
和他们	-17644
和那些	-17645
哪怕是	-17646
因此也	-17647
地对待	-17648
地球的	-17649
基本的	-17650
增加其	-17651
增长到	-17652
外部性	-17653
大多是	-17654
大自然	-17655
女性在	-17656
对自身	-17657
就业的	-17658
就越大	-17659
尽管他	-17660
局限在	-17661
工具和	-17662
已经把	-17663
年夏天	-17664
开发的	-17665
强国的	-17666
很高兴	-17667
得出了	-17668
必须对	-17669
想知道	-17670
或间接	-17671
所经历	-17672
批评家	-17673
投票中	-17674
挑战者	-17675
援助和	-17676
斯特恩	-17677
新产品	-17678
方面所	-17679
无能为	-17680
来获得	-17681
来证明	-17682
正是在	-17683
水平和	-17684
汇率的	-17685
治理的	-17686
注定会	-17687
清晰的	-17688
渐行渐	-17689
状态的	-17690
现金流	-17691
班加西	-17692
由中国	-17693
痛苦和	-17694
百分之	-17695
的下跌	-17696
的共识	-17697
的动作	-17698
的大约	-17699
的审判	-17700
的经历	-17701
的联合	-17702
的行业	-17703
的观念	-17704
相媲美	-17705
相当的	-17706
移交给	-17707
穷国的	-17708
签订的	-17709
而且也	-17710
而被迫	-17711
能保证	-17712
能够从	-17713
行动和	-17714
责任和	-17715
购买了	-17716
转移给	-17717
迎来了	-17718
还要大	-17719
这才是	-17720
遏制了	-17721
邪恶的	-17722
邻为壑	-17723
都支持	-17724
金敬姬	-17725
陈水扁	-17726
难民的	-17727
青年人	-17728
高效的	-17729
高级别	-17730
1940	-17731
2019	-17732
70%。	-17733
9·11	-17734
cker	-17735
hart	-17736
▁印度的	-17737
▁反对派	-17738
▁同样的	-17739
▁在我们	-17740
▁在欧盟	-17741
▁在没有	-17742
▁如果他	-17743
▁阿巴斯	-17744
一直认为	-17745
三个国家	-17746
两国关系	-17747
两国政府	-17748
主要问题	-17749
也是一样	-17750
二十年的	-17751
人口数量	-17752
人类发展	-17753
今年夏天	-17754
但他们的	-17755
但它们的	-17756
保护自己	-17757
信誓旦旦	-17758
候选人都	-17759
借款人的	-17760
债务违约	-17761
停火协议	-17762
兑现承诺	-17763
全球基金	-17764
共同繁荣	-17765
其他一些	-17766
刑警组织	-17767
利比亚的	-17768
前工业化	-17769
十分之一	-17770
卢卡申科	-17771
印度总理	-17772
变成现实	-17773
可以减少	-17774
可能会被	-17775
可能因为	-17776
司法体系	-17777
司法系统	-17778
和哈马斯	-17779
国内政策	-17780
国家政策	-17781
在我们的	-17782
基尼系数	-17783
墨西哥的	-17784
外国公司	-17785
大幅减少	-17786
大打折扣	-17787
太阳能和	-17788
如何影响	-17789
宪法条约	-17790
对欧盟的	-17791
将会导致	-17792
已经表明	-17793
已经超过	-17794
年以来的	-17795
并不十分	-17796
开始实施	-17797
强制性的	-17798
必须包括	-17799
必须改变	-17800
快的速度	-17801
总有一天	-17802
意想不到	-17803
慈善机构	-17804
我的祖国	-17805
才能获得	-17806
抓住机会	-17807
拯救欧元	-17808
挺身而出	-17809
政府通过	-17810
政治僵局	-17811
政界人士	-17812
无法承受	-17813
无法控制	-17814
最近指出	-17815
欧元贬值	-17816
正在逐渐	-17817
民主党人	-17818
没有能力	-17819
疫苗接种	-17820
的条件下	-17821
相对较低	-17822
确切地说	-17823
稳定机制	-17824
精诚合作	-17825
紧张局面	-17826
经济体中	-17827
统治地位	-17828
罗兴亚人	-17829
至今仍在	-17830
计划中的	-17831
证据显示	-17832
财政收入	-17833
货币供给	-17834
达成妥协	-17835
这些数字	-17836
这项工作	-17837
进行投资	-17838
远远大于	-17839
都是一个	-17840
金砖四国	-17841
银行家们	-17842
陈词滥调	-17843
陷入麻烦	-17844
预防措施	-17845
▁Rein	-17846
▁中国经济	-17847
▁为了应对	-17848
▁在欧元区	-17849
▁经合组织	-17850
▁重要的是	-17851
一个重要的	-17852
不得不面对	-17853
中国和南非	-17854
也同样如此	-17855
从现在开始	-17856
加入欧元区	-17857
发生了改变	-17858
取得了一些	-17859
国家之间的	-17860
在全球经济	-17861
宏观经济学	-17862
对气候变化	-17863
对经济增长	-17864
巨大的经济	-17865
并不是因为	-17866
是一个错误	-17867
最大的国家	-17868
最大经济体	-17869
欧盟理事会	-17870
的关键要素	-17871
的工作岗位	-17872
盖茨基金会	-17873
联合国宪章	-17874
艾森豪威尔	-17875
运转良好的	-17876
金融稳定性	-17877
问题的根源	-17878
apital	-17879
▁Group	-17880
▁巴勒斯坦人	-17881
不仅仅是一个	-17882
所发生的事情	-17883
所带来的好处	-17884
泛美开发银行	-17885
▁在某种程度上	-17886
▁现在的问题是	-17887
俄罗斯天然气工业	-17888
▁Foundation	-17889
▁Investment	-17890
)?	-17891
42	-17892
BI	-17893
▁埃	-17894
▁帕	-17895
▁能	-17896
万事	-17897
三方	-17898
下达	-17899
之死	-17900
互利	-17901
亚尔	-17902
亟待	-17903
交出	-17904
人被	-17905
他被	-17906
以更	-17907
伯尼	-17908
但当	-17909
借债	-17910
六月	-17911
典礼	-17912
军阀	-17913
几近	-17914
凯末	-17915
凯蒂	-17916
分成	-17917
分红	-17918
切莱	-17919
划算	-17920
则将	-17921
利得	-17922
到访	-17923
动武	-17924
十个	-17925
卡斯	-17926
同类	-17927
响亮	-17928
在有	-17929
在被	-17930
多位	-17931
天皇	-17932
威权	-17933
宿命	-17934
对照	-17935
将令	-17936
尖阁	-17937
尘埃	-17938
岛国	-17939
崇高	-17940
工薪	-17941
巨变	-17942
带入	-17943
并从	-17944
广阔	-17945
康复	-17946
当政	-17947
恰逢	-17948
恶魔	-17949
懂得	-17950
手上	-17951
拉贾	-17952
推到	-17953
摊子	-17954
效用	-17955
敞开	-17956
断绝	-17957
斯库	-17958
斯曼	-17959
无止	-17960
既成	-17961
暴徒	-17962
机和	-17963
林肯	-17964
桑迪	-17965
死胡	-17966
残余	-17967
母国	-17968
派出	-17969
涅托	-17970
液压	-17971
深层	-17972
深的	-17973
满怀	-17974
热病	-17975
热钱	-17976
熊彼	-17977
牲畜	-17978
猩猩	-17979
理顺	-17980
生根	-17981
疗效	-17982
的净	-17983
的约	-17984
相处	-17985
看重	-17986
神学	-17987
租金	-17988
称赞	-17989
窃听	-17990
等着	-17991
米勒	-17992
约占	-17993
纳森	-17994
细微	-17995
给定	-17996
联军	-17997
英尺	-17998
营业	-17999
融化	-18000
计入	-18001
诺夫	-18002
谷物	-18003
载体	-18004
过快	-18005
过滤	-18006
还为	-18007
进度	-18008
迪瓦	-18009
适宜	-18010
通行	-18011
遴选	-18012
鄙视	-18013
酷刑	-18014
镜头	-18015
阐明	-18016
隐患	-18017
颁发	-18018
飞地	-18019
香烟	-18020
高薪	-18021
鸽派	-18022
麻风	-18023
黑市	-18024
17.	-18025
24%	-18026
5+1	-18027
AfD	-18028
EFS	-18029
IBM	-18030
ICC	-18031
gel	-18032
ies	-18033
int	-18034
isc	-18035
ler	-18036
oth	-18037
tif	-18038
uch	-18039
▁el	-18040
▁但与	-18041
▁即将	-18042
▁后者	-18043
▁国内	-18044
▁它是	-18045
▁当我	-18046
▁很难	-18047
▁每个	-18048
▁环境	-18049
▁相比	-18050
▁结束	-18051
▁足球	-18052
一直到	-18053
一边倒	-18054
不希望	-18055
与过去	-18056
个月后	-18057
临界点	-18058
亚洲人	-18059
仍然有	-18060
代表性	-18061
以来最	-18062
众议员	-18063
会怎样	-18064
但这个	-18065
保持其	-18066
保证了	-18067
偏好的	-18068
像现在	-18069
克服了	-18070
几百万	-18071
出资者	-18072
分化的	-18073
分裂和	-18074
前瞻性	-18075
前者的	-18076
势在必	-18077
十年内	-18078
协议中	-18079
反应是	-18080
发明了	-18081
发起了	-18082
受困于	-18083
可以向	-18084
向欧洲	-18085
否决票	-18086
和提高	-18087
和破坏	-18088
和繁荣	-18089
哈耶克	-18090
国峰会	-18091
土地上	-18092
在财政	-18093
城市和	-18094
奥尔良	-18095
如果要	-18096
它们也	-18097
寄生虫	-18098
对市场	-18099
对美元	-18100
对金融	-18101
州政府	-18102
工作时	-18103
工程和	-18104
工程的	-18105
市场对	-18106
并可能	-18107
建立新	-18108
开发商	-18109
当局的	-18110
当选的	-18111
得更好	-18112
总收入	-18113
总是在	-18114
恐怖的	-18115
慷慨的	-18116
成长的	-18117
战略上	-18118
把这一	-18119
推迟了	-18120
提出过	-18121
提高其	-18122
政策中	-18123
时不时	-18124
明显地	-18125
是否在	-18126
是政府	-18127
更深入	-18128
曾经在	-18129
最主要	-18130
最终被	-18131
有力地	-18132
有时会	-18133
来取代	-18134
来完成	-18135
正在与	-18136
比如在	-18137
求助于	-18138
泰国的	-18139
海洋法	-18140
清楚的	-18141
满足于	-18142
漫长而	-18143
激烈的	-18144
热内卢	-18145
爱德华	-18146
现在又	-18147
的会议	-18148
的参与	-18149
的生物	-18150
的私人	-18151
的统一	-18152
的进口	-18153
的进展	-18154
的食品	-18155
相匹配	-18156
短期的	-18157
神经元	-18158
罗德里	-18159
而产生	-18160
而获得	-18161
聪明的	-18162
能成功	-18163
自由党	-18164
行动中	-18165
补贴和	-18166
象征性	-18167
贷款给	-18168
赖喇嘛	-18169
进化论	-18170
逆转录	-18171
那些被	-18172
都处于	-18173
需要与	-18174
需要用	-18175
领域中	-18176
高失业	-18177
1977	-18178
9/11	-18179
FOMC	-18180
neth	-18181
▁New	-18182
▁com	-18183
▁他们会	-18184
▁他们说	-18185
▁但最近	-18186
▁唯一的	-18187
▁在当今	-18188
▁在理想	-18189
▁对欧洲	-18190
▁对许多	-18191
▁日本的	-18192
▁这将是	-18193
▁这或许	-18194
▁进一步	-18195
▁那就是	-18196
▁马克龙	-18197
一个更为	-18198
不仅在于	-18199
不如说是	-18200
不容忽视	-18201
不平等的	-18202
不断膨胀	-18203
世界人口	-18204
中的角色	-18205
为目标的	-18206
也很重要	-18207
人们开始	-18208
从伊拉克	-18209
他们想要	-18210
以此作为	-18211
优先考虑	-18212
作为美国	-18213
保护措施	-18214
做出改变	-18215
共同之处	-18216
军国主义	-18217
创造新的	-18218
利息支付	-18219
利用这一	-18220
劳动力和	-18221
北爱尔兰	-18222
卡尔德龙	-18223
反映的是	-18224
可以增加	-18225
可以用于	-18226
合情合理	-18227
同样也是	-18228
土崩瓦解	-18229
增长减速	-18230
奥巴马和	-18231
如何实现	-18232
如果中国	-18233
媒体报道	-18234
容易得多	-18235
对伊拉克	-18236
巴解组织	-18237
市场改革	-18238
希腊危机	-18239
并不完全	-18240
延续下去	-18241
建立起来	-18242
往常一样	-18243
得到改善	-18244
德国央行	-18245
所使用的	-18246
担心的是	-18247
拯救生命	-18248
持续时间	-18249
新闻报道	-18250
无法想象	-18251
旷日持久	-18252
普遍存在	-18253
暴力事件	-18254
更加关注	-18255
最近几年	-18256
有所助益	-18257
有所提高	-18258
极低利率	-18259
极端组织	-18260
某种方式	-18261
框架公约	-18262
正在试图	-18263
正常化的	-18264
渐行渐远	-18265
现在必须	-18266
甚至包括	-18267
的受访者	-18268
的时间内	-18269
的流动性	-18270
的观点是	-18271
短时间内	-18272
社团主义	-18273
私人资本	-18274
科特迪瓦	-18275
立法机关	-18276
绿色革命	-18277
能源资源	-18278
菲尔普斯	-18279
行为准则	-18280
表现出的	-18281
西伯利亚	-18282
解放广场	-18283
许多人都	-18284
财政大臣	-18285
资产管理	-18286
这个方向	-18287
进行改革	-18288
金融援助	-18289
问题需要	-18290
阿亚图拉	-18291
阿萨德的	-18292
非常清楚	-18293
非常简单	-18294
领先地位	-18295
领土完整	-18296
首要任务	-18297
,2005	-18298
Andre	-18299
Peter	-18300
ition	-18301
ugman	-18302
—2014	-18303
▁1991	-18304
▁但实际上	-18305
▁因此我们	-18306
▁如果政府	-18307
▁美国政府	-18308
与巴基斯坦	-18309
主要原因是	-18310
也没有什么	-18311
习近平主席	-18312
亚洲经济体	-18313
其中也包括	-18314
发布的一份	-18315
和金融稳定	-18316
在一夜之间	-18317
多年来一直	-18318
岁以下儿童	-18319
巴勒斯坦的	-18320
弗兰克法案	-18321
房地产投资	-18322
撒切尔夫人	-18323
核试验条约	-18324
民族国家的	-18325
特别是美国	-18326
私人债权人	-18327
经济基本面	-18328
经济学家和	-18329
联邦调查局	-18330
艰巨的挑战	-18331
英国和美国	-18332
西方国家的	-18333
这个问题上	-18334
这就意味着	-18335
造成的影响	-18336
金融和经济	-18337
长期存在的	-18338
Donald	-18339
Marine	-18340
Milton	-18341
acific	-18342
▁World	-18343
▁从历史上看	-18344
乌兹别克斯坦	-18345
抗生素耐药性	-18346
持不同政见者	-18347
斯蒂格尔法案	-18348
经济增长放缓	-18349
雷曼兄弟倒闭	-18350
▁&#160;	-18351
形成了鲜明对比	-18352
美国总统巴拉克	-18353
▁Krugman	-18354
联合国气候变化会议	-18355
诺贝尔经济学奖得主	-18356
▁Stability	-18357
#160;&#160;	-18358
,"	-18359
4,	-18360
55	-18361
67	-18362
OA	-18363
RE	-18364
be	-18365
äo	-18366
ón	-18367
▁利	-18368
▁水	-18369
▁请	-18370
一举	-18371
不做	-18372
不稳	-18373
不谈	-18374
两点	-18375
之列	-18376
之父	-18377
九月	-18378
互信	-18379
产妇	-18380
众筹	-18381
传媒	-18382
侵占	-18383
像我	-18384
八月	-18385
其时	-18386
内外	-18387
冰山	-18388
出局	-18389
删除	-18390
利弊	-18391
加权	-18392
加贝	-18393
勾勒	-18394
匹克	-18395
医改	-18396
发声	-18397
发掘	-18398
发誓	-18399
受助	-18400
只得	-18401
周永	-18402
味道	-18403
命名	-18404
哈德	-18405
唯恐	-18406
喜爱	-18407
回头	-18408
土库	-18409
地址	-18410
地狱	-18411
坐拥	-18412
塔伊	-18413
增兵	-18414
天下	-18415
失当	-18416
奥利	-18417
姗姗	-18418
宁可	-18419
安保	-18420
安定	-18421
容纳	-18422
小麦	-18423
尼拉	-18424
尾声	-18425
屋主	-18426
岁月	-18427
庆贺	-18428
庇隆	-18429
废弃	-18430
废止	-18431
弹药	-18432
得住	-18433
德哥	-18434
想必	-18435
憎恶	-18436
扎克	-18437
拜登	-18438
接踵	-18439
撼动	-18440
操控	-18441
教室	-18442
敞口	-18443
斯拉	-18444
斯雷	-18445
末期	-18446
杜鲁	-18447
格言	-18448
案中	-18449
棉花	-18450
每日	-18451
法拉	-18452
洪森	-18453
洪灾	-18454
渐渐	-18455
渡过	-18456
热潮	-18457
牵头	-18458
特兰	-18459
特工	-18460
猛增	-18461
王子	-18462
玛丽	-18463
生动	-18464
甩卖	-18465
硬件	-18466
碰巧	-18467
秉承	-18468
移居	-18469
稍微	-18470
竞相	-18471
等候	-18472
纳摩	-18473
绥靖	-18474
而知	-18475
而至	-18476
自大	-18477
蒙蔽	-18478
蓄意	-18479
言自	-18480
警官	-18481
讯息	-18482
评分	-18483
试点	-18484
话说	-18485
诱发	-18486
购房	-18487
贴上	-18488
起伏	-18489
跟着	-18490
身着	-18491
辖区	-18492
辨别	-18493
还债	-18494
还得	-18495
这使	-18496
通吃	-18497
造福	-18498
采集	-18499
重任	-18500
重整	-18501
金价	-18502
金色	-18503
间断	-18504
雕像	-18505
面上	-18506
黑海	-18507
齐观	-18508
28%	-18509
HPV	-18510
You	-18511
ats	-18512
”,“	-18513
▁),	-18514
▁et	-18515
▁不少	-18516
▁两位	-18517
▁他是	-18518
▁只是	-18519
▁监管	-18520
▁腐败	-18521
▁试想	-18522
▁预计	-18523
不一致	-18524
不再有	-18525
不多的	-18526
与合作	-18527
与普京	-18528
与这些	-18529
也不乏	-18530
人士的	-18531
亿英镑	-18532
他必须	-18533
以中国	-18534
以刺激	-18535
以增加	-18536
任命为	-18537
但同时	-18538
低效率	-18539
先前的	-18540
共同化	-18541
其后果	-18542
其政策	-18543
分裂的	-18544
加深了	-18545
动荡和	-18546
医学院	-18547
却并不	-18548
原有的	-18549
发动的	-18550
另一项	-18551
可能要	-18552
各地的	-18553
吉尼亚	-18554
后来的	-18555
周永康	-18556
和使用	-18557
和分析	-18558
土地的	-18559
土库曼	-18560
好得多	-18561
它们与	-18562
官员在	-18563
对某些	-18564
将逐渐	-18565
尽管这	-18566
展开了	-18567
巴菲特	-18568
年爆发	-18569
并同时	-18570
幸存者	-18571
开始在	-18572
引以为	-18573
当选后	-18574
影响是	-18575
思想和	-18576
总书记	-18577
总统在	-18578
成立于	-18579
或政治	-18580
所包含	-18581
所在国	-18582
扭曲了	-18583
抓住了	-18584
挑战了	-18585
接触到	-18586
描绘成	-18587
数不清	-18588
文明的	-18589
新一届	-18590
方面是	-18591
无法从	-18592
是一条	-18593
是所有	-18594
是这些	-18595
更别提	-18596
更稳定	-18597
有很大	-18598
有意识	-18599
杜鲁门	-18600
条件是	-18601
来实施	-18602
来提高	-18603
极左翼	-18604
欧洲对	-18605
正在以	-18606
死胡同	-18607
每年要	-18608
活跃的	-18609
满足了	-18610
烂摊子	-18611
现在也	-18612
理解为	-18613
男性和	-18614
男性的	-18615
的体系	-18616
的可靠	-18617
的年均	-18618
的广泛	-18619
的技能	-18620
的担心	-18621
的排放	-18622
的改善	-18623
的新书	-18624
的普及	-18625
的正是	-18626
目前在	-18627
目前已	-18628
目前正	-18629
穆加贝	-18630
第一轮	-18631
第四个	-18632
索罗斯	-18633
缔造者	-18634
者提供	-18635
而他的	-18636
而变得	-18637
而改变	-18638
能提高	-18639
能源的	-18640
脱离了	-18641
英国将	-18642
表示了	-18643
被授予	-18644
该基金	-18645
诸如此	-18646
赞成票	-18647
走向了	-18648
边界的	-18649
这或许	-18650
退出了	-18651
选出的	-18652
通过其	-18653
都属于	-18654
防火墙	-18655
阵营的	-18656
降低其	-18657
集中到	-18658
需要从	-18659
非传统	-18660
频繁地	-18661
▁-3.	-18662
▁1%。	-18663
▁9%,	-18664
▁par	-18665
▁人们对	-18666
▁传统上	-18667
▁但政府	-18668
▁但无论	-18669
▁但欧盟	-18670
▁历史上	-18671
▁在非洲	-18672
▁它们是	-18673
▁查韦斯	-18674
▁甚至连	-18675
▁苏格兰	-18676
一无所知	-18677
一致认为	-18678
上个世纪	-18679
不仅需要	-18680
不会导致	-18681
世俗主义	-18682
世界正在	-18683
个体国家	-18684
中央集权	-18685
中美关系	-18686
中间道路	-18687
二战期间	-18688
人权宣言	-18689
什叶派和	-18690
代表大会	-18691
以及中国	-18692
以巴冲突	-18693
伊朗总统	-18694
会进一步	-18695
保持不变	-18696
全球合作	-18697
全球失衡	-18698
关塔纳摩	-18699
其他人的	-18700
制造业和	-18701
削减赤字	-18702
区别对待	-18703
卫生保健	-18704
危险之中	-18705
即使没有	-18706
历史上最	-18707
双重标准	-18708
发生冲突	-18709
变成一个	-18710
周边国家	-18711
和大规模	-18712
和菲律宾	-18713
国际能源	-18714
城市居民	-18715
塞内加尔	-18716
增长公约	-18717
增长潜力	-18718
墨西哥湾	-18719
多数国家	-18720
多样性和	-18721
大经济体	-18722
密切合作	-18723
应该包括	-18724
建立一种	-18725
成本效益	-18726
战争罪行	-18727
政治稳定	-18728
无法满足	-18729
无论是在	-18730
日本首相	-18731
是一回事	-18732
是必要的	-18733
是有限的	-18734
显著下降	-18735
更严重的	-18736
更加有效	-18737
最危险的	-18738
最近宣布	-18739
有人认为	-18740
有很大的	-18741
未来几年	-18742
果断行动	-18743
欧盟成员	-18744
此外还有	-18745
每个人的	-18746
民主转型	-18747
浮出水面	-18748
犯罪行为	-18749
独立性的	-18750
独裁者的	-18751
现任总统	-18752
的不平衡	-18753
的危险性	-18754
的批评者	-18755
研究结果	-18756
确保所有	-18757
空气质量	-18758
等量齐观	-18759
紧密相连	-18760
经济萧条	-18761
结构转型	-18762
美国必须	-18763
美国政客	-18764
能够成为	-18765
脱颖而出	-18766
自然选择	-18767
解决机制	-18768
证券交易	-18769
货币供应	-18770
资金来源	-18771
边缘化的	-18772
达到这一	-18773
过剩产能	-18774
还不如说	-18775
还不足以	-18776
还是一个	-18777
还有什么	-18778
这一任务	-18779
这一协议	-18780
这一方法	-18781
这样的人	-18782
这项计划	-18783
重商主义	-18784
金融风险	-18785
银行危机	-18786
难以想象	-18787
集中精力	-18788
马哈茂德	-18789
高级代表	-18790
,2006	-18791
ammad	-18792
erman	-18793
—2013	-18794
▁1994	-18795
▁他们必须	-18796
▁几乎所有	-18797
▁尽管存在	-18798
▁这种做法	-18799
▁随着中国	-18800
世界范围内	-18801
东耶路撒冷	-18802
俄罗斯经济	-18803
全球范围内	-18804
出口竞争力	-18805
反对派领袖	-18806
反映了一个	-18807
叙利亚冲突	-18808
可能意味着	-18809
可贸易部门	-18810
和气候变化	-18811
和经济增长	-18812
在此过程中	-18813
塔吉克斯坦	-18814
实体经济的	-18815
已经认识到	-18816
很有可能会	-18817
拥有巨大的	-18818
教育和培训	-18819
整个地区的	-18820
文化大革命	-18821
有吸引力的	-18822
本世纪中叶	-18823
正在进行的	-18824
的基础之上	-18825
的政治体制	-18826
的罪魁祸首	-18827
的解决办法	-18828
的金融体系	-18829
这样的政策	-18830
金融交易税	-18831
金融危机中	-18832
20,000	-18833
30,000	-18834
ustain	-18835
▁Democ	-18836
▁发自纽黑文	-18837
▁新兴经济体	-18838
▁而与此同时	-18839
中国和俄罗斯	-18840
令人难以置信	-18841
基础设施支出	-18842
灾难性的后果	-18843
的资产负债表	-18844
适应气候变化	-18845
ovement	-18846
▁从这个意义上	-18847
▁值得注意的是	-18848
▁更为重要的是	-18849
▁根据这一观点	-18850
▁从某种程度上说	-18851
减少温室气体排放	-18852
57	-18853
95	-18854
SN	-18855
ma	-18856
oz	-18857
▁日	-18858
七年	-18859
上网	-18860
不屑	-18861
不曾	-18862
不讳	-18863
不高	-18864
中就	-18865
主角	-18866
之子	-18867
之家	-18868
乐意	-18869
事例	-18870
以待	-18871
优雅	-18872
伤口	-18873
倍感	-18874
借入	-18875
假期	-18876
傀儡	-18877
公报	-18878
军用	-18879
减产	-18880
凶手	-18881
分工	-18882
切特	-18883
创意	-18884
前辈	-18885
加码	-18886
劳尔	-18887
包袱	-18888
卜拉	-18889
卡德	-18890
卡恩	-18891
卡路	-18892
双轨	-18893
取向	-18894
受精	-18895
只比	-18896
后盾	-18897
向着	-18898
周末	-18899
和梅	-18900
和阿	-18901
哺乳	-18902
嚣尘	-18903
囊括	-18904
地为	-18905
地铁	-18906
增添	-18907
复原	-18908
夏威	-18909
大米	-18910
好坏	-18911
如若	-18912
守护	-18913
宫颈	-18914
家常	-18915
家里	-18916
容许	-18917
容量	-18918
小镇	-18919
少女	-18920
就该	-18921
尼加	-18922
展览	-18923
年期	-18924
思索	-18925
急性	-18926
总比	-18927
情局	-18928
惯性	-18929
成败	-18930
打了	-18931
抵扣	-18932
拆除	-18933
排队	-18934
接手	-18935
推卸	-18936
撕裂	-18937
放开	-18938
放慢	-18939
方程	-18940
旗鼓	-18941
无聊	-18942
明日	-18943
晚上	-18944
普查	-18945
更佳	-18946
最差	-18947
最能	-18948
机动	-18949
柴油	-18950
横扫	-18951
每当	-18952
毒性	-18953
汉森	-18954
洁净	-18955
海默	-18956
深厚	-18957
激素	-18958
火灾	-18959
牵制	-18960
王储	-18961
电站	-18962
疏离	-18963
病患	-18964
病的	-18965
症结	-18966
登陆	-18967
皇室	-18968
直指	-18969
相较	-18970
神权	-18971
离职	-18972
称职	-18973
管用	-18974
粉饰	-18975
繁琐	-18976
缴税	-18977
羞耻	-18978
老兵	-18979
老虎	-18980
者都	-18981
胞胎	-18982
脑后	-18983
脚跟	-18984
表露	-18985
被毁	-18986
裁判	-18987
西北	-18988
要少	-18989
证词	-18990
诚意	-18991
诠释	-18992
说了	-18993
谁能	-18994
调控	-18995
账单	-18996
贴现	-18997
赎金	-18998
走在	-18999
起因	-19000
踌躇	-19001
辍学	-19002
过后	-19003
还没	-19004
远东	-19005
退步	-19006
遣返	-19007
都没	-19008
针灸	-19009
钉钉	-19010
门户	-19011
露面	-19012
面纱	-19013
高端	-19014
黑帮	-19015
CBO	-19016
CPI	-19017
ama	-19018
emy	-19019
itt	-19020
▁保持	-19021
▁信息	-19022
▁地球	-19023
▁所谓	-19024
▁沙龙	-19025
▁而后	-19026
▁荷兰	-19027
▁重新	-19028
万人口	-19029
万灵丹	-19030
三年中	-19031
下一轮	-19032
不只是	-19033
不进行	-19034
与一个	-19035
与全球	-19036
与邻国	-19037
两国都	-19038
严峻的	-19039
丹尼尔	-19040
为何要	-19041
也符合	-19042
五年内	-19043
人们会	-19044
人员和	-19045
他没有	-19046
代名词	-19047
代议制	-19048
以提高	-19049
以此来	-19050
以获得	-19051
但不是	-19052
但仍有	-19053
体制的	-19054
保留了	-19055
债券和	-19056
公民们	-19057
其核心	-19058
军事和	-19059
出版的	-19060
副产品	-19061
副部长	-19062
医生和	-19063
医院和	-19064
占美国	-19065
压低了	-19066
反垄断	-19067
发达的	-19068
只是个	-19069
可以像	-19070
吸收了	-19071
和亚洲	-19072
和传统	-19073
和制度	-19074
和南海	-19075
和平等	-19076
和影响	-19077
和机构	-19078
和瑞士	-19079
和需求	-19080
哈塔米	-19081
因特网	-19082
团体的	-19083
国与国	-19084
国家或	-19085
在目前	-19086
在社会	-19087
地反对	-19088
地表明	-19089
地解决	-19090
夏威夷	-19091
大大地	-19092
大学生	-19093
大爆炸	-19094
好比是	-19095
子公司	-19096
宗教的	-19097
将变得	-19098
将开始	-19099
将引发	-19100
小时的	-19101
已经与	-19102
并帮助	-19103
并推动	-19104
并避免	-19105
当地人	-19106
心自问	-19107
急转直	-19108
恰当地	-19109
情形下	-19110
我们与	-19111
所抵消	-19112
所面对	-19113
批准的	-19114
批判性	-19115
承受了	-19116
承担着	-19117
投资率	-19118
拉斯维	-19119
拯救了	-19120
拿不出	-19121
提出要	-19122
携带者	-19123
新经济	-19124
方法来	-19125
方面看	-19126
无国界	-19127
是一名	-19128
更可能	-19129
更广义	-19130
最优秀	-19131
最喜欢	-19132
最富有	-19133
最终在	-19134
有一定	-19135
朝一日	-19136
树立了	-19137
核心国	-19138
核燃料	-19139
正日益	-19140
流向了	-19141
混乱的	-19142
激发了	-19143
然后是	-19144
熟悉的	-19145
的一员	-19146
的变革	-19147
的外部	-19148
的大陆	-19149
的失业	-19150
的意见	-19151
的成果	-19152
的正式	-19153
的渴望	-19154
的细节	-19155
的融资	-19156
的议会	-19157
的负担	-19158
的赤字	-19159
等因素	-19160
等地区	-19161
等方式	-19162
系统中	-19163
约束力	-19164
纽伦堡	-19165
经常会	-19166
美元和	-19167
联邦制	-19168
胡斯尼	-19169
自下而	-19170
行长的	-19171
被关押	-19172
认定为	-19173
讨论中	-19174
让印度	-19175
让英国	-19176
设计出	-19177
谈不上	-19178
趋势的	-19179
转换为	-19180
软着陆	-19181
达佩斯	-19182
进行着	-19183
通胀和	-19184
都不愿	-19185
都来自	-19186
限度的	-19187
难民和	-19188
零售业	-19189
霍多尔	-19190
预测到	-19191
领导权	-19192
颠覆了	-19193
高估了	-19194
高回报	-19195
黄热病	-19196
▁Man	-19197
▁Mar	-19198
▁乍一看	-19199
▁他们对	-19200
▁但只有	-19201
▁但德国	-19202
▁但是这	-19203
▁加拿大	-19204
▁大规模	-19205
▁有时候	-19206
▁维也纳	-19207
一个重要	-19208
一夜之间	-19209
三十年中	-19210
下定决心	-19211
下降到了	-19212
专业知识	-19213
专制政权	-19214
人力资源	-19215
人民币的	-19216
仍然十分	-19217
仍然可以	-19218
从而确保	-19219
他们希望	-19220
以及那些	-19221
伊朗政权	-19222
值得关注	-19223
全球挑战	-19224
公平竞争	-19225
其他因素	-19226
其目的是	-19227
农业部门	-19228
几个月内	-19229
几个月后	-19230
创造更多	-19231
努力工作	-19232
区分开来	-19233
占据上风	-19234
卫生体系	-19235
友好关系	-19236
叙利亚人	-19237
可以得到	-19238
和爱尔兰	-19239
和穆斯林	-19240
团结工会	-19241
国民议会	-19242
国际援助	-19243
在大多数	-19244
在意大利	-19245
地区稳定	-19246
增加投资	-19247
如何才能	-19248
对自己的	-19249
寻找新的	-19250
将会产生	-19251
已经成了	-19252
年下半年	-19253
年的时候	-19254
并且没有	-19255
弗吉尼亚	-19256
德哥尔摩	-19257
必须承认	-19258
怎样才能	-19259
感到失望	-19260
所作出的	-19261
所进行的	-19262
拟议中的	-19263
排放交易	-19264
支付系统	-19265
收入来源	-19266
政府政策	-19267
是否存在	-19268
是明确的	-19269
显现出来	-19270
权力斗争	-19271
某种程度	-19272
柔性力量	-19273
欢欣鼓舞	-19274
正在寻求	-19275
正在考虑	-19276
步履蹒跚	-19277
民主政府	-19278
汇率贬值	-19279
没人知道	-19280
特殊关系	-19281
独立国家	-19282
环太平洋	-19283
甚至没有	-19284
的不稳定	-19285
的关键是	-19286
的大屠杀	-19287
的最大的	-19288
的民主党	-19289
离开欧盟	-19290
私募股权	-19291
科技进步	-19292
秘密警察	-19293
立法机构	-19294
竞选期间	-19295
紧密合作	-19296
紧急状况	-19297
统治者的	-19298
绿色经济	-19299
美国人民	-19300
美国宪法	-19301
老生常谈	-19302
能够确保	-19303
能够阻止	-19304
自由选举	-19305
苏联时代	-19306
蒙特利尔	-19307
表示支持	-19308
要归因于	-19309
要高得多	-19310
解放组织	-19311
认为这些	-19312
财政调整	-19313
越来越高	-19314
身份政治	-19315
达成一个	-19316
这一做法	-19317
这一地区	-19318
这一风险	-19319
这些变化	-19320
这些趋势	-19321
这场冲突	-19322
这导致了	-19323
进行评估	-19324
那么他们	-19325
采取更加	-19326
针对性的	-19327
随着时间	-19328
非常有限	-19329
,2000	-19330
,2007	-19331
1,500	-19332
erson	-19333
ordon	-19334
rowth	-19335
▁Goal	-19336
▁为了确保	-19337
▁从长期看	-19338
▁私人部门	-19339
▁穆沙拉夫	-19340
▁若非如此	-19341
▁货币政策	-19342
▁这一政策	-19343
以色列政府	-19344
储蓄和投资	-19345
共和党总统	-19346
危机前水平	-19347
发展核武器	-19348
叙利亚问题	-19349
可以也应该	-19350
可支配收入	-19351
国家领导人	-19352
巴沙尔政权	-19353
库尔德人的	-19354
[...]
