<pad>	0
<unk>	0
<s>	0
</s>	0
▁t	-0
in	-1
▁a	-2
he	-3
re	-4
on	-5
▁the	-6
er	-7
at	-8
en	-9
▁s	-10
▁c	-11
▁o	-12
it	-13
an	-14
es	-15
is	-16
▁w	-17
al	-18
▁p	-19
or	-20
▁b	-21
▁in	-22
ed	-23
▁f	-24
nd	-25
ing	-26
▁to	-27
ic	-28
ar	-29
▁of	-30
▁m	-31
ion	-32
ro	-33
▁d	-34
▁and	-35
ou	-36
▁th	-37
ent	-38
le	-39
▁e	-40
st	-41
▁h	-42
▁re	-43
om	-44
▁n	-45
il	-46
as	-47
ly	-48
ve	-49
▁l	-50
▁be	-51
▁g	-52
ct	-53
ut	-54
▁is	-55
▁T	-56
ol	-57
▁that	-58
ation	-59
im	-60
ce	-61
▁I	-62
se	-63
ot	-64
ra	-65
ver	-66
▁de	-67
▁A	-68
ur	-69
id	-70
▁for	-71
ment	-72
ld	-73
ig	-74
ow	-75
▁it	-76
▁on	-77
et	-78
▁st	-79
ies	-80
ad	-81
ch	-82
▁u	-83
nt	-84
▁pro	-85
ir	-86
▁con	-87
ul	-88
ill	-89
ate	-90
▁C	-91
▁S	-92
▁B	-93
▁as	-94
▁The	-95
▁–	-96
ore	-97
ers	-98
ith	-99
▁wh	-100
est	-101
▁E	-102
pe	-103
ity	-104
▁al	-105
▁r	-106
▁su	-107
her	-108
▁cou	-109
ist	-110
▁with	-111
ge	-112
ay	-113
▁ex	-114
▁are	-115
ort	-116
▁an	-117
lo	-118
us	-119
ess	-120
▁ne	-121
ab	-122
am	-123
ial	-124
con	-125
▁U	-126
ive	-127
▁not	-128
ain	-129
res	-130
ter	-131
▁ha	-132
if	-133
▁we	-134
th	-135
iv	-136
ke	-137
▁com	-138
▁M	-139
▁by	-140
em	-141
▁has	-142
▁have	-143
ould	-144
▁P	-145
▁se	-146
pp	-147
ac	-148
▁W	-149
conom	-150
▁le	-151
▁pol	-152
and	-153
▁sh	-154
qu	-155
oc	-156
▁will	-157
▁v	-158
▁wor	-159
over	-160
igh	-161
▁count	-162
▁econom	-163
rom	-164
▁G	-165
ust	-166
ia	-167
um	-168
ap	-169
▁en	-170
▁F	-171
ical	-172
op	-173
▁or	-174
ost	-175
ant	-176
▁at	-177
os	-178
▁countr	-179
uro	-180
▁from	-181
▁im	-182
od	-183
ions	-184
▁he	-185
art	-186
iz	-187
▁its	-188
▁their	-189
▁“	-190
▁more	-191
▁Ch	-192
▁y	-193
▁ch	-194
ast	-195
ome	-196
ong	-197
el	-198
ure	-199
ib	-200
un	-201
▁R	-202
ans	-203
▁inc	-204
▁int	-205
▁N	-206
▁un	-207
ther	-208
ak	-209
▁res	-210
ff	-211
red	-212
▁2	-213
▁But	-214
▁was	-215
ich	-216
▁imp	-217
▁would	-218
▁In	-219
▁Euro	-220
mer	-221
end	-222
ect	-223
ru	-224
ary	-225
overn	-226
gh	-227
▁Europe	-228
pt	-229
▁Chin	-230
▁can	-231
ear	-232
all	-233
▁ab	-234
▁this	-235
ight	-236
ance	-237
▁ag	-238
row	-239
▁ad	-240
anc	-241
▁US	-242
▁1	-243
▁they	-244
ous	-245
▁govern	-246
ud	-247
▁O	-248
▁cont	-249
▁than	-250
▁all	-251
▁which	-252
out	-253
du	-254
ational	-255
able	-256
rou	-257
ip	-258
ard	-259
▁countries	-260
cc	-261
ates	-262
ations	-263
▁20	-264
▁Th	-265
ated	-266
▁comp	-267
▁D	-268
ign	-269
▁fin	-270
ere	-271
▁government	-272
▁pr	-273
▁H	-274
▁whe	-275
ie	-276
▁(	-277
ult	-278
ark	-279
▁China	-280
▁world	-281
any	-282
lic	-283
▁but	-284
▁fa	-285
ks	-286
▁rec	-287
ide	-288
▁j	-289
▁year	-290
▁do	-291
ike	-292
ress	-293
▁polit	-294
ree	-295
ven	-296
▁exp	-297
▁part	-298
orm	-299
bal	-300
▁dis	-301
ence	-302
one	-303
▁grow	-304
▁tr	-305
reat	-306
▁reg	-307
ag	-308
▁polic	-309
▁J	-310
ime	-311
▁economic	-312
▁L	-313
ub	-314
ian	-315
▁been	-316
▁bec	-317
▁other	-318
▁so	-319
▁pe	-320
▁out	-321
ep	-322
lobal	-323
▁pl	-324
▁K	-325
▁new	-326
ine	-327
ction	-328
▁inv	-329
og	-330
age	-331
▁dec	-332
erm	-333
▁cr	-334
ile	-335
ors	-336
ll	-337
▁who	-338
▁over	-339
▁me	-340
▁one	-341
▁global	-342
▁inter	-343
▁dem	-344
▁Un	-345
▁As	-346
ally	-347
ens	-348
▁lead	-349
meric	-350
are	-351
so	-352
ition	-353
ower	-354
rad	-355
arket	-356
form	-357
▁und	-358
ern	-359
▁Americ	-360
lop	-361
ue	-362
▁only	-363
velop	-364
▁should	-365
▁ind	-366
▁also	-367
ack	-368
▁political	-369
▁eff	-370
ident	-371
▁need	-372
au	-373
ake	-374
ren	-375
▁growth	-376
▁his	-377
ility	-378
▁like	-379
cy	-380
▁ris	-381
ose	-382
ire	-383
reas	-384
our	-385
▁pre	-386
▁financ	-387
▁no	-388
▁comm	-389
ities	-390
▁about	-391
▁Ind	-392
▁could	-393
▁most	-394
ism	-395
ople	-396
▁cons	-397
▁It	-398
fic	-399
▁market	-400
▁bet	-401
▁such	-402
▁there	-403
▁per	-404
ited	-405
▁sp	-406
▁ban	-407
▁supp	-408
▁str	-409
▁19	-410
▁develop	-411
ublic	-412
▁now	-413
▁long	-414
uch	-415
▁go	-416
▁invest	-417
ious	-418
ord	-419
▁people	-420
ish	-421
oll	-422
ments	-423
ange	-424
ative	-425
▁qu	-426
▁were	-427
▁ar	-428
▁cl	-429
▁acc	-430
▁even	-431
▁them	-432
▁policy	-433
▁rel	-434
▁country	-435
ution	-436
old	-437
▁if	-438
lect	-439
▁k	-440
▁financial	-441
ew	-442
▁years	-443
ble	-444
uc	-445
▁some	-446
▁St	-447
▁under	-448
▁up	-449
▁increas	-450
ces	-451
▁many	-452
▁rem	-453
▁em	-454
ber	-455
▁cap	-456
▁inf	-457
ough	-458
amp	-459
▁European	-460
bt	-461
00	-462
ach	-463
ause	-464
int	-465
▁sy	-466
uss	-467
▁This	-468
ice	-469
▁cur	-470
ons	-471
ace	-472
und	-473
ame	-474
▁when	-475
ang	-476
▁app	-477
lear	-478
▁Is	-479
av	-480
king	-481
ric	-482
▁power	-483
gy	-484
per	-485
eral	-486
▁must	-487
ass	-488
▁economy	-489
very	-490
vent	-491
pect	-492
▁these	-493
▁tw	-494
illion	-495
▁lar	-496
▁may	-497
act	-498
▁into	-499
own	-500
we	-501
▁soc	-502
▁ro	-503
stem	-504
resident	-505
cess	-506
▁what	-507
▁trad	-508
▁fir	-509
▁time	-510
erv	-511
▁am	-512
erest	-513
▁And	-514
rough	-515
▁produ	-516
▁cris	-517
▁intern	-518
ory	-519
▁much	-520
ices	-521
▁Af	-522
▁how	-523
stit	-524
▁us	-525
▁had	-526
ating	-527
▁po	-528
ise	-529
▁rep	-530
▁att	-531
ms	-532
lud	-533
ital	-534
▁system	-535
▁sc	-536
ced	-537
▁public	-538
ful	-539
▁act	-540
▁cent	-541
▁ra	-542
▁dif	-543
its	-544
ind	-545
▁any	-546
ax	-547
ount	-548
ual	-549
▁pos	-550
▁mon	-551
▁again	-552
▁Russ	-553
▁interest	-554
ible	-555
▁te	-556
▁200	-557
alth	-558
urn	-559
▁leaders	-560
▁work	-561
▁prov	-562
ert	-563
▁conf	-564
.”	-565
▁EU	-566
ular	-567
ite	-568
ond	-569
ild	-570
ists	-571
▁201	-572
▁ow	-573
▁crisis	-574
▁co	-575
hed	-576
▁gen	-577
ov	-578
iet	-579
get	-580
ific	-581
ied	-582
▁real	-583
▁United	-584
▁high	-585
▁international	-586
ob	-587
▁just	-588
▁war	-589
▁well	-590
ade	-591
▁ac	-592
hip	-593
ization	-594
▁trans	-595
▁import	-596
▁ref	-597
olog	-598
▁two	-599
oth	-600
eed	-601
ient	-602
▁recent	-603
▁proble	-604
vers	-605
▁support	-606
▁Y	-607
▁because	-608
▁way	-609
ase	-610
inist	-611
ruct	-612
▁fore	-613
ween	-614
hen	-615
itt	-616
iss	-617
ral	-618
ran	-619
ics	-620
cur	-621
▁debt	-622
▁opp	-623
▁between	-624
▁those	-625
ef	-626
ove	-627
iven	-628
ese	-629
▁man	-630
ives	-631
▁def	-632
ict	-633
▁far	-634
▁America	-635
ject	-636
ilit	-637
▁right	-638
▁des	-639
▁remain	-640
rent	-641
apan	-642
low	-643
ound	-644
aw	-645
▁end	-646
imate	-647
pec	-648
sel	-649
ize	-650
▁includ	-651
▁less	-652
▁contin	-653
ward	-654
loy	-655
▁Germ	-656
▁effect	-657
▁Wh	-658
▁too	-659
uring	-660
▁Japan	-661
▁For	-662
▁fact	-663
ail	-664
ploy	-665
aj	-666
atic	-667
▁while	-668
round	-669
▁state	-670
▁tax	-671
ues	-672
ings	-673
▁prog	-674
read	-675
rit	-676
▁our	-677
ry	-678
ince	-679
vel	-680
▁ass	-681
▁ent	-682
ption	-683
▁first	-684
▁mod	-685
▁national	-686
▁sur	-687
▁pop	-688
▁democ	-689
▁large	-690
▁own	-691
term	-692
▁af	-693
ures	-694
▁mem	-695
ural	-696
▁result	-697
▁off	-698
lp	-699
ration	-700
▁sub	-701
▁resp	-702
led	-703
▁region	-704
▁sim	-705
▁reform	-706
▁adv	-707
▁ob	-708
▁help	-709
▁On	-710
▁add	-711
ajor	-712
ability	-713
▁against	-714
▁seem	-715
ized	-716
fere	-717
▁both	-718
pr	-719
▁requ	-720
ential	-721
▁ext	-722
▁redu	-723
curity	-724
▁current	-725
▁kn	-726
▁Se	-727
▁examp	-728
aking	-729
▁Russia	-730
chn	-731
▁infl	-732
▁cost	-733
▁major	-734
▁last	-735
ians	-736
▁euro	-737
rib	-738
▁capital	-739
▁partic	-740
▁conc	-741
▁change	-742
▁after	-743
ood	-744
▁milit	-745
cal	-746
les	-747
▁fund	-748
▁sign	-749
oun	-750
▁ke	-751
rael	-752
▁bo	-753
▁great	-754
orts	-755
▁trade	-756
allen	-757
utions	-758
▁ben	-759
▁good	-760
ically	-761
▁banks	-762
▁make	-763
ex	-764
▁prot	-765
▁investment	-766
▁become	-767
▁If	-768
▁example	-769
gan	-770
▁through	-771
▁social	-772
▁cre	-773
▁$	-774
▁markets	-775
▁Iran	-776
▁appro	-777
ays	-778
ty	-779
ts	-780
▁dep	-781
▁Israel	-782
ram	-783
ump	-784
▁governments	-785
day	-786
▁important	-787
ense	-788
▁hum	-789
ging	-790
ather	-791
▁cor	-792
▁fail	-793
▁instit	-794
▁techn	-795
ending	-796
▁bu	-797
▁lo	-798
▁ret	-799
▁demand	-800
▁where	-801
▁aut	-802
▁est	-803
ract	-804
gest	-805
▁President	-806
▁West	-807
▁rest	-808
▁foreign	-809
ting	-810
▁does	-811
other	-812
▁rates	-813
▁States	-814
▁fut	-815
ank	-816
ortun	-817
▁emer	-818
▁iss	-819
iness	-820
uclear	-821
▁policies	-822
ath	-823
▁leg	-824
▁sa	-825
▁Indeed	-826
▁prom	-827
less	-828
ok	-829
▁back	-830
olution	-831
▁health	-832
▁main	-833
▁offic	-834
▁military	-835
arly	-836
ulation	-837
▁every	-838
als	-839
▁More	-840
ergy	-841
▁ins	-842
▁challen	-843
ft	-844
ater	-845
▁Tr	-846
ined	-847
▁risk	-848
DP	-849
,”	-850
▁today	-851
▁future	-852
▁That	-853
ision	-854
▁cour	-855
▁differe	-856
▁still	-857
▁India	-858
ily	-859
ually	-860
▁cred	-861
▁Chinese	-862
ccess	-863
▁ord	-864
▁same	-865
▁development	-866
▁elect	-867
eg	-868
ri	-869
▁bas	-870
ron	-871
▁economies	-872
iew	-873
▁benef	-874
▁being	-875
eration	-876
ning	-877
▁American	-878
ingly	-879
▁V	-880
▁dom	-881
etary	-882
ially	-883
▁since	-884
▁neg	-885
▁strate	-886
▁set	-887
hing	-888
▁el	-889
iscal	-890
▁sm	-891
ness	-892
▁use	-893
ior	-894
fore	-895
▁rate	-896
▁strong	-897
▁nuclear	-898
▁br	-899
▁disc	-900
idd	-901
ants	-902
▁tra	-903
▁Afric	-904
▁val	-905
▁including	-906
▁might	-907
▁human	-908
bers	-909
omm	-910
▁level	-911
outh	-912
▁Germany	-913
▁ed	-914
▁ter	-915
▁bel	-916
ably	-917
ployment	-918
▁agree	-919
orth	-920
imes	-921
▁see	-922
▁commun	-923
▁low	-924
▁likely	-925
▁pur	-926
▁priv	-927
pl	-928
▁serv	-929
▁success	-930
ared	-931
).	-932
usiness	-933
inc	-934
ever	-935
ten	-936
▁East	-937
▁problem	-938
▁take	-939
▁did	-940
ready	-941
▁op	-942
not	-943
ieve	-944
▁vot	-945
▁equ	-946
▁clear	-947
▁billion	-948
▁call	-949
▁term	-950
▁prices	-951
),	-952
ell	-953
ality	-954
▁energy	-955
cept	-956
▁short	-957
▁fiscal	-958
▁3	-959
ved	-960
ctor	-961
ged	-962
▁technolog	-963
▁compet	-964
▁reas	-965
rab	-966
▁without	-967
▁pers	-968
▁made	-969
▁security	-970
▁GDP	-971
▁better	-972
ency	-973
▁threat	-974
oss	-975
▁ide	-976
lam	-977
▁point	-978
▁es	-979
arch	-980
▁central	-981
▁contro	-982
▁already	-983
▁hist	-984
▁particular	-985
rem	-986
▁Brit	-987
ertain	-988
zone	-989
rast	-990
li	-991
ving	-992
▁hig	-993
▁ser	-994
ider	-995
cond	-996
ered	-997
iddle	-998
▁poss	-999
▁know	-1000
▁product	-1001
abor	-1002
racy	-1003
▁stand	-1004
▁quest	-1005
▁ann	-1006
▁business	-1007
ges	-1008
istan	-1009
ss	-1010
ger	-1011
▁Kore	-1012
ama	-1013
▁down	-1014
▁med	-1015
ush	-1016
tern	-1017
abl	-1018
ars	-1019
hor	-1020
▁educ	-1021
▁decl	-1022
▁consum	-1023
▁Trump	-1024
ury	-1025
▁We	-1026
▁Ob	-1027
▁Int	-1028
ck	-1029
ollow	-1030
▁dire	-1031
▁ap	-1032
▁states	-1033
0%	-1034
▁then	-1035
▁prop	-1036
▁aff	-1037
▁job	-1038
▁cannot	-1039
▁rev	-1040
▁So	-1041
xt	-1042
▁indust	-1043
ents	-1044
▁arg	-1045
roup	-1046
osed	-1047
▁Gree	-1048
▁dist	-1049
mental	-1050
▁pres	-1051
▁protect	-1052
▁president	-1053
ink	-1054
▁Fr	-1055
▁Wor	-1056
ratic	-1057
▁Bank	-1058
▁often	-1059
here	-1060
ines	-1061
ivers	-1062
▁expect	-1063
▁order	-1064
▁To	-1065
▁With	-1066
▁among	-1067
land	-1068
▁They	-1069
▁imm	-1070
▁law	-1071
▁ev	-1072
▁process	-1073
ouse	-1074
▁turn	-1075
▁At	-1076
▁another	-1077
▁There	-1078
▁course	-1079
▁Sy	-1080
▁oil	-1081
lement	-1082
▁start	-1083
▁private	-1084
▁Arab	-1085
▁Asia	-1086
▁very	-1087
iron	-1088
▁three	-1089
▁few	-1090
por	-1091
▁bank	-1092
self	-1093
oney	-1094
▁fac	-1095
▁hard	-1096
▁clo	-1097
▁institutions	-1098
▁move	-1099
▁follow	-1100
ah	-1101
ience	-1102
raq	-1103
uel	-1104
▁toward	-1105
▁pot	-1106
aly	-1107
iving	-1108
ves	-1109
itions	-1110
▁allow	-1111
▁climate	-1112
▁Obama	-1113
▁impro	-1114
ead	-1115
ivid	-1116
▁view	-1117
stand	-1118
inister	-1119
▁Iraq	-1120
rug	-1121
▁ful	-1122
lection	-1123
▁199	-1124
▁before	-1125
ec	-1126
up	-1127
▁million	-1128
aps	-1129
ret	-1130
uge	-1131
▁pay	-1132
▁members	-1133
omen	-1134
▁rul	-1135
▁adm	-1136
▁av	-1137
cing	-1138
▁Moreover	-1139
hold	-1140
▁env	-1141
▁lif	-1142
ued	-1143
▁Al	-1144
anies	-1145
ute	-1146
▁monetary	-1147
▁eurozone	-1148
ades	-1149
▁rather	-1150
▁weak	-1151
ructure	-1152
▁money	-1153
▁ach	-1154
▁Union	-1155
▁increase	-1156
▁ant	-1157
▁eas	-1158
stain	-1159
▁form	-1160
▁An	-1161
▁ine	-1162
▁Islam	-1163
▁past	-1164
ages	-1165
ying	-1166
▁child	-1167
ances	-1168
▁peace	-1169
▁group	-1170
▁least	-1171
ittle	-1172
▁around	-1173
ately	-1174
▁press	-1175
▁prof	-1176
▁role	-1177
▁lim	-1178
io	-1179
▁put	-1180
ibility	-1181
▁higher	-1182
▁sustain	-1183
▁mat	-1184
ick	-1185
▁Syr	-1186
ross	-1187
most	-1188
▁num	-1189
▁approach	-1190
ources	-1191
▁societ	-1192
road	-1193
▁potential	-1194
▁though	-1195
itiz	-1196
ph	-1197
ror	-1198
▁South	-1199
▁author	-1200
urther	-1201
▁beh	-1202
ening	-1203
▁account	-1204
▁official	-1205
▁companies	-1206
▁inst	-1207
▁defic	-1208
▁vi	-1209
▁opportun	-1210
▁World	-1211
▁little	-1212
▁ens	-1213
▁inflation	-1214
▁income	-1215
▁curren	-1216
▁meas	-1217
gin	-1218
▁whether	-1219
▁effective	-1220
▁play	-1221
▁asse	-1222
▁small	-1223
▁car	-1224
ficult	-1225
pecially	-1226
▁credit	-1227
▁different	-1228
▁par	-1229
▁labor	-1230
▁Tur	-1231
▁difficult	-1232
ining	-1233
▁problems	-1234
▁signific	-1235
▁next	-1236
ished	-1237
vere	-1238
oti	-1239
ocus	-1240
akes	-1241
ides	-1242
▁establ	-1243
▁gener	-1244
▁needs	-1245
ivil	-1246
▁citiz	-1247
▁chang	-1248
▁control	-1249
▁developing	-1250
▁loc	-1251
▁Intern	-1252
▁concern	-1253
▁relations	-1254
▁ph	-1255
ering	-1256
aim	-1257
▁month	-1258
▁spec	-1259
▁gu	-1260
▁needed	-1261
alest	-1262
▁fe	-1263
▁case	-1264
▁5	-1265
▁environ	-1266
ix	-1267
▁Africa	-1268
ash	-1269
ivity	-1270
▁crit	-1271
▁conflic	-1272
ner	-1273
▁sol	-1274
▁focus	-1275
air	-1276
▁appe	-1277
▁De	-1278
ened	-1279
▁run	-1280
▁reason	-1281
▁especially	-1282
ted	-1283
▁spending	-1284
imin	-1285
estic	-1286
▁Comm	-1287
▁exper	-1288
▁He	-1289
▁simp	-1290
▁get	-1291
acy	-1292
▁ca	-1293
▁plan	-1294
idence	-1295
▁free	-1296
reed	-1297
▁France	-1298
▁address	-1299
▁democracy	-1300
ases	-1301
▁remains	-1302
▁education	-1303
▁Rep	-1304
▁cond	-1305
▁doll	-1306
▁cut	-1307
▁rise	-1308
ogn	-1309
change	-1310
▁tar	-1311
▁why	-1312
▁significant	-1313
▁share	-1314
▁non	-1315
▁Korea	-1316
▁Fed	-1317
itive	-1318
▁civil	-1319
▁rese	-1320
▁fall	-1321
▁him	-1322
▁deep	-1323
▁negoti	-1324
▁return	-1325
▁come	-1326
▁pros	-1327
▁happ	-1328
▁longer	-1329
▁When	-1330
▁during	-1331
▁poor	-1332
▁respons	-1333
for	-1334
▁emerging	-1335
▁big	-1336
▁want	-1337
sequ	-1338
▁citizens	-1339
▁domestic	-1340
▁show	-1341
itional	-1342
ird	-1343
▁costs	-1344
▁decades	-1345
▁bal	-1346
vention	-1347
▁reforms	-1348
urd	-1349
▁means	-1350
▁further	-1351
▁efforts	-1352
omet	-1353
▁mass	-1354
▁eng	-1355
▁question	-1356
ators	-1357
▁Re	-1358
▁Palest	-1359
anced	-1360
▁however	-1361
epend	-1362
ork	-1363
▁suff	-1364
▁viol	-1365
▁North	-1366
▁find	-1367
▁4	-1368
▁continue	-1369
pite	-1370
▁others	-1371
▁Sh	-1372
ission	-1373
az	-1374
▁gain	-1375
▁col	-1376
▁women	-1377
ling	-1378
▁given	-1379
▁nat	-1380
▁pat	-1381
▁build	-1382
▁key	-1383
cies	-1384
▁almost	-1385
▁progress	-1386
▁seems	-1387
vious	-1388
▁inn	-1389
▁price	-1390
▁requi	-1391
ave	-1392
▁her	-1393
▁organ	-1394
▁best	-1395
▁meet	-1396
▁sector	-1397
the	-1398
way	-1399
omes	-1400
ither	-1401
▁ago	-1402
▁second	-1403
▁camp	-1404
▁within	-1405
▁serious	-1406
▁hal	-1407
▁occ	-1408
izing	-1409
▁fam	-1410
pid	-1411
▁say	-1412
▁increasingly	-1413
▁er	-1414
▁you	-1415
arm	-1416
▁hand	-1417
ope	-1418
▁election	-1419
hes	-1420
ession	-1421
formation	-1422
000	-1423
▁hold	-1424
▁claim	-1425
▁stud	-1426
▁growing	-1427
▁dr	-1428
▁const	-1429
lf	-1430
▁yet	-1431
▁found	-1432
▁recogn	-1433
▁benefits	-1434
▁direct	-1435
▁provide	-1436
▁model	-1437
▁terror	-1438
▁One	-1439
▁my	-1440
▁agreement	-1441
▁coll	-1442
▁enough	-1443
,000	-1444
key	-1445
ided	-1446
▁Middle	-1447
▁understand	-1448
▁require	-1449
ising	-1450
ock	-1451
▁project	-1452
▁population	-1453
udget	-1454
▁care	-1455
wh	-1456
▁Part	-1457
nce	-1458
▁tru	-1459
▁prevent	-1460
▁itself	-1461
ences	-1462
▁administ	-1463
▁cho	-1464
▁lib	-1465
tain	-1466
▁treat	-1467
▁event	-1468
lim	-1469
▁particularly	-1470
▁lower	-1471
▁she	-1472
▁post	-1473
arn	-1474
▁slow	-1475
▁greater	-1476
empt	-1477
▁regime	-1478
ai	-1479
▁currency	-1480
▁sug	-1481
▁regional	-1482
selves	-1483
ipl	-1484
▁War	-1485
ool	-1486
reng	-1487
▁Yet	-1488
lus	-1489
▁While	-1490
▁Greece	-1491
▁caus	-1492
▁interests	-1493
ention	-1494
▁comple	-1495
▁consider	-1496
▁used	-1497
icient	-1498
▁regul	-1499
sp	-1500
▁life	-1501
▁terms	-1502
▁rights	-1503
ale	-1504
▁services	-1505
▁After	-1506
te	-1507
▁Pr	-1508
▁target	-1509
▁resources	-1510
▁workers	-1511
iqu	-1512
rate	-1513
▁deal	-1514
▁By	-1515
ividual	-1516
ression	-1517
▁streng	-1518
▁Turkey	-1519
▁recently	-1520
yn	-1521
ised	-1522
▁never	-1523
▁left	-1524
be	-1525
rop	-1526
▁common	-1527
rastructure	-1528
▁open	-1529
▁budget	-1530
ik	-1531
▁init	-1532
▁These	-1533
▁force	-1534
▁innov	-1535
▁min	-1536
▁number	-1537
come	-1538
▁unem	-1539
haps	-1540
ug	-1541
▁mult	-1542
▁Republic	-1543
▁gr	-1544
▁integ	-1545
▁thus	-1546
▁suggest	-1547
▁shif	-1548
verage	-1549
▁certain	-1550
ON	-1551
▁politics	-1552
▁place	-1553
0’	-1554
▁face	-1555
man	-1556
ived	-1557
▁dest	-1558
ners	-1559
▁impact	-1560
like	-1561
▁each	-1562
▁former	-1563
▁contrib	-1564
▁What	-1565
ief	-1566
▁Con	-1567
▁influ	-1568
▁access	-1569
▁Le	-1570
rench	-1571
▁ur	-1572
▁enc	-1573
▁ren	-1574
ination	-1575
▁individual	-1576
▁deb	-1577
▁simil	-1578
▁reflect	-1579
▁strateg	-1580
▁Pol	-1581
▁rapid	-1582
▁home	-1583
▁oppos	-1584
ording	-1585
cil	-1586
▁reduce	-1587
▁Western	-1588
5%	-1589
▁accept	-1590
▁tal	-1591
▁relative	-1592
▁local	-1593
▁Palestin	-1594
ban	-1595
oming	-1596
omp	-1597
▁children	-1598
ier	-1599
▁spe	-1600
▁possible	-1601
where	-1602
▁bl	-1603
ateral	-1604
atives	-1605
▁history	-1606
▁char	-1607
ends	-1608
▁begin	-1609
▁broad	-1610
▁oper	-1611
ased	-1612
▁New	-1613
ified	-1614
▁industr	-1615
▁conflict	-1616
aign	-1617
iate	-1618
ield	-1619
▁sec	-1620
▁pred	-1621
utin	-1622
▁risks	-1623
akistan	-1624
▁Syria	-1625
▁value	-1626
▁extrem	-1627
▁report	-1628
oura	-1629
▁dang	-1630
▁infrastructure	-1631
kra	-1632
▁society	-1633
▁UN	-1634
▁unt	-1635
▁fear	-1636
▁stability	-1637
▁necess	-1638
ceed	-1639
ises	-1640
aged	-1641
▁coop	-1642
▁implement	-1643
▁somet	-1644
▁6	-1645
▁ru	-1646
akers	-1647
▁campaign	-1648
▁Ukra	-1649
▁strategy	-1650
aken	-1651
▁challenges	-1652
▁themselves	-1653
▁exchange	-1654
▁che	-1655
iation	-1656
▁issues	-1657
▁jobs	-1658
▁mean	-1659
▁lack	-1660
iod	-1661
▁sav	-1662
▁fl	-1663
ront	-1664
▁create	-1665
▁cult	-1666
gypt	-1667
▁forces	-1668
▁once	-1669
▁Pakistan	-1670
▁half	-1671
▁funda	-1672
▁consequ	-1673
▁bor	-1674
▁member	-1675
▁Even	-1676
▁Cent	-1677
ards	-1678
▁Ar	-1679
-2	-1680
cent	-1681
oid	-1682
▁head	-1683
▁Egypt	-1684
▁sense	-1685
▁bond	-1686
onal	-1687
▁investors	-1688
ata	-1689
abil	-1690
▁ever	-1691
▁struct	-1692
▁democratic	-1693
ats	-1694
uslim	-1695
▁independ	-1696
▁saf	-1697
▁step	-1698
▁sch	-1699
▁led	-1700
▁research	-1701
▁repres	-1702
▁la	-1703
0.	-1704
istic	-1705
▁French	-1706
lation	-1707
▁early	-1708
ways	-1709
▁house	-1710
▁program	-1711
▁Fin	-1712
▁leadership	-1713
ys	-1714
ins	-1715
▁administration	-1716
overty	-1717
▁ensure	-1718
▁rising	-1719
▁able	-1720
▁levels	-1721
▁Minister	-1722
▁2008	-1723
side	-1724
▁dev	-1725
▁old	-1726
▁politic	-1727
▁unemployment	-1728
ently	-1729
erve	-1730
▁action	-1731
▁believe	-1732
▁wr	-1733
oral	-1734
▁fight	-1735
▁wealth	-1736
▁exist	-1737
arian	-1738
▁achieve	-1739
▁keep	-1740
conomic	-1741
ilateral	-1742
▁bring	-1743
▁commit	-1744
gether	-1745
▁decision	-1746
▁together	-1747
▁community	-1748
▁popul	-1749
▁improve	-1750
▁emb	-1751
▁rules	-1752
▁net	-1753
▁dou	-1754
▁purs	-1755
▁maintain	-1756
▁British	-1757
▁finance	-1758
▁Muslim	-1759
▁disp	-1760
▁comb	-1761
▁sit	-1762
▁Bush	-1763
▁Putin	-1764
▁modern	-1765
▁expl	-1766
acc	-1767
▁youn	-1768
emoc	-1769
▁anti	-1770
▁land	-1771
▁vict	-1772
▁close	-1773
▁bre	-1774
▁similar	-1775
▁challenge	-1776
to	-1777
▁dollar	-1778
dom	-1779
▁issue	-1780
▁making	-1781
yond	-1782
▁gra	-1783
makers	-1784
irst	-1785
▁times	-1786
▁century	-1787
▁met	-1788
▁simply	-1789
▁measures	-1790
▁stat	-1791
▁198	-1792
▁blo	-1793
oint	-1794
uation	-1795
▁constit	-1796
though	-1797
▁poverty	-1798
▁fuel	-1799
▁recover	-1800
rodu	-1801
▁danger	-1802
raw	-1803
▁four	-1804
▁across	-1805
▁corpor	-1806
▁International	-1807
▁boost	-1808
iplom	-1809
▁increased	-1810
▁full	-1811
cial	-1812
▁balance	-1813
ival	-1814
▁unc	-1815
▁rule	-1816
▁data	-1817
▁food	-1818
utional	-1819
▁period	-1820
acks	-1821
▁hope	-1822
▁ident	-1823
▁pract	-1824
▁Some	-1825
▁establish	-1826
incip	-1827
MF	-1828
▁five	-1829
▁weap	-1830
RI	-1831
▁Of	-1832
▁technology	-1833
▁decade	-1834
isions	-1835
ler	-1836
▁loss	-1837
▁systems	-1838
▁sl	-1839
issions	-1840
bon	-1841
ium	-1842
rupt	-1843
▁top	-1844
▁Britain	-1845
▁German	-1846
▁aim	-1847
▁employment	-1848
just	-1849
▁else	-1850
▁Russian	-1851
▁IMF	-1852
▁based	-1853
ively	-1854
▁Ukraine	-1855
veral	-1856
▁bord	-1857
▁always	-1858
▁sure	-1859
▁sovere	-1860
▁$1	-1861
aring	-1862
mm	-1863
▁Party	-1864
▁Sp	-1865
ee	-1866
onse	-1867
ctions	-1868
wise	-1869
quality	-1870
▁diplom	-1871
▁princip	-1872
▁true	-1873
▁self	-1874
ended	-1875
▁7	-1876
▁encoura	-1877
▁opportunity	-1878
then	-1879
▁despite	-1880
▁manage	-1881
▁information	-1882
aud	-1883
▁ty	-1884
▁party	-1885
▁parties	-1886
▁relig	-1887
▁sing	-1888
by	-1889
aster	-1890
▁liberal	-1891
▁Or	-1892
▁abs	-1893
▁dise	-1894
arent	-1895
ming	-1896
▁regard	-1897
▁response	-1898
▁refuge	-1899
▁pressure	-1900
oh	-1901
▁Central	-1902
▁tre	-1903
▁avoid	-1904
▁position	-1905
▁bar	-1906
▁advanced	-1907
▁conditions	-1908
▁adop	-1909
▁areas	-1910
▁firms	-1911
▁En	-1912
uing	-1913
▁amount	-1914
▁rece	-1915
▁Afgh	-1916
▁developed	-1917
illions	-1918
▁called	-1919
▁bad	-1920
acity	-1921
▁promot	-1922
▁invol	-1923
irc	-1924
▁entire	-1925
lia	-1926
ighb	-1927
▁groups	-1928
▁school	-1929
▁deficit	-1930
▁sk	-1931
▁said	-1932
▁supply	-1933
▁Americans	-1934
▁young	-1935
▁dam	-1936
▁histor	-1937
lt	-1938
▁Coun	-1939
▁officials	-1940
raz	-1941
rated	-1942
▁consumption	-1943
▁done	-1944
▁Afghan	-1945
▁All	-1946
iting	-1947
▁strengthen	-1948
▁tot	-1949
▁Council	-1950
pped	-1951
ource	-1952
iveness	-1953
▁Cl	-1954
ned	-1955
▁vis	-1956
▁assets	-1957
▁effort	-1958
▁kind	-1959
▁whose	-1960
▁var	-1961
▁consequences	-1962
rag	-1963
▁Q	-1964
▁mar	-1965
▁effects	-1966
▁productivity	-1967
▁norm	-1968
▁average	-1969
▁Fund	-1970
▁politicians	-1971
mber	-1972
▁taken	-1973
ured	-1974
ify	-1975
▁cause	-1976
ented	-1977
ean	-1978
▁ill	-1979
▁until	-1980
▁UK	-1981
rams	-1982
▁Res	-1983
CB	-1984
▁single	-1985
▁ess	-1986
▁think	-1987
▁leading	-1988
▁unlike	-1989
▁export	-1990
ruption	-1991
▁requires	-1992
▁production	-1993
lev	-1994
▁working	-1995
▁cooperation	-1996
▁look	-1997
▁reach	-1998
▁creat	-1999
▁several	-2000
▁weapons	-2001
▁Pro	-2002
▁demon	-2003
▁annual	-2004
▁borrow	-2005
reg	-2006
▁neighb	-2007
▁largest	-2008
▁structural	-2009
▁test	-2010
▁failed	-2011
razil	-2012
▁Prime	-2013
▁coal	-2014
▁created	-2015
▁respect	-2016
▁changes	-2017
oday	-2018
▁ways	-2019
0,	-2020
▁Such	-2021
▁largely	-2022
▁Cong	-2023
▁drug	-2024
▁assum	-2025
▁successful	-2026
imul	-2027
▁fav	-2028
▁Many	-2029
▁powerful	-2030
▁household	-2031
▁opposition	-2032
▁policymakers	-2033
rade	-2034
ched	-2035
liament	-2036
▁excess	-2037
▁Today	-2038
▁class	-2039
▁water	-2040
▁voters	-2041
▁Z	-2042
▁don	-2043
▁Democ	-2044
▁influence	-2045
▁Bar	-2046
▁months	-2047
▁attempt	-2048
▁popular	-2049
▁counter	-2050
▁King	-2051
istance	-2052
▁emissions	-2053
▁197	-2054
down	-2055
▁Par	-2056
▁death	-2057
▁leader	-2058
▁banking	-2059
mb	-2060
ored	-2061
▁agg	-2062
med	-2063
wide	-2064
▁fundamental	-2065
ne	-2066
▁Ge	-2067
igr	-2068
aging	-2069
ensive	-2070
▁prob	-2071
▁debate	-2072
▁perform	-2073
iding	-2074
market	-2075
▁total	-2076
▁massive	-2077
ds	-2078
▁8	-2079
omb	-2080
▁scient	-2081
▁programs	-2082
▁prec	-2083
▁initi	-2084
rec	-2085
▁alone	-2086
▁beyond	-2087
▁behav	-2088
▁day	-2089
▁gre	-2090
▁demonst	-2091
▁particip	-2092
iversity	-2093
▁Ab	-2094
▁determ	-2095
▁flow	-2096
uted	-2097
▁Asian	-2098
▁stimul	-2099
▁capacity	-2100
▁Nations	-2101
▁Islamic	-2102
▁Brazil	-2103
▁transp	-2104
▁agend	-2105
▁violence	-2106
sid	-2107
ortunately	-2108
▁necessary	-2109
▁environment	-2110
▁makes	-2111
▁perhaps	-2112
arily	-2113
▁Given	-2114
▁live	-2115
▁partners	-2116
TO	-2117
▁affect	-2118
▁strategic	-2119
ruction	-2120
▁relationship	-2121
ember	-2122
▁ECB	-2123
▁kill	-2124
alled	-2125
igration	-2126
hood	-2127
atory	-2128
▁having	-2129
▁expected	-2130
ya	-2131
inking	-2132
▁proper	-2133
▁industry	-2134
▁pass	-2135
thing	-2136
verse	-2137
▁lives	-2138
1,	-2139
fer	-2140
reedom	-2141
▁object	-2142
▁failure	-2143
▁Japanese	-2144
exic	-2145
▁away	-2146
ene	-2147
▁goods	-2148
▁shift	-2149
▁Saud	-2150
▁quick	-2151
▁natural	-2152
▁mov	-2153
▁funds	-2154
▁media	-2155
▁majority	-2156
▁opt	-2157
itted	-2158
andid	-2159
▁ability	-2160
▁sustainable	-2161
ories	-2162
ously	-2163
▁idea	-2164
▁prim	-2165
▁expand	-2166
▁decline	-2167
cl	-2168
▁Now	-2169
▁rad	-2170
▁essential	-2171
▁give	-2172
▁underm	-2173
▁Italy	-2174
ris	-2175
▁Cons	-2176
▁propos	-2177
▁exports	-2178
ien	-2179
▁Inst	-2180
▁Mexic	-2181
▁began	-2182
▁mis	-2183
▁Acc	-2184
▁seen	-2185
▁activ	-2186
▁willing	-2187
▁ten	-2188
oviet	-2189
▁huge	-2190
▁cy	-2191
▁del	-2192
ledge	-2193
▁candid	-2194
▁gas	-2195
▁san	-2196
▁win	-2197
▁Mon	-2198
▁benefit	-2199
gent	-2200
▁soon	-2201
▁ult	-2202
▁negotiations	-2203
de	-2204
set	-2205
att	-2206
lying	-2207
▁Afghanistan	-2208
▁clos	-2209
▁surpr	-2210
60	-2211
▁aid	-2212
▁How	-2213
▁altern	-2214
▁lost	-2215
▁elections	-2216
owers	-2217
▁break	-2218
▁Instead	-2219
▁inequality	-2220
▁depend	-2221
▁governance	-2222
▁jud	-2223
▁predict	-2224
▁increasing	-2225
▁legit	-2226
▁subst	-2227
▁prosper	-2228
▁eth	-2229
▁incent	-2230
▁circ	-2231
▁perm	-2232
▁rich	-2233
▁discuss	-2234
▁news	-2235
▁nearly	-2236
▁evidence	-2237
▁later	-2238
▁Pe	-2239
▁either	-2240
▁obs	-2241
oring	-2242
▁agenda	-2243
▁Palestinian	-2244
▁innovation	-2245
sw	-2246
▁solution	-2247
▁protection	-2248
fact	-2249
▁doing	-2250
▁feel	-2251
▁legal	-2252
▁occur	-2253
▁mom	-2254
▁vol	-2255
▁fram	-2256
▁design	-2257
▁recovery	-2258
▁economists	-2259
▁prior	-2260
ton	-2261
▁unp	-2262
▁taking	-2263
▁ear	-2264
▁contrast	-2265
▁argu	-2266
▁path	-2267
▁bonds	-2268
▁Like	-2269
▁reven	-2270
▁Commission	-2271
▁amb	-2272
▁wide	-2273
▁taxes	-2274
put	-2275
line	-2276
▁union	-2277
▁became	-2278
▁wee	-2279
▁Lib	-2280
ream	-2281
ape	-2282
▁NA	-2283
▁State	-2284
▁experience	-2285
▁authorities	-2286
▁environmental	-2287
▁third	-2288
▁respond	-2289
go	-2290
lies	-2291
itarian	-2292
▁something	-2293
▁exc	-2294
▁prospect	-2295
rugg	-2296
based	-2297
▁Develop	-2298
▁revolution	-2299
▁behavior	-2300
▁industrial	-2301
▁comes	-2302
▁insur	-2303
ody	-2304
▁owing	-2305
apse	-2306
▁extreme	-2307
▁Congress	-2308
▁read	-2309
uster	-2310
▁side	-2311
▁represent	-2312
▁really	-2313
▁general	-2314
lin	-2315
ternal	-2316
▁living	-2317
▁vote	-2318
rought	-2319
▁along	-2320
▁nothing	-2321
chan	-2322
▁late	-2323
▁First	-2324
▁powers	-2325
▁Kingdom	-2326
▁9	-2327
▁domin	-2328
▁stock	-2329
▁trillion	-2330
▁globalization	-2331
▁vir	-2332
right	-2333
▁wrong	-2334
▁middle	-2335
erves	-2336
▁ground	-2337
▁recession	-2338
▁values	-2339
▁Geor	-2340
▁super	-2341
▁highly	-2342
▁strugg	-2343
▁indic	-2344
▁behind	-2345
▁employ	-2346
▁immed	-2347
▁probably	-2348
zer	-2349
nect	-2350
▁Soviet	-2351
min	-2352
▁sw	-2353
▁cru	-2354
▁things	-2355
aced	-2356
▁Lat	-2357
▁rat	-2358
ieved	-2359
▁trend	-2360
▁freedom	-2361
▁investments	-2362
▁attack	-2363
▁di	-2364
▁estim	-2365
▁advant	-2366
▁presidential	-2367
▁situation	-2368
▁integration	-2369
▁goal	-2370
▁shar	-2371
▁Saudi	-2372
▁skill	-2373
▁traditional	-2374
▁laun	-2375
▁subsid	-2376
▁ge	-2377
▁X	-2378
head	-2379
ina	-2380
ricult	-2381
▁opportunities	-2382
▁den	-2383
▁analy	-2384
▁Ag	-2385
▁tem	-2386
izations	-2387
ring	-2388
▁moment	-2389
ufact	-2390
▁record	-2391
▁previous	-2392
het	-2393
▁complex	-2394
ls	-2395
▁actually	-2396
arant	-2397
▁collapse	-2398
while	-2399
▁minister	-2400
▁Security	-2401
aving	-2402
force	-2403
▁matter	-2404
▁territ	-2405
▁cases	-2406
ung	-2407
▁substant	-2408
▁using	-2409
▁National	-2410
▁indeed	-2411
▁reality	-2412
▁corporate	-2413
af	-2414
imately	-2415
▁deficits	-2416
ctors	-2417
▁worse	-2418
▁include	-2419
▁larger	-2420
ets	-2421
icy	-2422
▁Global	-2423
▁uncertain	-2424
olit	-2425
▁men	-2426
▁arr	-2427
▁ask	-2428
ology	-2429
▁status	-2430
agn	-2431
aid	-2432
▁mob	-2433
▁sett	-2434
▁limited	-2435
▁attention	-2436
▁resol	-2437
ological	-2438
▁following	-2439
iance	-2440
▁host	-2441
▁took	-2442
▁protest	-2443
▁sharp	-2444
ulner	-2445
▁adjust	-2446
▁jo	-2447
ones	-2448
▁Per	-2449
▁conv	-2450
▁lat	-2451
▁held	-2452
▁guarant	-2453
▁outcome	-2454
▁manufact	-2455
mp	-2456
ension	-2457
▁standards	-2458
OR	-2459
▁prep	-2460
leg	-2461
▁NE	-2462
▁learn	-2463
▁ign	-2464
▁mechan	-2465
▁coming	-2466
▁Latin	-2467
ception	-2468
▁According	-2469
▁near	-2470
▁Israeli	-2471
▁concerns	-2472
▁Be	-2473
iquid	-2474
▁answ	-2475
▁avail	-2476
▁known	-2477
▁external	-2478
▁relatively	-2479
▁mere	-2480
▁corruption	-2481
▁miss	-2482
▁religious	-2483
▁NEW	-2484
▁rein	-2485
lig	-2486
▁repl	-2487
ification	-2488
ired	-2489
▁stop	-2490
▁favor	-2491
▁cat	-2492
▁competition	-2493
▁African	-2494
▁burd	-2495
▁deli	-2496
▁purch	-2497
&#	-2498
▁air	-2499
▁fed	-2500
▁legis	-2501
▁mist	-2502
▁quickly	-2503
▁movement	-2504
▁reducing	-2505
▁collect	-2506
5,	-2507
▁offer	-2508
year	-2509
▁vulner	-2510
plus	-2511
called	-2512
▁Sim	-2513
▁announ	-2514
▁attract	-2515
▁decisions	-2516
▁framew	-2517
▁asset	-2518
igrants	-2519
▁results	-2520
iated	-2521
use	-2522
▁cities	-2523
▁confidence	-2524
unction	-2525
▁obvious	-2526
ters	-2527
▁explain	-2528
▁commitment	-2529
▁produce	-2530
▁Ad	-2531
▁easy	-2532
▁unlikely	-2533
▁intervention	-2534
▁-	-2535
▁let	-2536
arter	-2537
▁rough	-2538
▁meeting	-2539
ext	-2540
ator	-2541
ault	-2542
▁Mexico	-2543
▁critical	-2544
▁came	-2545
▁defense	-2546
▁refugees	-2547
▁May	-2548
▁expans	-2549
▁mind	-2550
▁Spain	-2551
▁words	-2552
▁ve	-2553
▁Barack	-2554
▁Development	-2555
ots	-2556
▁suc	-2557
▁attacks	-2558
▁Ham	-2559
ensus	-2560
▁above	-2561
▁div	-2562
▁certainly	-2563
▁agricult	-2564
▁technologies	-2565
▁nar	-2566
AN	-2567
kn	-2568
oy	-2569
▁Most	-2570
▁surplus	-2571
▁worldwide	-2572
▁beginning	-2573
▁financing	-2574
▁responsibility	-2575
▁Sc	-2576
▁reb	-2577
ech	-2578
▁ir	-2579
▁Since	-2580
▁caused	-2581
▁dangerous	-2582
sh	-2583
▁cuts	-2584
▁succeed	-2585
▁sovereign	-2586
▁established	-2587
my	-2588
▁becoming	-2589
▁line	-2590
▁sent	-2591
▁reserves	-2592
▁elsewhere	-2593
osing	-2594
▁desc	-2595
▁NATO	-2596
▁surv	-2597
▁currently	-2598
ries	-2599
usterity	-2600
lex	-2601
orn	-2602
ached	-2603
ressed	-2604
▁Great	-2605
▁Greek	-2606
▁continued	-2607
▁negative	-2608
▁reject	-2609
▁Europeans	-2610
rary	-2611
▁cal	-2612
ought	-2613
▁mechanism	-2614
▁enter	-2615
▁products	-2616
▁projects	-2617
hest	-2618
vest	-2619
▁age	-2620
app	-2621
▁dyn	-2622
▁reasons	-2623
ees	-2624
▁liquid	-2625
lier	-2626
▁millions	-2627
itable	-2628
une	-2629
bi	-2630
action	-2631
▁univers	-2632
▁expansion	-2633
▁cle	-2634
▁sanctions	-2635
9,	-2636
▁heav	-2637
▁hous	-2638
▁doubt	-2639
▁Although	-2640
▁creating	-2641
50	-2642
utes	-2643
▁fig	-2644
▁days	-2645
▁basic	-2646
▁roughly	-2647
▁art	-2648
ancing	-2649
val	-2650
▁carbon	-2651
▁Internet	-2652
▁recognize	-2653
▁dram	-2654
income	-2655
▁No	-2656
▁six	-2657
▁2012	-2658
▁clearly	-2659
ici	-2660
▁uns	-2661
▁refere	-2662
rex	-2663
ison	-2664
acter	-2665
▁tool	-2666
nces	-2667
oph	-2668
▁typ	-2669
▁spread	-2670
▁brought	-2671
fortunately	-2672
▁summ	-2673
▁tend	-2674
ordin	-2675
▁competit	-2676
acro	-2677
part	-2678
rain	-2679
▁Govern	-2680
retary	-2681
▁below	-2682
▁organizations	-2683
loc	-2684
▁ce	-2685
oking	-2686
ane	-2687
uth	-2688
▁fair	-2689
▁repe	-2690
▁helped	-2691
▁deg	-2692
▁won	-2693
▁knowledge	-2694
▁parliament	-2695
▁Ex	-2696
ature	-2697
▁outside	-2698
▁thing	-2699
▁Monetary	-2700
▁alternative	-2701
DG	-2702
ensions	-2703
rats	-2704
erate	-2705
▁moral	-2706
▁gradu	-2707
▁disease	-2708
▁introdu	-2709
▁everyone	-2710
▁personal	-2711
-1	-2712
ogra	-2713
ressive	-2714
▁creation	-2715
▁performance	-2716
..	-2717
erc	-2718
aries	-2719
▁positive	-2720
▁bi	-2721
▁twent	-2722
▁1.	-2723
▁det	-2724
▁family	-2725
▁forced	-2726
▁red	-2727
▁renew	-2728
▁severe	-2729
hem	-2730
▁source	-2731
rep	-2732
▁mess	-2733
▁II	-2734
▁choice	-2735
▁victory	-2736
▁required	-2737
▁independence	-2738
ands	-2739
add	-2740
▁special	-2741
▁proposed	-2742
enh	-2743
▁elimin	-2744
▁18	-2745
▁raise	-2746
▁implic	-2747
▁existing	-2748
rist	-2749
▁assoc	-2750
▁basis	-2751
3,	-2752
4,	-2753
▁expert	-2754
▁company	-2755
▁according	-2756
▁Mean	-2757
▁crises	-2758
▁output	-2759
▁building	-2760
els	-2761
▁allowed	-2762
▁stimulus	-2763
▁Sw	-2764
used	-2765
iment	-2766
light	-2767
▁distrib	-2768
▁austerity	-2769
▁businesses	-2770
▁Des	-2771
▁federal	-2772
ites	-2773
▁continues	-2774
cer	-2775
ony	-2776
atically	-2777
▁Federal	-2778
▁thereby	-2779
▁Economic	-2780
▁framework	-2781
▁prosperity	-2782
-20	-2783
eneral	-2784
▁Second	-2785
▁thought	-2786
▁Meanwhile	-2787
▁Republican	-2788
160	-2789
pro	-2790
160;	-2791
▁Arabia	-2792
▁commod	-2793
aper	-2794
▁answer	-2795
▁person	-2796
equ	-2797
▁scale	-2798
▁trust	-2799
▁science	-2800
▁generation	-2801
▁available	-2802
encies	-2803
economic	-2804
▁transform	-2805
▁gains	-2806
▁institutional	-2807
▁advantage	-2808
▁Dep	-2809
ortion	-2810
%.	-2811
▁Leban	-2812
▁rapidly	-2813
ilt	-2814
rexit	-2815
▁leave	-2816
ptember	-2817
▁allies	-2818
ox	-2819
ograph	-2820
▁center	-2821
▁fully	-2822
▁Other	-2823
sy	-2824
ann	-2825
▁mal	-2826
making	-2827
▁minor	-2828
▁office	-2829
▁forward	-2830
▁additional	-2831
osp	-2832
ilities	-2833
▁mot	-2834
▁factors	-2835
▁societies	-2836
omin	-2837
▁argue	-2838
▁dynam	-2839
▁radical	-2840
▁provided	-2841
par	-2842
pol	-2843
ients	-2844
lling	-2845
▁Indian	-2846
▁agreed	-2847
unn	-2848
&#160;	-2849
▁September	-2850
▁independent	-2851
▁individuals	-2852
IN	-2853
erb	-2854
▁damage	-2855
▁Ass	-2856
▁Aust	-2857
duct	-2858
▁Sec	-2859
▁internal	-2860
ibly	-2861
▁incentives	-2862
ili	-2863
zero	-2864
▁extra	-2865
▁questions	-2866
of	-2867
▁simple	-2868
▁Can	-2869
▁Hamas	-2870
▁imposs	-2871
phas	-2872
rust	-2873
▁Rev	-2874
▁afford	-2875
▁Unfortunately	-2876
off	-2877
▁Mar	-2878
▁cover	-2879
▁contain	-2880
▁technological	-2881
▁contract	-2882
▁imper	-2883
▁recon	-2884
▁management	-2885
hens	-2886
▁virt	-2887
undred	-2888
▁funding	-2889
▁explo	-2890
▁vision	-2891
▁savings	-2892
▁subject	-2893
lled	-2894
▁netw	-2895
▁macro	-2896
▁instead	-2897
▁aimed	-2898
▁eventually	-2899
▁harm	-2900
▁vast	-2901
▁worth	-2902
▁solutions	-2903
▁bub	-2904
▁buy	-2905
▁unf	-2906
▁hy	-2907
▁mark	-2908
▁deliver	-2909
ustain	-2910
▁supposed	-2911
oks	-2912
unt	-2913
ott	-2914
▁inev	-2915
▁pain	-2916
lusion	-2917
▁conserv	-2918
ventional	-2919
▁households	-2920
emic	-2921
▁link	-2922
▁engage	-2923
▁increases	-2924
▁insurance	-2925
sc	-2926
▁farm	-2927
▁ideas	-2928
▁dollars	-2929
▁transition	-2930
▁effectively	-2931
▁earn	-2932
▁stronger	-2933
▁ahead	-2934
ellig	-2935
▁2007	-2936
▁wages	-2937
▁legitim	-2938
▁reduced	-2939
▁trou	-2940
aterial	-2941
onald	-2942
▁claims	-2943
iety	-2944
▁emp	-2945
▁boom	-2946
▁orig	-2947
▁loans	-2948
▁thous	-2949
▁assess	-2950
▁facing	-2951
▁Finally	-2952
▁seek	-2953
▁Simil	-2954
▁flows	-2955
▁nor	-2956
gence	-2957
▁exec	-2958
ashing	-2959
ishing	-2960
▁crucial	-2961
▁talks	-2962
▁losses	-2963
▁overall	-2964
▁providing	-2965
▁diplomatic	-2966
▁Tw	-2967
▁burden	-2968
▁emphas	-2969
▁authority	-2970
olid	-2971
▁Med	-2972
▁phys	-2973
▁engine	-2974
▁appears	-2975
▁$2	-2976
▁critic	-2977
▁consensus	-2978
▁economics	-2979
hel	-2980
▁road	-2981
▁widely	-2982
▁dict	-2983
▁mort	-2984
▁points	-2985
▁borders	-2986
▁precise	-2987
iter	-2988
▁commer	-2989
▁normal	-2990
▁restric	-2991
▁Just	-2992
▁impossible	-2993
ellect	-2994
ohn	-2995
oot	-2996
▁Jew	-2997
▁whole	-2998
▁chance	-2999
▁reached	-3000
opolit	-3001
▁matters	-3002
▁12	-3003
ware	-3004
▁goals	-3005
▁shared	-3006
nb	-3007
itud	-3008
▁draw	-3009
▁elected	-3010
▁terrorism	-3011
▁Not	-3012
▁housing	-3013
▁communities	-3014
%,	-3015
▁nature	-3016
▁suggests	-3017
▁character	-3018
umb	-3019
▁area	-3020
▁urban	-3021
▁sectors	-3022
▁Ke	-3023
care	-3024
▁era	-3025
▁connect	-3026
▁Likewise	-3027
▁Secretary	-3028
aff	-3029
rel	-3030
ried	-3031
▁culture	-3032
▁193	-3033
▁hop	-3034
▁border	-3035
▁events	-3036
▁turned	-3037
▁Nor	-3038
▁appear	-3039
▁Despite	-3040
▁Reserve	-3041
▁material	-3042
ask	-3043
▁Clint	-3044
▁sound	-3045
▁stable	-3046
▁followed	-3047
▁neighbors	-3048
▁activities	-3049
▁minim	-3050
▁occup	-3051
▁liquidity	-3052
eng	-3053
cont	-3054
rest	-3055
▁hundred	-3056
do	-3057
▁Ro	-3058
▁cross	-3059
uk	-3060
▁wat	-3061
▁describ	-3062
abilities	-3063
▁thinking	-3064
▁politically	-3065
oman	-3066
onents	-3067
▁service	-3068
▁directly	-3069
▁consumers	-3070
▁regulation	-3071
sector	-3072
▁industries	-3073
▁My	-3074
augh	-3075
▁Clinton	-3076
▁limit	-3077
▁Palestinians	-3078
▁significantly	-3079
▁sal	-3080
▁Commun	-3081
5.	-3082
▁gap	-3083
▁list	-3084
▁yield	-3085
▁consumer	-3086
▁mid	-3087
▁coup	-3088
▁study	-3089
▁consist	-3090
aul	-3091
▁Gaz	-3092
▁pus	-3093
▁parts	-3094
▁bro	-3095
▁divid	-3096
▁nation	-3097
▁constra	-3098
den	-3099
▁fix	-3100
▁deter	-3101
▁quality	-3102
▁196	-3103
arity	-3104
celer	-3105
▁your	-3106
▁encourage	-3107
▁rob	-3108
lands	-3109
minbi	-3110
rehens	-3111
▁wants	-3112
▁withd	-3113
pping	-3114
nbsp	-3115
asion	-3116
▁fast	-3117
▁prime	-3118
▁equity	-3119
▁seemed	-3120
elt	-3121
▁fri	-3122
▁skills	-3123
▁intellect	-3124
▁plans	-3125
account	-3126
▁primary	-3127
▁throughout	-3128
cle	-3129
▁trying	-3130
▁Net	-3131
▁tro	-3132
▁experien	-3133
▁difference	-3134
▁ultimately	-3135
vert	-3136
fully	-3137
going	-3138
▁regions	-3139
▁warming	-3140
▁referend	-3141
ulated	-3142
▁agreements	-3143
▁responsible	-3144
▁understanding	-3145
▁ste	-3146
▁heart	-3147
century	-3148
▁front	-3149
iciency	-3150
▁Sen	-3151
▁vital	-3152
▁competitive	-3153
cher	-3154
▁Col	-3155
▁John	-3156
▁direction	-3157
▁efficient	-3158
▁Mal	-3159
▁complete	-3160
▁name	-3161
▁committed	-3162
aces	-3163
▁enh	-3164
ustom	-3165
▁pursue	-3166
▁Lebanon	-3167
▁provides	-3168
auc	-3169
▁Pl	-3170
▁poll	-3171
▁soft	-3172
▁easily	-3173
▁conduct	-3174
ORK	-3175
rect	-3176
▁wars	-3177
▁sides	-3178
▁summit	-3179
sec	-3180
war	-3181
eria	-3182
▁Soc	-3183
▁size	-3184
nder	-3185
▁From	-3186
▁YORK	-3187
▁bail	-3188
▁poore	-3189
▁circum	-3190
▁minist	-3191
▁manufacturing	-3192
ocks	-3193
▁Only	-3194
▁scen	-3195
▁Though	-3196
▁trig	-3197
▁Paris	-3198
▁Korean	-3199
▁Syrian	-3200
▁destro	-3201
▁steps	-3202
▁argued	-3203
▁seeking	-3204
▁flo	-3205
▁contrary	-3206
▁intellig	-3207
▁renminbi	-3208
▁bilateral	-3209
▁reduction	-3210
▁city	-3211
▁jour	-3212
illing	-3213
▁default	-3214
▁sufficient	-3215
▁vulnerable	-3216
▁Over	-3217
▁confront	-3218
▁treatment	-3219
▁importance	-3220
bo	-3221
▁targets	-3222
▁standard	-3223
▁2000	-3224
▁save	-3225
▁separ	-3226
ops	-3227
▁Sunn	-3228
atever	-3229
ovember	-3230
▁People	-3231
1.	-3232
▁purp	-3233
cember	-3234
▁embra	-3235
▁extent	-3236
▁excessive	-3237
sis	-3238
▁safe	-3239
ustainable	-3240
▁competitiveness	-3241
▁zero	-3242
▁actions	-3243
▁argument	-3244
▁legitimacy	-3245
holders	-3246
▁produced	-3247
ender	-3248
▁laws	-3249
idency	-3250
▁quant	-3251
▁Christ	-3252
▁meaning	-3253
iff	-3254
▁fre	-3255
antic	-3256
▁push	-3257
▁December	-3258
▁reflects	-3259
SE	-3260
▁15	-3261
▁enorm	-3262
▁November	-3263
▁terrorist	-3264
lif	-3265
urs	-3266
angu	-3267
▁displ	-3268
▁story	-3269
lements	-3270
▁secure	-3271
airs	-3272
enth	-3273
▁dig	-3274
▁core	-3275
▁reve	-3276
▁going	-3277
▁oblig	-3278
hern	-3279
▁promote	-3280
▁immediate	-3281
▁Thus	-3282
▁demands	-3283
▁advoc	-3284
▁focused	-3285
▁pattern	-3286
lusive	-3287
▁perman	-3288
▁sources	-3289
▁intellectual	-3290
nic	-3291
▁takes	-3292
▁faster	-3293
▁origin	-3294
▁Similarly	-3295
▁historical	-3296
ety	-3297
▁sens	-3298
racies	-3299
▁saving	-3300
▁cultural	-3301
6,	-3302
porary	-3303
ique	-3304
▁defe	-3305
▁port	-3306
▁truth	-3307
▁Brexit	-3308
▁falling	-3309
▁property	-3310
pay	-3311
▁Trade	-3312
▁withdraw	-3313
▁subsidies	-3314
▁assistance	-3315
▁scientific	-3316
fficient	-3317
▁referendum	-3318
▁try	-3319
order	-3320
▁tell	-3321
▁anything	-3322
▁structure	-3323
▁substantial	-3324
▁shows	-3325
▁George	-3326
▁apprec	-3327
▁Perhaps	-3328
▁acceler	-3329
▁compared	-3330
▁creditors	-3331
men	-3332
▁His	-3333
▁imag	-3334
▁serve	-3335
▁lending	-3336
▁students	-3337
▁therefore	-3338
▁regulatory	-3339
uses	-3340
▁mut	-3341
▁here	-3342
▁whom	-3343
▁House	-3344
▁apparent	-3345
▁principle	-3346
▁multilateral	-3347
ita	-3348
▁frag	-3349
▁option	-3350
▁coalition	-3351
▁sometimes	-3352
▁Argent	-3353
▁merely	-3354
▁partly	-3355
▁30	-3356
▁Kh	-3357
▁Eng	-3358
ights	-3359
▁York	-3360
▁opin	-3361
▁stabil	-3362
▁neither	-3363
▁continent	-3364
▁commercial	-3365
▁log	-3366
▁limits	-3367
▁adopted	-3368
▁Its	-3369
gency	-3370
▁paid	-3371
▁calls	-3372
▁field	-3373
▁models	-3374
▁prospects	-3375
edly	-3376
▁latest	-3377
▁surve	-3378
▁margin	-3379
▁biggest	-3380
▁electric	-3381
ira	-3382
▁sou	-3383
oses	-3384
▁mer	-3385
state	-3386
cast	-3387
izes	-3388
▁batt	-3389
▁game	-3390
▁changed	-3391
▁CA	-3392
▁Xi	-3393
▁lose	-3394
ecause	-3395
▁belief	-3396
▁speech	-3397
▁earlier	-3398
▁expectations	-3399
zy	-3400
▁Consider	-3401
▁enterpr	-3402
nal	-3403
iles	-3404
▁acqu	-3405
▁mand	-3406
▁week	-3407
ancial	-3408
▁Libya	-3409
▁remark	-3410
▁thousands	-3411
andon	-3412
▁happen	-3413
▁scenar	-3414
▁theory	-3415
▁finally	-3416
nty	-3417
anks	-3418
▁flex	-3419
▁faces	-3420
▁compar	-3421
▁victim	-3422
▁conclud	-3423
▁membership	-3424
▁presidency	-3425
▁Sch	-3426
▁Both	-3427
▁book	-3428
▁Treat	-3429
▁shown	-3430
▁becomes	-3431
urm	-3432
ignty	-3433
▁isol	-3434
▁threats	-3435
ij	-3436
▁Gu	-3437
▁Why	-3438
▁bound	-3439
▁various	-3440
▁commodity	-3441
▁uncertainty	-3442
▁Go	-3443
▁Mer	-3444
▁rele	-3445
▁principles	-3446
MB	-3447
policy	-3448
▁announced	-3449
▁Revolution	-3450
▁Republicans	-3451
uck	-3452
▁himself	-3453
▁specific	-3454
EC	-3455
uct	-3456
▁General	-3457
▁Iranian	-3458
▁comprom	-3459
▁accounts	-3460
▁Abe	-3461
third	-3462
▁Organ	-3463
▁profits	-3464
▁0.	-3465
▁abandon	-3466
▁context	-3467
rehensive	-3468
▁promise	-3469
▁Cam	-3470
idesp	-3471
▁imbal	-3472
▁stagn	-3473
▁abroad	-3474
idespread	-3475
▁circumst	-3476
▁profession	-3477
▁Ken	-3478
▁lot	-3479
▁dism	-3480
acific	-3481
▁insist	-3482
▁precisely	-3483
▁built	-3484
▁drugs	-3485
▁function	-3486
com	-3487
lar	-3488
ynes	-3489
▁adopt	-3490
orks	-3491
ossil	-3492
▁achieved	-3493
▁10%	-3494
▁spend	-3495
▁Poland	-3496
▁Am	-3497
▁CO	-3498
▁Last	-3499
▁stem	-3500
▁vacc	-3501
▁wage	-3502
▁started	-3503
▁macroeconomic	-3504
rich	-3505
▁final	-3506
▁volat	-3507
▁police	-3508
▁Eastern	-3509
▁quarter	-3510
▁diseases	-3511
▁fighting	-3512
▁geopolit	-3513
▁candidates	-3514
▁enj	-3515
rowth	-3516
▁dead	-3517
▁prem	-3518
▁Their	-3519
▁worry	-3520
▁Treaty	-3521
▁trading	-3522
3.	-3523
▁€	-3524
▁adap	-3525
▁tools	-3526
orthern	-3527
▁safety	-3528
▁Ju	-3529
▁Ph	-3530
aches	-3531
▁enable	-3532
▁unable	-3533
▁percent	-3534
aled	-3535
ondon	-3536
thern	-3537
▁cash	-3538
▁incomes	-3539
know	-3540
▁Jan	-3541
▁Gaza	-3542
ifying	-3543
▁sovereignty	-3544
.)	-3545
iable	-3546
inary	-3547
▁welf	-3548
ieving	-3549
▁training	-3550
▁widespread	-3551
ulate	-3552
▁autom	-3553
▁Econom	-3554
▁present	-3555
▁deflation	-3556
▁initiative	-3557
fect	-3558
▁sen	-3559
▁vers	-3560
▁arrange	-3561
ilies	-3562
iring	-3563
▁causes	-3564
▁confere	-3565
▁welfare	-3566
▁differences	-3567
TON	-3568
ubl	-3569
▁spent	-3570
▁communic	-3571
▁resulting	-3572
iers	-3573
inet	-3574
▁secur	-3575
▁solid	-3576
▁London	-3577
▁treaty	-3578
▁persist	-3579
▁enormous	-3580
ER	-3581
hib	-3582
itting	-3583
▁struggle	-3584
▁base	-3585
▁bomb	-3586
▁prove	-3587
kel	-3588
levant	-3589
▁194	-3590
▁capt	-3591
▁ethnic	-3592
▁"	-3593
▁task	-3594
▁possibility	-3595
nam	-3596
▁optim	-3597
▁space	-3598
▁trial	-3599
▁Donald	-3600
▁broader	-3601
▁message	-3602
▁addition	-3603
▁strength	-3604
▁immigration	-3605
▁circumstances	-3606
ait	-3607
ugh	-3608
vail	-3609
hetor	-3610
▁barri	-3611
▁meant	-3612
▁round	-3613
▁comput	-3614
aling	-3615
▁June	-3616
▁carry	-3617
mar	-3618
▁range	-3619
▁managed	-3620
▁2.	-3621
ittee	-3622
▁happened	-3623
▁custom	-3624
▁appropr	-3625
▁concent	-3626
▁estimated	-3627
▁operations	-3628
▁Su	-3629
▁pan	-3630
▁gold	-3631
▁team	-3632
▁worst	-3633
ference	-3634
▁easing	-3635
▁rhetor	-3636
▁intelligence	-3637
ray	-3638
▁asked	-3639
▁Keynes	-3640
▁fossil	-3641
▁Bl	-3642
icro	-3643
▁went	-3644
▁facilit	-3645
▁launched	-3646
▁received	-3647
▁supported	-3648
▁firm	-3649
▁Because	-3650
▁schools	-3651
▁families	-3652
▁Democratic	-3653
ING	-3654
▁army	-3655
▁hour	-3656
▁outc	-3657
▁pack	-3658
▁spir	-3659
▁Those	-3660
▁tried	-3661
▁improved	-3662
▁Ma	-3663
▁bure	-3664
▁ratio	-3665
▁bankers	-3666
▁running	-3667
▁currencies	-3668
gn	-3669
▁highest	-3670
▁leaving	-3671
▁efficiency	-3672
rative	-3673
▁hundreds	-3674
▁transport	-3675
co	-3676
ull	-3677
time	-3678
▁Comp	-3679
▁Muslims	-3680
OND	-3681
reced	-3682
▁drive	-3683
▁rural	-3684
▁giving	-3685
▁absence	-3686
▁advance	-3687
▁weakness	-3688
▁Organization	-3689
uild	-3690
▁100	-3691
ONDON	-3692
rimin	-3693
▁publ	-3694
▁wind	-3695
▁clean	-3696
▁inform	-3697
aves	-3698
▁langu	-3699
▁infect	-3700
ios	-3701
itig	-3702
▁Har	-3703
ching	-3704
▁fell	-3705
▁LONDON	-3706
▁farmers	-3707
▁opinion	-3708
▁Er	-3709
▁Cold	-3710
▁diss	-3711
▁lies	-3712
idered	-3713
▁hands	-3714
standing	-3715
▁activity	-3716
enez	-3717
utive	-3718
enezuel	-3719
▁mostly	-3720
▁measure	-3721
▁revenue	-3722
recedented	-3723
▁Merkel	-3724
▁acknow	-3725
▁capita	-3726
▁deeply	-3727
▁Austral	-3728
▁construction	-3729
▁bill	-3730
▁depends	-3731
▁designed	-3732
▁considered	-3733
▁hit	-3734
▁sex	-3735
▁Venezuel	-3736
▁disaster	-3737
▁identity	-3738
▁restrict	-3739
lied	-3740
usion	-3741
▁helping	-3742
▁collective	-3743
▁resistance	-3744
▁legislation	-3745
▁considerable	-3746
▁unprecedented	-3747
▁bureauc	-3748
▁justice	-3749
▁promises	-3750
▁Bo	-3751
sych	-3752
uary	-3753
▁medical	-3754
▁returns	-3755
▁Argentina	-3756
▁exception	-3757
▁University	-3758
▁associated	-3759
▁50	-3760
reet	-3761
The	-3762
etic	-3763
whel	-3764
▁stake	-3765
actions	-3766
▁anyone	-3767
ashington	-3768
▁revenues	-3769
▁migration	-3770
▁instability	-3771
▁Bro	-3772
▁Sunni	-3773
▁closer	-3774
▁factor	-3775
▁populist	-3776
▁democracies	-3777
ada	-3778
umm	-3779
▁equal	-3780
▁ensuring	-3781
▁repeated	-3782
▁sustained	-3783
▁sold	-3784
ceived	-3785
▁agencies	-3786
▁permanent	-3787
▁comprehensive	-3788
ih	-3789
raft	-3790
▁driven	-3791
▁Another	-3792
▁smaller	-3793
▁remained	-3794
▁conflicts	-3795
▁generally	-3796
ze	-3797
aria	-3798
▁der	-3799
▁talk	-3800
▁1990’	-3801
▁exceed	-3802
▁emerged	-3803
▁raising	-3804
▁changing	-3805
▁involved	-3806
▁borrowing	-3807
mark	-3808
▁prevail	-3809
▁allowing	-3810
▁Cour	-3811
▁mortg	-3812
▁raised	-3813
▁troops	-3814
▁consolid	-3815
▁economist	-3816
3%	-3817
orb	-3818
ethe	-3819
uine	-3820
lantic	-3821
7%	-3822
EN	-3823
▁Rec	-3824
▁sum	-3825
▁unw	-3826
▁visit	-3827
▁Social	-3828
▁imports	-3829
ague	-3830
▁tight	-3831
▁During	-3832
▁prefer	-3833
▁partnership	-3834
▁light	-3835
▁worked	-3836
▁outcomes	-3837
bles	-3838
▁Tal	-3839
▁obst	-3840
▁colle	-3841
▁multip	-3842
▁everything	-3843
▁productive	-3844
inent	-3845
▁upon	-3846
▁compens	-3847
▁declared	-3848
▁constitution	-3849
ains	-3850
uman	-3851
▁Ber	-3852
itative	-3853
▁assert	-3854
▁entirely	-3855
▁overwhel	-3856
▁candidate	-3857
see	-3858
▁Co	-3859
icip	-3860
▁2010	-3861
▁regulations	-3862
▁Polit	-3863
▁frequ	-3864
▁stage	-3865
▁journal	-3866
wan	-3867
▁Do	-3868
▁gl	-3869
ames	-3870
▁2009	-3871
▁views	-3872
▁tensions	-3873
▁electoral	-3874
back	-3875
▁due	-3876
▁hor	-3877
▁body	-3878
▁root	-3879
▁sell	-3880
▁usually	-3881
▁Man	-3882
▁weeks	-3883
▁destroy	-3884
▁getting	-3885
▁controls	-3886
EL	-3887
▁rare	-3888
▁choose	-3889
etheless	-3890
▁mention	-3891
▁generate	-3892
▁slowdown	-3893
ieth	-3894
remlin	-3895
▁genuine	-3896
▁offered	-3897
▁receive	-3898
▁geopolitical	-3899
6%	-3900
▁202	-3901
▁wel	-3902
▁enab	-3903
▁eight	-3904
raction	-3905
reasury	-3906
▁concept	-3907
▁contribute	-3908
rene	-3909
▁Kim	-3910
▁squ	-3911
▁adequ	-3912
▁instru	-3913
▁sought	-3914
▁Kremlin	-3915
▁credibility	-3916
4.	-3917
cale	-3918
▁anim	-3919
▁goes	-3920
▁Washington	-3921
▁capitalism	-3922
ode	-3923
▁AI	-3924
▁pun	-3925
▁places	-3926
▁greatest	-3927
ula	-3928
yle	-3929
▁meth	-3930
iately	-3931
▁faced	-3932
▁Invest	-3933
▁resist	-3934
▁ongoing	-3935
▁secular	-3936
▁conference	-3937
eenth	-3938
which	-3939
▁cancer	-3940
▁hardly	-3941
▁rhetoric	-3942
▁Financial	-3943
AS	-3944
PP	-3945
ani	-3946
ulf	-3947
▁Cal	-3948
▁Non	-3949
scale	-3950
▁Court	-3951
▁unless	-3952
▁perspect	-3953
▁potentially	-3954
▁organization	-3955
▁authoritarian	-3956
aks	-3957
▁July	-3958
govern	-3959
▁agricultural	-3960
IV	-3961
▁Kurd	-3962
▁narrow	-3963
▁decided	-3964
▁implies	-3965
▁populations	-3966
ev	-3967
▁pen	-3968
uting	-3969
▁Will	-3970
▁stands	-3971
▁viewed	-3972
▁restore	-3973
▁Islamist	-3974
▁overcome	-3975
▁participation	-3976
▁susp	-3977
reprene	-3978
▁improving	-3979
gen	-3980
▁DC	-3981
▁barriers	-3982
▁migrants	-3983
▁payments	-3984
▁suffering	-3985
ints	-3986
DS	-3987
uries	-3988
▁ties	-3989
▁killed	-3990
▁nations	-3991
▁highlight	-3992
▁scientists	-3993
▁initiatives	-3994
4%	-3995
oil	-3996
astro	-3997
▁Sing	-3998
▁Then	-3999
▁quite	-4000
▁digital	-4001
▁positions	-4002
▁practices	-4003
▁percentage	-4004
▁Dav	-4005
▁Tai	-4006
itude	-4007
▁crimin	-4008
▁supporters	-4009
atis	-4010
asing	-4011
▁told	-4012
efense	-4013
▁forms	-4014
▁Rather	-4015
▁played	-4016
▁regimes	-4017
▁combined	-4018
▁diplomacy	-4019
▁establishment	-4020
▁fears	-4021
▁mainly	-4022
▁experts	-4023
▁proposal	-4024
▁transfer	-4025
▁implemented	-4026
▁ey	-4027
anda	-4028
▁moving	-4029
▁Sea	-4030
orial	-4031
▁Under	-4032
▁block	-4033
▁revers	-4034
▁Indones	-4035
▁undermine	-4036
▁strategies	-4037
ikes	-4038
antly	-4039
▁plat	-4040
aching	-4041
▁psych	-4042
▁analysis	-4043
▁recognized	-4044
7,	-4045
isc	-4046
▁Nig	-4047
▁bott	-4048
▁numbers	-4049
-200	-4050
▁Turk	-4051
▁pace	-4052
▁lesson	-4053
DGE	-4054
ote	-4055
MBRI	-4056
endit	-4057
▁arms	-4058
▁debts	-4059
MBRIDGE	-4060
▁CAMBRIDGE	-4061
▁fundament	-4062
▁transformation	-4063
▁beg	-4064
ollah	-4065
▁chann	-4066
▁depos	-4067
▁Taiwan	-4068
▁deaths	-4069
▁January	-4070
▁practice	-4071
risis	-4072
coming	-4073
reland	-4074
▁ended	-4075
sts	-4076
▁wast	-4077
▁fallen	-4078
▁complic	-4079
▁priority	-4080
1%	-4081
urt	-4082
▁suffer	-4083
▁includes	-4084
▁rational	-4085
▁scenario	-4086
▁mechanisms	-4087
▁implications	-4088
long	-4089
istics	-4090
▁exact	-4091
▁southern	-4092
▁estimates	-4093
-19	-4094
ares	-4095
▁mor	-4096
▁planet	-4097
▁ruling	-4098
▁involve	-4099
▁conventional	-4100
run	-4101
▁vo	-4102
atures	-4103
▁remov	-4104
▁defend	-4105
▁formal	-4106
▁patients	-4107
▁guarantee	-4108
▁movements	-4109
▁commitments	-4110
lad	-4111
lows	-4112
ogue	-4113
▁Nob	-4114
▁join	-4115
▁ones	-4116
▁exerc	-4117
▁wanted	-4118
▁Ireland	-4119
▁sharply	-4120
▁alliance	-4121
▁otherwise	-4122
▁entreprene	-4123
anted	-4124
▁expendit	-4125
▁electricity	-4126
aren	-4127
kept	-4128
▁compl	-4129
▁aggreg	-4130
▁medium	-4131
▁territory	-4132
▁appropriate	-4133
ods	-4134
rat	-4135
wing	-4136
▁mach	-4137
herent	-4138
▁affairs	-4139
▁options	-4140
ria	-4141
▁1990	-4142
▁mount	-4143
▁spect	-4144
▁actors	-4145
▁easier	-4146
▁protests	-4147
▁continuing	-4148
more	-4149
▁Kong	-4150
▁March	-4151
▁lines	-4152
▁learned	-4153
▁forecast	-4154
▁universal	-4155
▁constitutional	-4156
alle	-4157
▁esc	-4158
▁rely	-4159
▁2008,	-4160
▁manip	-4161
▁disrupt	-4162
▁demonstr	-4163
▁imbalances	-4164
doğ	-4165
▁har	-4166
▁pled	-4167
▁Erdoğ	-4168
▁accomp	-4169
▁double	-4170
▁correct	-4171
ructuring	-4172
▁bankrupt	-4173
▁ordinary	-4174
▁gave	-4175
▁insp	-4176
▁room	-4177
idents	-4178
▁dimin	-4179
▁imped	-4180
▁senior	-4181
▁Erdoğan	-4182
▁refugee	-4183
▁leverage	-4184
▁everywhere	-4185
raf	-4186
▁twentieth	-4187
▁conservative	-4188
▁intens	-4189
▁Hong	-4190
▁aware	-4191
▁amounts	-4192
dden	-4193
arbon	-4194
▁medic	-4195
▁platform	-4196
▁prepared	-4197
▁objectives	-4198
▁distribution	-4199
rage	-4200
uous	-4201
▁hon	-4202
▁spur	-4203
▁motiv	-4204
▁works	-4205
▁degree	-4206
▁Brother	-4207
▁nationalism	-4208
Americ	-4209
▁Trans	-4210
▁court	-4211
ivalent	-4212
▁experienced	-4213
SEAN	-4214
▁Ital	-4215
▁drop	-4216
▁Assad	-4217
▁alloc	-4218
▁proved	-4219
IS	-4220
cto	-4221
▁ep	-4222
ctober	-4223
▁poorest	-4224
▁promised	-4225
▁adjustment	-4226
▁corporations	-4227
ipe	-4228
▁dro	-4229
power	-4230
▁enem	-4231
▁truly	-4232
▁prison	-4233
▁useful	-4234
▁Without	-4235
▁driving	-4236
▁resolve	-4237
▁towards	-4238
▁believed	-4239
▁expensive	-4240
▁regulators	-4241
▁Te	-4242
pret	-4243
▁Two	-4244
▁Whe	-4245
arency	-4246
▁accum	-4247
▁seven	-4248
▁impose	-4249
▁imposed	-4250
ozy	-4251
▁asp	-4252
▁tradition	-4253
eb	-4254
los	-4255
▁gir	-4256
▁stay	-4257
▁stra	-4258
▁symb	-4259
arkozy	-4260
iction	-4261
▁adapt	-4262
▁desire	-4263
▁replace	-4264
▁combination	-4265
gia	-4266
oke	-4267
▁Our	-4268
itter	-4269
ietnam	-4270
roduct	-4271
▁sudden	-4272
▁October	-4273
▁bailout	-4274
▁Democrats	-4275
▁Br	-4276
iban	-4277
ster	-4278
▁sil	-4279
illed	-4280
▁appoint	-4281
▁aggregate	-4282
▁inevitable	-4283
2,	-4284
▁murd	-4285
apital	-4286
▁legisl	-4287
liferation	-4288
vis	-4289
▁armed	-4290
▁hopes	-4291
▁Sarkozy	-4292
▁enforce	-4293
▁violent	-4294
▁credible	-4295
▁agriculture	-4296
cers	-4297
adequ	-4298
▁calc	-4299
▁profound	-4300
▁declining	-4301
▁ministers	-4302
▁proposals	-4303
▁reflected	-4304
ails	-4305
fall	-4306
▁Mod	-4307
▁cell	-4308
▁active	-4309
▁Climate	-4310
▁choices	-4311
▁phil	-4312
▁Third	-4313
▁enjoy	-4314
▁friends	-4315
▁underlying	-4316
sk	-4317
icle	-4318
ores	-4319
▁battle	-4320
▁causing	-4321
▁heavily	-4322
▁virtually	-4323
▁enterprises	-4324
enn	-4325
pin	-4326
▁ec	-4327
▁mitig	-4328
ructive	-4329
▁bubble	-4330
▁Vietnam	-4331
▁generations	-4332
aught	-4333
▁fulf	-4334
▁deprec	-4335
▁destruction	-4336
rud	-4337
rown	-4338
ffect	-4339
ipher	-4340
▁Swed	-4341
▁bear	-4342
▁fire	-4343
▁wond	-4344
▁defeat	-4345
▁whatever	-4346
▁acad	-4347
▁green	-4348
▁robust	-4349
▁trends	-4350
▁unique	-4351
▁Treasury	-4352
▁Indonesia	-4353
▁inclusive	-4354
▁immediately	-4355
▁maintaining	-4356
▁perspective	-4357
▁restructuring	-4358
8%	-4359
▁leads	-4360
itation	-4361
▁cutting	-4362
▁victims	-4363
▁investig	-4364
▁minority	-4365
▁concerned	-4366
▁immigrants	-4367
▁resolution	-4368
utr	-4369
fuel	-4370
ustr	-4371
▁Gre	-4372
ronic	-4373
▁2010,	-4374
related	-4375
▁owners	-4376
▁profit	-4377
▁networks	-4378
asc	-4379
iagn	-4380
iant	-4381
▁compe	-4382
▁desper	-4383
▁Taliban	-4384
▁dynamic	-4385
▁whereas	-4386
▁occurred	-4387
▁peaceful	-4388
▁ut	-4389
Euro	-4390
▁bul	-4391
▁resc	-4392
itious	-4393
▁blame	-4394
▁obser	-4395
▁symbol	-4396
▁taxpay	-4397
▁typically	-4398
▁Parliament	-4399
▁developments	-4400
look	-4401
atisf	-4402
▁decide	-4403
▁mistake	-4404
▁counterpart	-4405
▁strengthening	-4406
ney	-4407
oly	-4408
oud	-4409
urb	-4410
▁type	-4411
▁ready	-4412
▁schem	-4413
▁elites	-4414
▁figure	-4415
▁recomm	-4416
▁Turkish	-4417
▁purpose	-4418
▁resource	-4419
let	-4420
mbly	-4421
reme	-4422
▁cheap	-4423
▁joint	-4424
▁offers	-4425
▁lessons	-4426
▁studies	-4427
▁Australia	-4428
2%	-4429
ocu	-4430
resp	-4431
▁Prot	-4432
▁holding	-4433
▁inadequ	-4434
▁bringing	-4435
▁Communist	-4436
▁li	-4437
▁gone	-4438
ployed	-4439
▁looks	-4440
▁mobil	-4441
▁monit	-4442
stitute	-4443
▁travel	-4444
▁undert	-4445
▁demonstrated	-4446
▁economically	-4447
la	-4448
▁50%	-4449
▁shape	-4450
▁devast	-4451
▁parent	-4452
▁confron	-4453
▁affected	-4454
leb	-4455
inks	-4456
rank	-4457
▁got	-4458
agers	-4459
stood	-4460
▁Vlad	-4461
▁Count	-4462
▁obstac	-4463
▁starting	-4464
▁addressing	-4465
eda	-4466
▁wis	-4467
ground	-4468
▁toler	-4469
▁seriously	-4470
bre	-4471
▁chem	-4472
▁accord	-4473
▁subsequ	-4474
▁turning	-4475
▁physical	-4476
▁condition	-4477
Ch	-4478
fin	-4479
ager	-4480
Europe	-4481
▁decis	-4482
▁persu	-4483
▁online	-4484
▁accepted	-4485
▁language	-4486
▁objective	-4487
▁perceived	-4488
▁equivalent	-4489
6.	-4490
▁Fore	-4491
▁dial	-4492
▁ment	-4493
▁ASEAN	-4494
▁Every	-4495
▁knows	-4496
▁Health	-4497
▁pension	-4498
▁pursuing	-4499
▁Venezuela	-4500
▁temporary	-4501
ties	-4502
▁lend	-4503
anging	-4504
▁react	-4505
▁deeper	-4506
▁remind	-4507
▁related	-4508
▁determine	-4509
uty	-4510
▁195	-4511
ugust	-4512
▁Shia	-4513
▁youth	-4514
▁relief	-4515
▁divided	-4516
▁determined	-4517
▁supporting	-4518
▁institution	-4519
▁willingness	-4520
cons	-4521
fers	-4522
igor	-4523
usal	-4524
count	-4525
▁shock	-4526
▁stead	-4527
▁conver	-4528
▁preced	-4529
▁review	-4530
▁opponents	-4531
▁10	-4532
acerb	-4533
▁bold	-4534
▁foot	-4535
luding	-4536
▁cycle	-4537
▁elite	-4538
▁fuels	-4539
▁heavy	-4540
▁relevant	-4541
▁liberalization	-4542
▁Me	-4543
heast	-4544
▁uncon	-4545
▁coordin	-4546
▁annually	-4547
▁represents	-4548
che	-4549
imir	-4550
▁HIV	-4551
owned	-4552
▁peripher	-4553
▁dictators	-4554
▁contributed	-4555
▁17	-4556
▁bene	-4557
▁kept	-4558
uations	-4559
▁figures	-4560
▁Vladimir	-4561
aeda	-4562
▁20%	-4563
▁brut	-4564
▁flaw	-4565
▁Chile	-4566
▁explan	-4567
▁exacerb	-4568
▁technical	-4569
▁$3	-4570
fort	-4571
licit	-4572
stream	-4573
ibilities	-4574
▁surprise	-4575
▁dramatically	-4576
▁Ky	-4577
ancy	-4578
appe	-4579
emen	-4580
▁She	-4581
▁Paul	-4582
▁dream	-4583
▁solve	-4584
▁northern	-4585
▁discussion	-4586
▁necessarily	-4587
irth	-4588
onom	-4589
first	-4590
▁east	-4591
enhouse	-4592
▁crimes	-4593
▁equally	-4594
▁presence	-4595
▁Palestine	-4596
▁criticism	-4597
▁promoting	-4598
onent	-4599
▁Bang	-4600
▁Here	-4601
▁exit	-4602
▁Nobel	-4603
▁issued	-4604
▁religion	-4605
▁transparency	-4606
▁fil	-4607
▁exactly	-4608
▁civilian	-4609
▁expanding	-4610
8,	-4611
▁resil	-4612
▁Colomb	-4613
▁healthy	-4614
▁trouble	-4615
▁possibly	-4616
▁processes	-4617
iny	-4618
bled	-4619
erous	-4620
▁assume	-4621
▁twenty	-4622
▁However	-4623
▁described	-4624
IC	-4625
orpor	-4626
▁Port	-4627
▁grown	-4628
▁August	-4629
▁temper	-4630
▁closely	-4631
▁greenhouse	-4632
gu	-4633
ading	-4634
class	-4635
▁defined	-4636
▁billions	-4637
ded	-4638
▁Ne	-4639
▁ric	-4640
adays	-4641
level	-4642
▁feed	-4643
lihood	-4644
▁losing	-4645
▁opening	-4646
▁players	-4647
▁collabor	-4648
ional	-4649
▁tempt	-4650
▁gender	-4651
▁summer	-4652
▁reinfor	-4653
▁Cub	-4654
▁none	-4655
▁gained	-4656
▁modest	-4657
▁Constit	-4658
▁compromise	-4659
contro	-4660
▁begun	-4661
▁delay	-4662
▁girls	-4663
▁hours	-4664
▁although	-4665
▁unsustainable	-4666
▁tact	-4667
ographic	-4668
▁dramatic	-4669
▁interven	-4670
▁extremely	-4671
▁il	-4672
ingu	-4673
▁fate	-4674
iences	-4675
▁earth	-4676
▁nomin	-4677
▁Jewish	-4678
▁showed	-4679
▁collaps	-4680
▁quantitative	-4681
rs	-4682
llor	-4683
▁mix	-4684
trade	-4685
▁bloc	-4686
▁partner	-4687
▁published	-4688
▁terrorists	-4689
▁territorial	-4690
ias	-4691
mad	-4692
eron	-4693
▁Gulf	-4694
▁chief	-4695
▁retire	-4696
▁command	-4697
▁requirements	-4698
pril	-4699
urch	-4700
national	-4701
▁keeping	-4702
▁opposite	-4703
▁legitimate	-4704
▁arrangements	-4705
ires	-4706
▁Bal	-4707
▁trip	-4708
iberal	-4709
▁Iraqi	-4710
▁faith	-4711
▁rival	-4712
artment	-4713
▁distin	-4714
▁regular	-4715
▁ambitious	-4716
▁producers	-4717
▁Fortunately	-4718
ery	-4719
ift	-4720
▁203	-4721
▁fewer	-4722
▁shocks	-4723
▁survival	-4724
▁achieving	-4725
▁Depression	-4726
▁priorities	-4727
&#160;&#160;	-4728
▁parliamentary	-4729
▁lear	-4730
INGTON	-4731
▁arrest	-4732
▁bottom	-4733
▁putting	-4734
▁trigger	-4735
▁interpret	-4736
ana	-4737
▁Cy	-4738
anish	-4739
lines	-4740
flation	-4741
▁happens	-4742
▁playing	-4743
▁reported	-4744
▁settlement	-4745
▁constraints	-4746
▁encouraging	-4747
▁humanitarian	-4748
ASH	-4749
▁2011,	-4750
▁added	-4751
▁grand	-4752
▁illeg	-4753
▁paper	-4754
▁Policy	-4755
security	-4756
▁critics	-4757
▁discipl	-4758
▁mandate	-4759
▁learning	-4760
▁observers	-4761
▁purchases	-4762
▁remarkable	-4763
oms	-4764
▁2%	-4765
enty	-4766
▁Act	-4767
acing	-4768
▁tack	-4769
▁writ	-4770
▁signs	-4771
▁speak	-4772
▁votes	-4773
▁launch	-4774
ventions	-4775
arsh	-4776
axim	-4777
ffic	-4778
ordan	-4779
▁trib	-4780
overed	-4781
▁offset	-4782
▁understood	-4783
▁Sil	-4784
▁asy	-4785
▁saw	-4786
▁sto	-4787
chers	-4788
inian	-4789
▁homes	-4790
▁ideal	-4791
▁moved	-4792
▁urgent	-4793
▁perfect	-4794
▁universities	-4795
iot	-4796
▁Hung	-4797
▁WASH	-4798
▁fost	-4799
▁shap	-4800
aining	-4801
▁April	-4802
▁diagn	-4803
ECD	-4804
ife	-4805
▁Mc	-4806
with	-4807
▁compr	-4808
▁fixed	-4809
▁embrace	-4810
▁reports	-4811
▁moderate	-4812
▁neighbor	-4813
▁addressed	-4814
▁employees	-4815
▁nationalist	-4816
▁establishing	-4817
CS	-4818
comm	-4819
▁2015	-4820
itness	-4821
▁track	-4822
▁surely	-4823
▁intended	-4824
▁remaining	-4825
▁recognition	-4826
yal	-4827
ailed	-4828
itably	-4829
▁Chance	-4830
▁Jordan	-4831
▁confir	-4832
▁search	-4833
▁weight	-4834
▁centuries	-4835
▁WASHINGTON	-4836
era	-4837
rence	-4838
▁says	-4839
▁celeb	-4840
▁emerge	-4841
▁securities	-4842
su	-4843
▁sea	-4844
▁sus	-4845
arely	-4846
▁exam	-4847
icious	-4848
lected	-4849
▁monop	-4850
▁signed	-4851
▁eliminate	-4852
▁gradually	-4853
▁incentive	-4854
▁pollution	-4855
▁inadequate	-4856
▁volatility	-4857
▁educational	-4858
▁race	-4859
▁sort	-4860
▁2012,	-4861
▁Yemen	-4862
▁plants	-4863
▁suffered	-4864
▁3.	-4865
iling	-4866
▁OECD	-4867
▁crop	-4868
▁evol	-4869
▁incomp	-4870
▁stance	-4871
▁criminal	-4872
▁Committee	-4873
▁structures	-4874
▁surprising	-4875
ahu	-4876
unis	-4877
▁parad	-4878
country	-4879
▁reluct	-4880
▁Georgia	-4881
▁primarily	-4882
▁aggressive	-4883
▁($	-4884
ihad	-4885
ompl	-4886
▁40%	-4887
▁fal	-4888
▁docu	-4889
▁frust	-4890
uilding	-4891
▁except	-4892
▁fueled	-4893
▁Italian	-4894
▁genetic	-4895
▁historic	-4896
▁starters	-4897
▁Any	-4898
▁Reg	-4899
▁thr	-4900
ijing	-4901
orient	-4902
▁Franc	-4903
▁setting	-4904
▁included	-4905
▁promising	-4906
▁taxpayers	-4907
▁controvers	-4908
▁mutual	-4909
▁failing	-4910
▁adequate	-4911
EO	-4912
pet	-4913
▁Rom	-4914
irect	-4915
▁Tunis	-4916
▁board	-4917
▁scope	-4918
ospital	-4919
▁Canada	-4920
▁applic	-4921
▁Foreign	-4922
▁reserve	-4923
▁planning	-4924
▁rejected	-4925
rid	-4926
▁30%	-4927
pring	-4928
▁Once	-4929
▁Plan	-4930
▁risky	-4931
▁legacy	-4932
▁identify	-4933
▁marginal	-4934
▁contracts	-4935
▁Governments	-4936
aily	-4937
bank	-4938
▁Cont	-4939
▁brok	-4940
▁grew	-4941
▁wave	-4942
anyahu	-4943
▁disag	-4944
▁mother	-4945
▁pushed	-4946
▁explicit	-4947
▁Netanyahu	-4948
▁introduced	-4949
NA	-4950
ested	-4951
odies	-4952
▁Never	-4953
▁tough	-4954
reement	-4955
▁mission	-4956
▁reaching	-4957
▁implementation	-4958
▁25	-4959
pted	-4960
▁Ben	-4961
▁shr	-4962
▁arch	-4963
ultane	-4964
▁sales	-4965
▁reward	-4966
▁imagine	-4967
▁underpin	-4968
▁emergence	-4969
▁pressures	-4970
▁restrictions	-4971
▁cha	-4972
▁lay	-4973
▁lob	-4974
▁advis	-4975
▁Cameron	-4976
▁Further	-4977
▁opposed	-4978
▁entrepreneurs	-4979
gic	-4980
▁PA	-4981
▁Mac	-4982
▁phen	-4983
▁qual	-4984
mented	-4985
▁1980’	-4986
▁Portug	-4987
▁exposed	-4988
▁dialogue	-4989
▁proportion	-4990
▁Em	-4991
-201	-4992
adow	-4993
cean	-4994
carbon	-4995
▁enact	-4996
▁revol	-4997
▁condem	-4998
▁contem	-4999
▁stress	-5000
▁Beijing	-5001
ineteenth	-5002
▁ideological	-5003
▁13	-5004
▁Naz	-5005
▁dri	-5006
▁Still	-5007
▁paying	-5008
▁prohib	-5009
▁proceed	-5010
▁stagnation	-5011
▁threatened	-5012
zb	-5013
ole	-5014
oubt	-5015
rote	-5016
igned	-5017
▁1980	-5018
▁Wall	-5019
▁cong	-5020
▁wake	-5021
inding	-5022
▁costly	-5023
▁served	-5024
▁capable	-5025
▁corrupt	-5026
▁someone	-5027
▁innovative	-5028
▁essentially	-5029
▁Ange	-5030
▁crow	-5031
▁David	-5032
▁Human	-5033
▁wider	-5034
ustrial	-5035
▁observ	-5036
▁series	-5037
▁targeted	-5038
▁Chancellor	-5039
▁approaches	-5040
▁regardless	-5041
ari	-5042
▁11	-5043
ches	-5044
port	-5045
▁BER	-5046
▁Sud	-5047
▁deval	-5048
▁maxim	-5049
▁engaged	-5050
ordination	-5051
hab	-5052
▁Bel	-5053
▁Unt	-5054
▁sac	-5055
▁2013,	-5056
through	-5057
▁England	-5058
▁express	-5059
rap	-5060
debt	-5061
▁Serb	-5062
airman	-5063
▁norms	-5064
▁network	-5065
▁phenomen	-5066
US	-5067
▁veh	-5068
▁via	-5069
ained	-5070
ether	-5071
iders	-5072
using	-5073
▁apply	-5074
▁multi	-5075
zbollah	-5076
▁compete	-5077
▁engagement	-5078
der	-5079
▁QE	-5080
bert	-5081
▁die	-5082
▁blood	-5083
▁cyber	-5084
▁telev	-5085
▁carried	-5086
▁enhance	-5087
▁strongly	-5088
▁supplies	-5089
▁Countries	-5090
▁practical	-5091
▁sentiment	-5092
▁simultane	-5093
GO	-5094
mon	-5095
▁1%	-5096
▁IS	-5097
▁Mor	-5098
▁anx	-5099
estern	-5100
▁birth	-5101
▁reass	-5102
cession	-5103
▁linked	-5104
▁looking	-5105
▁chemical	-5106
▁equality	-5107
▁conducted	-5108
▁capabilities	-5109
rew	-5110
▁eru	-5111
▁felt	-5112
▁irre	-5113
▁2009,	-5114
Pacific	-5115
▁father	-5116
▁slight	-5117
▁Nigeria	-5118
▁deterior	-5119
▁solidarity	-5120
▁Nonetheless	-5121
▁sustainability	-5122
Is	-5123
▁Ah	-5124
arak	-5125
ebru	-5126
free	-5127
anied	-5128
rowing	-5129
▁newsp	-5130
ebruary	-5131
isingly	-5132
nership	-5133
▁ignore	-5134
▁adverse	-5135
▁benefic	-5136
osn	-5137
rog	-5138
▁2011	-5139
▁wrote	-5140
▁humans	-5141
▁prosec	-5142
▁finding	-5143
▁evolution	-5144
▁protecting	-5145
▁repeatedly	-5146
20	-5147
ola	-5148
ume	-5149
▁bol	-5150
▁quo	-5151
▁Until	-5152
▁smart	-5153
▁allows	-5154
American	-5155
▁integrated	-5156
bas	-5157
how	-5158
▁alike	-5159
▁delib	-5160
▁resear	-5161
▁enabled	-5162
▁realize	-5163
▁Hezbollah	-5164
▁investing	-5165
iled	-5166
known	-5167
▁Jews	-5168
▁black	-5169
▁accompl	-5170
▁February	-5171
▁Israelis	-5172
▁regarded	-5173
▁suggested	-5174
▁previously	-5175
▁appreciation	-5176
2.	-5177
tax	-5178
▁ver	-5179
icles	-5180
▁barg	-5181
▁emot	-5182
appoint	-5183
▁philos	-5184
▁satisf	-5185
▁pushing	-5186
▁boosting	-5187
▁elements	-5188
▁standing	-5189
▁transfers	-5190
▁transactions	-5191
egu	-5192
uit	-5193
ifth	-5194
▁fem	-5195
being	-5196
▁pret	-5197
▁defin	-5198
▁woman	-5199
▁Growth	-5200
▁aspect	-5201
▁bubbles	-5202
▁calling	-5203
▁Egyptian	-5204
▁reaction	-5205
▁concluded	-5206
▁attractive	-5207
▁obligations	-5208
▁substantially	-5209
9.	-5210
ownt	-5211
▁sup	-5212
inced	-5213
▁Asse	-5214
▁wors	-5215
▁newly	-5216
▁secret	-5217
▁content	-5218
ressional	-5219
▁failures	-5220
▁hospital	-5221
▁managers	-5222
▁isolation	-5223
▁extraordin	-5224
▁undermining	-5225
amb	-5226
eth	-5227
ecess	-5228
▁Summ	-5229
▁vill	-5230
▁polls	-5231
▁Beyond	-5232
ffective	-5233
▁predecess	-5234
▁withdrawal	-5235
▁accompanied	-5236
ns	-5237
amed	-5238
idel	-5239
view	-5240
▁Mos	-5241
ament	-5242
▁died	-5243
crisis	-5244
▁downt	-5245
cks	-5246
mosp	-5247
▁fort	-5248
▁rose	-5249
▁logic	-5250
ogether	-5251
▁rating	-5252
▁disappe	-5253
▁notably	-5254
▁package	-5255
▁Christian	-5256
sels	-5257
▁fat	-5258
▁nav	-5259
▁wid	-5260
uable	-5261
ivered	-5262
▁charge	-5263
▁budgets	-5264
▁killing	-5265
▁minimum	-5266
▁discover	-5267
▁preventing	-5268
▁Sup	-5269
▁cast	-5270
▁turm	-5271
▁crime	-5272
agement	-5273
▁tariff	-5274
▁autonom	-5275
▁survive	-5276
▁turmoil	-5277
▁welcome	-5278
▁publicly	-5279
▁arguments	-5280
▁discrimin	-5281
▁emergency	-5282
▁Investment	-5283
▁bankruptcy	-5284
▁reasonable	-5285
▁BRI	-5286
▁ran	-5287
ilipp	-5288
border	-5289
clical	-5290
▁2014,	-5291
▁apart	-5292
▁colon	-5293
▁spirit	-5294
▁creates	-5295
▁Assembly	-5296
▁Russians	-5297
▁instruments	-5298
▁contributions	-5299
rue	-5300
udd	-5301
ador	-5302
▁Aut	-5303
▁tim	-5304
apore	-5305
▁magn	-5306
▁absol	-5307
▁atmosp	-5308
▁latter	-5309
▁initial	-5310
▁released	-5311
▁Partnership	-5312
AR	-5313
book	-5314
lete	-5315
ping	-5316
ragm	-5317
▁doesn	-5318
▁libert	-5319
▁operate	-5320
▁advances	-5321
▁seemingly	-5322
▁Os	-5323
aded	-5324
▁Sin	-5325
▁2014	-5326
▁2015,	-5327
▁belie	-5328
▁enabl	-5329
▁unity	-5330
▁Sweden	-5331
▁Philipp	-5332
▁anticip	-5333
▁disputes	-5334
▁nineteenth	-5335
son	-5336
ipped	-5337
ubarak	-5338
▁liter	-5339
▁Senate	-5340
▁harder	-5341
▁weaker	-5342
function	-5343
▁Defense	-5344
▁Supreme	-5345
▁completely	-5346
▁conclusion	-5347
▁·	-5348
ashed	-5349
▁holds	-5350
theless	-5351
▁malaria	-5352
▁destabil	-5353
▁dictatorship	-5354
DR	-5355
▁40	-5356
▁TPP	-5357
iforn	-5358
▁Again	-5359
▁backed	-5360
European	-5361
▁expense	-5362
▁Singapore	-5363
▁delivered	-5364
45	-5365
ius	-5366
hers	-5367
▁peak	-5368
▁aging	-5369
▁brain	-5370
▁Street	-5371
▁witness	-5372
▁attempts	-5373
▁examples	-5374
▁surround	-5375
▁Pakistani	-5376
▁renewable	-5377
▁depression	-5378
ovo	-5379
▁El	-5380
▁60%	-5381
▁Ant	-5382
▁clin	-5383
▁champ	-5384
▁daily	-5385
▁jihad	-5386
▁waste	-5387
ishment	-5388
oriented	-5389
▁species	-5390
▁Californ	-5391
duc	-5392
osis	-5393
▁tow	-5394
icing	-5395
▁alle	-5396
▁ball	-5397
▁burn	-5398
▁pharm	-5399
▁staff	-5400
▁table	-5401
▁divers	-5402
▁wealthy	-5403
▁operating	-5404
▁consistent	-5405
▁inevitably	-5406
7.	-5407
gas	-5408
▁2013	-5409
▁scar	-5410
▁sole	-5411
ifically	-5412
▁declined	-5413
▁downturn	-5414
▁humanity	-5415
▁dependent	-5416
▁experiment	-5417
▁professional	-5418
hi	-5419
ux	-5420
rack	-5421
▁Ear	-5422
urally	-5423
▁south	-5424
▁proced	-5425
▁weaken	-5426
exchange	-5427
utrition	-5428
▁Mubarak	-5429
▁claimed	-5430
▁dismiss	-5431
▁computer	-5432
▁ideology	-5433
▁convinced	-5434
▁executive	-5435
▁flexibility	-5436
▁coordination	-5437
▁effectiveness	-5438
arters	-5439
▁gives	-5440
connect	-5441
▁comment	-5442
▁invasion	-5443
▁swe	-5444
lades	-5445
▁Lead	-5446
▁tour	-5447
▁micro	-5448
ulating	-5449
▁safegu	-5450
oubtedly	-5451
▁Colombia	-5452
▁Portugal	-5453
▁nowadays	-5454
▁offering	-5455
▁accounting	-5456
▁counterparts	-5457
▁implementing	-5458
▁z	-5459
▁bur	-5460
istrib	-5461
▁users	-5462
▁actual	-5463
▁intent	-5464
▁mobile	-5465
▁perpet	-5466
▁parents	-5467
▁threaten	-5468
▁Banglades	-5469
▁Furthermore	-5470
▁explanation	-5471
▁transparent	-5472
▁vac	-5473
ables	-5474
unger	-5475
▁iron	-5476
▁stre	-5477
▁word	-5478
▁index	-5479
▁Spring	-5480
▁appeal	-5481
▁barely	-5482
▁saying	-5483
▁slowly	-5484
▁ambitions	-5485
▁negotiating	-5486
▁Kos	-5487
▁aspir	-5488
▁negotiate	-5489
▁television	-5490
CC	-5491
dr	-5492
bit	-5493
▁60	-5494
odox	-5495
▁Cypr	-5496
depend	-5497
▁plant	-5498
▁pragm	-5499
▁attrib	-5500
▁courts	-5501
▁ending	-5502
ophistic	-5503
▁inflows	-5504
▁announce	-5505
▁exercise	-5506
▁mortgage	-5507
▁resulted	-5508
▁demonstrate	-5509
▁researchers	-5510
ilemm	-5511
▁knew	-5512
▁alarm	-5513
▁tests	-5514
▁placed	-5515
▁viable	-5516
▁prolong	-5517
▁contribution	-5518
▁shareholders	-5519
▁successfully	-5520
DGs	-5521
imb	-5522
oned	-5523
size	-5524
▁Yes	-5525
▁Bern	-5526
utical	-5527
▁Peace	-5528
▁solar	-5529
▁closed	-5530
▁conven	-5531
▁strike	-5532
▁wonder	-5533
▁reconcil	-5534
▁returned	-5535
▁soldiers	-5536
▁demanding	-5537
▁producing	-5538
▁California	-5539
▁occupation	-5540
isp	-5541
ahar	-5542
aust	-5543
otic	-5544
▁ple	-5545
orted	-5546
▁born	-5547
ocratic	-5548
▁successor	-5549
▁discussions	-5550
GDP	-5551
fare	-5552
▁fert	-5553
pected	-5554
▁twice	-5555
osition	-5556
▁earnings	-5557
▁provision	-5558
▁relationships	-5559
que	-5560
uff	-5561
▁16	-5562
▁hot	-5563
agues	-5564
iments	-5565
▁combat	-5566
▁passed	-5567
▁sheets	-5568
▁renewed	-5569
▁reverse	-5570
including	-5571
▁expanded	-5572
▁sophistic	-5573
▁subsequent	-5574
▁undoubtedly	-5575
▁interventions	-5576
ami	-5577
oes	-5578
body	-5579
rete	-5580
▁lag	-5581
▁obt	-5582
gered	-5583
resent	-5584
▁skept	-5585
▁Energy	-5586
▁retail	-5587
▁Whether	-5588
▁fragile	-5589
▁illegal	-5590
▁painful	-5591
▁version	-5592
▁balanced	-5593
▁enabling	-5594
▁guarantees	-5595
▁threatening	-5596
ma	-5597
rees	-5598
what	-5599
▁Pen	-5600
▁alt	-5601
▁Prog	-5602
▁Qaeda	-5603
▁Malays	-5604
▁nominal	-5605
▁sharing	-5606
▁statement	-5607
▁surpluses	-5608
▁accountability	-5609
resh	-5610
▁Add	-5611
▁fra	-5612
ivate	-5613
▁Much	-5614
▁badly	-5615
▁speed	-5616
▁voted	-5617
product	-5618
▁Nether	-5619
▁Unlike	-5620
▁escape	-5621
▁warned	-5622
veraging	-5623
▁contrad	-5624
▁variety	-5625
▁replaced	-5626
▁revealed	-5627
▁expressed	-5628
▁generated	-5629
▁periphery	-5630
▁Netherlands	-5631
▁fundamentally	-5632
9%	-5633
▁$4	-5634
alin	-5635
▁text	-5636
illenn	-5637
▁Sudan	-5638
▁buying	-5639
▁centers	-5640
▁decisive	-5641
▁concerning	-5642
tt	-5643
▁od	-5644
adic	-5645
anmar	-5646
▁deals	-5647
▁posed	-5648
▁rulers	-5649
▁Tunisia	-5650
▁warning	-5651
▁flexible	-5652
▁taxation	-5653
▁civilians	-5654
▁customers	-5655
▁narrative	-5656
▁encouraged	-5657
CE	-5658
agan	-5659
▁Dec	-5660
▁Dut	-5661
gment	-5662
commun	-5663
rating	-5664
▁2001,	-5665
▁White	-5666
▁kinds	-5667
▁joined	-5668
▁rarely	-5669
▁wisdom	-5670
▁yields	-5671
▁Germans	-5672
▁refused	-5673
aceutical	-5674
▁systemic	-5675
▁happening	-5676
▁university	-5677
▁devastating	-5678
▁improvement	-5679
▁journalists	-5680
AD	-5681
...	-5682
▁5%	-5683
▁pie	-5684
ellow	-5685
▁entit	-5686
▁lacks	-5687
▁rebal	-5688
▁leaves	-5689
▁transm	-5690
▁Spanish	-5691
▁channel	-5692
▁charges	-5693
▁chronic	-5694
▁dispute	-5695
agen	-5696
lock	-5697
▁anc	-5698
▁aud	-5699
itten	-5700
▁wish	-5701
▁equip	-5702
▁flood	-5703
ulative	-5704
▁unions	-5705
▁voting	-5706
▁applied	-5707
▁methods	-5708
▁absolute	-5709
▁Department	-5710
▁simultaneously	-5711
▁Car	-5712
addam	-5713
▁nine	-5714
▁reck	-5715
▁Blair	-5716
▁image	-5717
▁phase	-5718
▁reput	-5719
▁Market	-5720
▁Rights	-5721
reaching	-5722
▁elector	-5723
▁momentum	-5724
▁acknowled	-5725
▁borrowers	-5726
▁unwilling	-5727
▁frequently	-5728
▁struggling	-5729
na	-5730
zz	-5731
ctr	-5732
isan	-5733
▁$1.	-5734
▁80%	-5735
▁Eth	-5736
▁eyes	-5737
▁write	-5738
▁survey	-5739
▁pursued	-5740
▁stories	-5741
▁globally	-5742
▁shifting	-5743
▁ultimate	-5744
▁weakened	-5745
▁similarly	-5746
▁weakening	-5747
▁assessment	-5748
▁Nevertheless	-5749
rum	-5750
▁$5	-5751
rant	-5752
▁ast	-5753
▁lie	-5754
▁sem	-5755
eping	-5756
▁Spec	-5757
▁helps	-5758
▁north	-5759
▁rescue	-5760
▁transl	-5761
▁diverse	-5762
▁downward	-5763
▁properly	-5764
▁disappoint	-5765
▁Philippines	-5766
▁innovations	-5767
▁consolidation	-5768
?”	-5769
▁,	-5770
afi	-5771
aut	-5772
ura	-5773
▁Sm	-5774
▁aw	-5775
vard	-5776
▁ded	-5777
▁dim	-5778
▁High	-5779
▁Hist	-5780
▁ally	-5781
ailand	-5782
▁coast	-5783
▁proven	-5784
▁united	-5785
▁Myanmar	-5786
▁debates	-5787
▁pointed	-5788
▁worried	-5789
▁imperial	-5790
▁multiple	-5791
▁atmosphere	-5792
▁retirement	-5793
▁alternatives	-5794
▁compensation	-5795
IA	-5796
▁25%	-5797
▁Are	-5798
▁Cop	-5799
▁Kenya	-5800
▁diver	-5801
▁ruled	-5802
▁acting	-5803
▁brutal	-5804
▁extend	-5805
▁raises	-5806
▁evident	-5807
▁dominant	-5808
▁remember	-5809
▁displaced	-5810
▁facilities	-5811
▁mainstream	-5812
▁supposedly	-5813
▁participants	-5814
ao	-5815
RIS	-5816
iev	-5817
▁App	-5818
▁Nic	-5819
▁sacr	-5820
ashion	-5821
▁accur	-5822
▁fails	-5823
▁polar	-5824
▁white	-5825
▁Kosovo	-5826
▁decent	-5827
▁shares	-5828
interest	-5829
▁streets	-5830
▁Brotherhood	-5831
▁demographic	-5832
▁breakthrough	-5833
▁consistently	-5834
8.	-5835
mpt	-5836
oon	-5837
▁wa	-5838
▁hege	-5839
▁marked	-5840
▁missile	-5841
▁showing	-5842
▁Thailand	-5843
▁academic	-5844
▁dominated	-5845
▁imperative	-5846
▁bra	-5847
▁hab	-5848
▁Modi	-5849
▁zone	-5850
thirds	-5851
▁escal	-5852
termath	-5853
▁absorb	-5854
▁divide	-5855
▁trials	-5856
▁volunt	-5857
▁comfort	-5858
▁extended	-5859
▁Institute	-5860
▁aftermath	-5861
TA	-5862
now	-5863
work	-5864
▁Sub	-5865
▁surge	-5866
▁cooper	-5867
outheast	-5868
▁weather	-5869
▁mistakes	-5870
▁responses	-5871
AI	-5872
oto	-5873
oted	-5874
inded	-5875
sight	-5876
▁cars	-5877
▁2007,	-5878
▁advice	-5879
▁brings	-5880
▁sexual	-5881
▁annivers	-5882
▁damaging	-5883
▁educated	-5884
▁valuable	-5885
▁component	-5886
▁Bangladesh	-5887
▁progressive	-5888
▁confrontation	-5889
osy	-5890
point	-5891
▁blam	-5892
astrop	-5893
igrant	-5894
rights	-5895
▁facts	-5896
▁loyal	-5897
▁Angela	-5898
▁bodies	-5899
▁exclud	-5900
▁fourth	-5901
▁manner	-5902
▁Justice	-5903
▁eastern	-5904
▁profess	-5905
▁approval	-5906
▁managing	-5907
▁mobility	-5908
▁purchase	-5909
▁purchasing	-5910
▁acknowledge	-5911
▁pharmaceutical	-5912
▁representatives	-5913
▁3%	-5914
▁4.	-5915
agger	-5916
▁Bill	-5917
▁Burm	-5918
▁usual	-5919
▁redistrib	-5920
▁triggered	-5921
▁undermined	-5922
▁complicated	-5923
▁engineering	-5924
▁participate	-5925
▁depreciation	-5926
roc	-5927
cker	-5928
▁fle	-5929
▁Holl	-5930
▁aims	-5931
▁dark	-5932
▁aside	-5933
▁print	-5934
▁bigger	-5935
▁friend	-5936
▁gather	-5937
▁opened	-5938
▁Hungary	-5939
▁ethical	-5940
▁discoura	-5941
▁facilitate	-5942
▁prosperous	-5943
Es	-5944
▁Pet	-5945
▁Cuba	-5946
▁brid	-5947
▁adult	-5948
▁false	-5949
▁broadly	-5950
intensive	-5951
▁populism	-5952
▁diversity	-5953
▁foundation	-5954
▁phenomenon	-5955
ips	-5956
▁14	-5957
▁Cz	-5958
▁Mu	-5959
iver	-5960
apers	-5961
icial	-5962
ommod	-5963
▁runs	-5964
▁wait	-5965
▁guide	-5966
▁heads	-5967
▁Saddam	-5968
▁hunger	-5969
▁notion	-5970
soc	-5971
▁70%	-5972
itect	-5973
▁pict	-5974
▁Abbas	-5975
▁chaos	-5976
▁voice	-5977
▁thanks	-5978
▁alleged	-5979
▁stopped	-5980
▁distingu	-5981
▁patterns	-5982
▁catastrop	-5983
▁overwhelming	-5984
cow	-5985
ball	-5986
▁Jer	-5987
▁Moh	-5988
▁pet	-5989
oning	-5990
▁2005	-5991
▁forg	-5992
▁hero	-5993
▁strict	-5994
▁Pacific	-5995
▁capture	-5996
▁fulfill	-5997
▁disorder	-5998
▁original	-5999
▁reliable	-6000
▁separate	-6001
▁background	-6002
▁colleagues	-6003
▁identified	-6004
▁consequence	-6005
iced	-6006
▁Bol	-6007
▁mus	-6008
integ	-6009
▁Four	-6010
▁Free	-6011
▁uses	-6012
ection	-6013
▁1970’	-6014
▁Dutch	-6015
▁overh	-6016
osystem	-6017
▁dealing	-6018
▁appeared	-6019
▁concrete	-6020
▁benefited	-6021
▁stimulate	-6022
▁meaningful	-6023
▁minorities	-6024
▁strengthened	-6025
▁revolutionary	-6026
BO	-6027
pper	-6028
▁CEO	-6029
▁lab	-6030
▁tri	-6031
democ	-6032
efore	-6033
enced	-6034
▁Bash	-6035
establ	-6036
estate	-6037
inated	-6038
ptions	-6039
▁Roman	-6040
▁Robert	-6041
▁argues	-6042
▁justify	-6043
▁inclusion	-6044
▁materials	-6045
▁ownership	-6046
▁influential	-6047
▁characterized	-6048
▁send	-6049
▁2008.	-6050
illance	-6051
▁Change	-6052
▁Holland	-6053
▁limiting	-6054
▁architect	-6055
▁considerably	-6056
olar	-6057
bling	-6058
style	-6059
▁epid	-6060
ranean	-6061
▁fresh	-6062
▁types	-6063
▁depart	-6064
▁mental	-6065
▁greatly	-6066
▁initially	-6067
▁accelerate	-6068
▁extremists	-6069
▁anniversary	-6070
ugg	-6071
ocol	-6072
orsi	-6073
pass	-6074
▁Cur	-6075
▁Sal	-6076
oples	-6077
▁Conf	-6078
▁Hill	-6079
▁pure	-6080
▁rout	-6081
growth	-6082
ounded	-6083
ussels	-6084
▁recip	-6085
ressing	-6086
▁Church	-6087
▁height	-6088
▁stocks	-6089
▁treated	-6090
▁accommod	-6091
▁governing	-6092
▁organized	-6093
▁responded	-6094
▁succeeded	-6095
▁discipline	-6096
▁challenging	-6097
▁transformed	-6098
▁sophisticated	-6099
EA	-6100
▁enth	-6101
▁Berlin	-6102
▁chains	-6103
▁maintained	-6104
▁statements	-6105
▁expenditures	-6106
We	-6107
oods	-6108
▁Abd	-6109
▁Law	-6110
chang	-6111
▁shut	-6112
▁wall	-6113
00,000	-6114
asters	-6115
▁drawn	-6116
▁Moscow	-6117
▁estate	-6118
▁plenty	-6119
iterranean	-6120
▁Agreement	-6121
▁workforce	-6122
▁presidents	-6123
▁policymaking	-6124
oles	-6125
serv	-6126
▁Mah	-6127
▁doz	-6128
health	-6129
▁Clear	-6130
▁sympt	-6131
▁Agency	-6132
▁dilemm	-6133
▁famous	-6134
▁outbre	-6135
▁resort	-6136
▁grounds	-6137
▁equipment	-6138
▁advantages	-6139
II	-6140
fol	-6141
ley	-6142
omal	-6143
prof	-6144
▁rig	-6145
▁City	-6146
▁sect	-6147
irable	-6148
▁Goals	-6149
▁island	-6150
▁shadow	-6151
▁unders	-6152
▁selling	-6153
▁coverage	-6154
▁estimate	-6155
▁invested	-6156
pan	-6157
▁je	-6158
lish	-6159
odes	-6160
▁Den	-6161
▁nom	-6162
idden	-6163
▁True	-6164
▁wild	-6165
▁Morsi	-6166
▁abuse	-6167
▁Author	-6168
▁oppose	-6169
▁traged	-6170
▁Conserv	-6171
▁assumed	-6172
▁controlled	-6173
▁negotiated	-6174
ett	-6175
jad	-6176
uan	-6177
onia	-6178
orld	-6179
▁Ban	-6180
▁Mao	-6181
▁2004	-6182
▁minds	-6183
▁moves	-6184
▁storm	-6185
▁consult	-6186
▁ignored	-6187
▁carefully	-6188
▁impressive	-6189
▁experiencing	-6190
▁improvements	-6191
▁Mediterranean	-6192
▁extraordinary	-6193
olf	-6194
she	-6195
xic	-6196
▁Cr	-6197
ruit	-6198
▁Who	-6199
▁desp	-6200
▁insu	-6201
▁Forum	-6202
▁night	-6203
develop	-6204
enhagen	-6205
▁enemies	-6206
▁gradual	-6207
▁focusing	-6208
▁meetings	-6209
▁apparently	-6210
▁repression	-6211
▁resilience	-6212
ika	-6213
soft	-6214
▁drag	-6215
▁loan	-6216
▁2015.	-6217
▁PARIS	-6218
▁match	-6219
▁Resear	-6220
▁eradic	-6221
▁Harvard	-6222
▁backing	-6223
▁forcing	-6224
▁gaining	-6225
▁Brussels	-6226
▁somewhat	-6227
▁vehicles	-6228
▁threatens	-6229
▁unconventional	-6230
lum	-6231
iang	-6232
▁Let	-6233
▁1970	-6234
▁eval	-6235
▁teac	-6236
▁tort	-6237
▁unex	-6238
▁antib	-6239
▁noted	-6240
▁watch	-6241
▁propag	-6242
▁Kurdish	-6243
▁believes	-6244
▁ecosystem	-6245
▁obstacles	-6246
▁unemployed	-6247
▁neighboring	-6248
▁discrimination	-6249
Ass	-6250
ked	-6251
oked	-6252
unch	-6253
▁hyp	-6254
ifies	-6255
▁None	-6256
▁didn	-6257
▁prox	-6258
▁Among	-6259
▁Board	-6260
▁heard	-6261
respons	-6262
▁donors	-6263
▁enthus	-6264
▁scheme	-6265
▁preserve	-6266
▁slightly	-6267
▁realistic	-6268
▁recommend	-6269
▁Copenhagen	-6270
▁dependence	-6271
▁unilateral	-6272
▁involvement	-6273
▁partnerships	-6274
ebt	-6275
oor	-6276
comp	-6277
▁Lab	-6278
▁Mad	-6279
▁Red	-6280
▁son	-6281
iking	-6282
price	-6283
rency	-6284
▁pose	-6285
addafi	-6286
itudes	-6287
▁cells	-6288
▁Public	-6289
▁Should	-6290
▁female	-6291
▁retain	-6292
▁artific	-6293
▁deposits	-6294
▁imposing	-6295
▁collapsed	-6296
▁communism	-6297
▁commission	-6298
▁provisions	-6299
▁insufficient	-6300
);	-6301
kan	-6302
lor	-6303
ebted	-6304
▁unst	-6305
▁older	-6306
▁fueling	-6307
▁measured	-6308
▁occasion	-6309
▁suddenly	-6310
▁presented	-6311
▁attempting	-6312
▁difficulties	-6313
▁surprisingly	-6314
rig	-6315
osen	-6316
▁spl	-6317
Assad	-6318
▁2006	-6319
▁blow	-6320
▁star	-6321
▁unle	-6322
▁wise	-6323
gently	-6324
lessly	-6325
▁Czech	-6326
▁shifts	-6327
atlantic	-6328
▁Nuclear	-6329
▁illness	-6330
▁Malaysia	-6331
▁emphasis	-6332
▁Political	-6333
▁Southeast	-6334
▁generating	-6335
▁Sustainable	-6336
▁inefficient	-6337
face	-6338
▁Fat	-6339
icism	-6340
▁prud	-6341
▁seas	-6342
aration	-6343
▁broken	-6344
▁caught	-6345
▁careful	-6346
▁doctors	-6347
▁entered	-6348
▁spectac	-6349
▁regarding	-6350
▁persistent	-6351
ko	-6352
aus	-6353
sur	-6354
▁Ir	-6355
▁Li	-6356
real	-6357
stan	-6358
▁Bet	-6359
claim	-6360
▁fill	-6361
▁gets	-6362
▁doctr	-6363
▁simpl	-6364
▁attend	-6365
▁explos	-6366
▁Clearly	-6367
▁English	-6368
▁urgently	-6369
▁construct	-6370
▁involving	-6371
▁secondary	-6372
▁compelling	-6373
▁indicators	-6374
▁internationally	-6375
cut	-6376
len	-6377
vez	-6378
indu	-6379
▁Big	-6380
▁Chá	-6381
▁Her	-6382
▁2016	-6383
▁Educ	-6384
▁indu	-6385
▁pill	-6386
▁BRICS	-6387
perform	-6388
▁Reagan	-6389
▁slower	-6390
▁dangers	-6391
▁possess	-6392
▁prepare	-6393
▁informal	-6394
▁monopoly	-6395
▁importantly	-6396
▁surveillance	-6397
itz	-6398
yan	-6399
eted	-6400
rity	-6401
▁AIDS	-6402
▁pipe	-6403
▁tele	-6404
▁Three	-6405
▁arbit	-6406
▁happy	-6407
▁refer	-6408
▁overse	-6409
▁patient	-6410
▁portfol	-6411
▁Atlantic	-6412
▁obviously	-6413
▁perception	-6414
win	-6415
▁Eb	-6416
▁Im	-6417
▁90%	-6418
▁Hit	-6419
▁Jin	-6420
▁neo	-6421
iliar	-6422
opard	-6423
▁Rich	-6424
iously	-6425
▁1930’	-6426
▁links	-6427
▁repay	-6428
▁scand	-6429
▁poorer	-6430
▁paralle	-6431
▁activists	-6432
▁predicted	-6433
▁prominent	-6434
▁achievement	-6435
▁manipulation	-6436
▁proliferation	-6437
outs	-6438
▁Bas	-6439
China	-6440
omics	-6441
party	-6442
▁suic	-6443
▁penal	-6444
▁Before	-6445
▁Through	-6446
▁accused	-6447
▁routine	-6448
▁financed	-6449
▁implicit	-6450
▁ourselves	-6451
▁prolonged	-6452
▁Conference	-6453
governmental	-6454
▁protectionism	-6455
▁1,	-6456
agon	-6457
ogle	-6458
▁191	-6459
▁Imp	-6460
▁Ric	-6461
place	-6462
▁$100	-6463
▁ease	-6464
▁rock	-6465
▁sequ	-6466
iaries	-6467
thodox	-6468
▁Chávez	-6469
▁openly	-6470
▁superv	-6471
▁intense	-6472
▁privile	-6473
▁sensible	-6474
▁severely	-6475
▁straight	-6476
▁intention	-6477
▁statistics	-6478
ein	-6479
acco	-6480
beit	-6481
ibet	-6482
▁avo	-6483
▁kil	-6484
cking	-6485
▁Shar	-6486
minded	-6487
▁Front	-6488
▁eager	-6489
rations	-6490
▁Stalin	-6491
▁privat	-6492
▁talent	-6493
▁decreas	-6494
▁removed	-6495
▁rightly	-6496
▁finances	-6497
▁outright	-6498
▁vaccines	-6499
▁volatile	-6500
▁Authority	-6501
▁assumption	-6502
ima	-6503
och	-6504
ple	-6505
▁$7	-6506
▁Ac	-6507
cost	-6508
▁hed	-6509
▁Char	-6510
▁pick	-6511
▁2005,	-6512
▁Somal	-6513
▁risen	-6514
▁belong	-6515
▁paraly	-6516
▁rooted	-6517
▁avoided	-6518
▁picture	-6519
▁planned	-6520
▁winning	-6521
inational	-6522
▁features	-6523
▁protected	-6524
▁reductions	-6525
▁functioning	-6526
▁liabilities	-6527
NP	-6528
emb	-6529
▁6.	-6530
ateg	-6531
hani	-6532
▁Inc	-6533
▁gun	-6534
athol	-6535
essim	-6536
▁lawy	-6537
▁terr	-6538
driven	-6539
▁imply	-6540
▁seats	-6541
▁asylum	-6542
▁presum	-6543
▁waters	-6544
▁jeopard	-6545
▁written	-6546
▁generous	-6547
▁pressing	-6548
▁underest	-6549
▁extremism	-6550
▁reluctant	-6551
▁expression	-6552
▁catastrophe	-6553
▁neighborhood	-6554
alf	-6555
opia	-6556
▁Art	-6557
▁Hol	-6558
ourse	-6559
▁Gold	-6560
▁outl	-6561
Palest	-6562
inejad	-6563
rading	-6564
rained	-6565
▁falls	-6566
▁Google	-6567
▁tackle	-6568
▁triump	-6569
▁release	-6570
▁approved	-6571
▁indicate	-6572
▁mortgages	-6573
▁operation	-6574
▁requiring	-6575
fe	-6576
def	-6577
kin	-6578
uls	-6579
lymp	-6580
▁fun	-6581
▁Coop	-6582
▁Shin	-6583
▁rail	-6584
iances	-6585
▁Inter	-6586
▁consc	-6587
▁manif	-6588
▁Hitler	-6589
▁exists	-6590
▁resent	-6591
▁deposit	-6592
▁granted	-6593
▁strikes	-6594
inflation	-6595
▁mitigate	-6596
▁advocates	-6597
▁dominance	-6598
▁inability	-6599
born	-6600
roll	-6601
ruck	-6602
▁hur	-6603
emics	-6604
iations	-6605
veraged	-6606
▁agency	-6607
▁dispar	-6608
▁inside	-6609
▁unfair	-6610
▁Francis	-6611
▁openness	-6612
▁underway	-6613
▁guaranteed	-6614
▁coordinated	-6615
ilib	-6616
▁meg	-6617
▁2000,	-6618
▁Ahmad	-6619
▁Ebola	-6620
▁Tibet	-6621
▁check	-6622
▁deleg	-6623
▁postp	-6624
▁Bashar	-6625
▁animals	-6626
▁display	-6627
▁peoples	-6628
▁slowing	-6629
▁Islamists	-6630
▁destroyed	-6631
▁employers	-6632
▁intervene	-6633
▁stabilize	-6634
▁Constitution	-6635
bed	-6636
▁You	-6637
▁hyd	-6638
inger	-6639
▁hear	-6640
▁onto	-6641
▁Arabs	-6642
▁Fatah	-6643
▁inher	-6644
▁Recent	-6645
▁poorly	-6646
▁dropped	-6647
▁lasting	-6648
▁missing	-6649
▁traffic	-6650
▁distinct	-6651
▁inherent	-6652
▁Keynesian	-6653
▁modernization	-6654
lu	-6655
▁[	-6656
angh	-6657
qual	-6658
▁dog	-6659
Sahar	-6660
atism	-6661
ushar	-6662
▁Scot	-6663
▁epis	-6664
usalem	-6665
▁Olymp	-6666
▁categ	-6667
▁crash	-6668
▁expos	-6669
Saharan	-6670
▁Cathol	-6671
▁couple	-6672
▁element	-6673
▁empower	-6674
▁feeling	-6675
▁undersc	-6676
▁creative	-6677
▁exporters	-6678
▁Convention	-6679
▁affordable	-6680
▁contradict	-6681
▁foreigners	-6682
▁expenditure	-6683
▁controversial	-6684
band	-6685
rors	-6686
▁192	-6687
▁bit	-6688
▁yen	-6689
▁acts	-6690
othing	-6691
▁anger	-6692
▁enlar	-6693
▁overt	-6694
▁presc	-6695
▁seeks	-6696
▁sites	-6697
▁select	-6698
▁sooner	-6699
▁weapon	-6700
usharraf	-6701
▁Jinping	-6702
▁erupted	-6703
connected	-6704
▁Hollande	-6705
▁mounting	-6706
▁reliance	-6707
▁abandoned	-6708
▁residents	-6709
▁acceptable	-6710
▁aspirations	-6711
ara	-6712
phic	-6713
▁slo	-6714
unity	-6715
▁Ethi	-6716
▁code	-6717
▁unit	-6718
▁vent	-6719
uction	-6720
utives	-6721
▁books	-6722
▁Corpor	-6723
▁spring	-6724
▁Hillary	-6725
▁courage	-6726
▁paradox	-6727
▁Democracy	-6728
▁Stability	-6729
▁connected	-6730
▁projected	-6731
▁represented	-6732
▁contributing	-6733
sun	-6734
reen	-6735
▁Dar	-6736
▁cul	-6737
▁une	-6738
▁Face	-6739
▁tens	-6740
▁acute	-6741
▁backl	-6742
▁Others	-6743
▁Unless	-6744
▁fields	-6745
▁signal	-6746
▁struck	-6747
▁antibiot	-6748
▁constitu	-6749
▁resolved	-6750
▁comparable	-6751
▁problematic	-6752
."	-6753
me	-6754
asp	-6755
cell	-6756
ests	-6757
▁cab	-6758
▁cop	-6759
▁wal	-6760
urers	-6761
anghai	-6762
▁Burma	-6763
▁Group	-6764
▁Power	-6765
▁laure	-6766
▁Labour	-6767
▁define	-6768
▁convers	-6769
▁Scotland	-6770
▁constant	-6771
▁reversed	-6772
▁motivated	-6773
▁populists	-6774
▁prevented	-6775
▁sectarian	-6776
bod	-6777
bor	-6778
icon	-6779
▁15%	-6780
▁Che	-6781
▁Off	-6782
utral	-6783
▁date	-6784
▁grid	-6785
tering	-6786
▁Frank	-6787
▁Medic	-6788
ortions	-6789
▁Denmark	-6790
▁citizen	-6791
▁tragedy	-6792
▁vaccine	-6793
roportion	-6794
▁Research	-6795
▁numerous	-6796
▁expertise	-6797
▁electorate	-6798
▁enforcement	-6799
bl	-6800
ils	-6801
iox	-6802
▁Zh	-6803
▁dys	-6804
enses	-6805
riage	-6806
▁Back	-6807
▁Sand	-6808
▁dele	-6809
▁exem	-6810
▁puts	-6811
▁quot	-6812
icking	-6813
▁chain	-6814
▁chose	-6815
▁genoc	-6816
▁shale	-6817
ilitary	-6818
▁Strate	-6819
▁enrich	-6820
▁foster	-6821
▁unrest	-6822
▁immense	-6823
▁Shanghai	-6824
▁analysts	-6825
▁avoiding	-6826
▁medicine	-6827
tr	-6828
ois	-6829
ctic	-6830
▁Del	-6831
hered	-6832
▁ends	-6833
▁Fried	-6834
▁arise	-6835
▁blind	-6836
▁catch	-6837
▁valid	-6838
▁Norway	-6839
▁asking	-6840
illennium	-6841
▁anywhere	-6842
▁Jerusalem	-6843
▁interested	-6844
▁procedures	-6845
hy	-6846
▁Gh	-6847
athy	-6848
onds	-6849
▁Rel	-6850
redit	-6851
▁trap	-6852
astrous	-6853
sharing	-6854
▁Serbia	-6855
▁looked	-6856
▁murder	-6857
▁chances	-6858
▁disturb	-6859
▁feature	-6860
▁pursuit	-6861
▁colonial	-6862
▁striking	-6863
▁Education	-6864
▁Musharraf	-6865
▁accession	-6866
▁complement	-6867
▁disastrous	-6868
▁executives	-6869
▁devaluation	-6870
▁concentrated	-6871
akh	-6872
cel	-6873
imp	-6874
alog	-6875
coni	-6876
fund	-6877
lets	-6878
▁upg	-6879
▁Init	-6880
▁2006,	-6881
▁Found	-6882
▁deploy	-6883
▁uphold	-6884
▁autonomy	-6885
▁machines	-6886
▁confident	-6887
▁desperate	-6888
▁targeting	-6889
▁commodities	-6890
▁contraction	-6891
CA	-6892
CP	-6893
▁BR	-6894
sein	-6895
▁PRI	-6896
▁Rou	-6897
econom	-6898
icians	-6899
▁Earth	-6900
▁enemy	-6901
▁innoc	-6902
ultural	-6903
▁Cyprus	-6904
▁Mexican	-6905
▁outlook	-6906
▁testing	-6907
▁triumph	-6908
▁visible	-6909
▁claiming	-6910
▁superior	-6911
▁accountable	-6912
▁respectively	-6913
▁multinational	-6914
▁vulnerability	-6915
▁communications	-6916
▁reconciliation	-6917
ES	-6918
anke	-6919
enei	-6920
hand	-6921
ught	-6922
▁Pan	-6923
itzer	-6924
▁Bosn	-6925
▁Deng	-6926
▁rent	-6927
▁warn	-6928
amenei	-6929
oration	-6930
▁Greens	-6931
struction	-6932
▁backlash	-6933
▁disagree	-6934
▁supports	-6935
▁awareness	-6936
▁campaigns	-6937
▁platforms	-6938
▁politician	-6939
▁achievements	-6940
sen	-6941
fire	-6942
iest	-6943
rium	-6944
▁Out	-6945
▁ang	-6946
▁2001	-6947
invest	-6948
opular	-6949
▁2010.	-6950
▁Kurds	-6951
▁plays	-6952
▁toxic	-6953
▁Polish	-6954
▁empire	-6955
chnology	-6956
▁anxiety	-6957
▁foresee	-6958
▁lenders	-6959
▁Business	-6960
▁Khamenei	-6961
▁balances	-6962
▁division	-6963
▁pensions	-6964
▁Represent	-6965
▁explained	-6966
▁reputation	-6967
45;	-6968
adv	-6969
arr	-6970
▁21	-6971
▁4%	-6972
cles	-6973
iful	-6974
rand	-6975
▁mag	-6976
insula	-6977
▁Alger	-6978
▁Where	-6979
▁cease	-6980
▁Berlus	-6981
▁Macron	-6982
▁ratios	-6983
▁remote	-6984
idelines	-6985
lessness	-6986
▁ancient	-6987
▁fashion	-6988
▁prefere	-6989
▁directed	-6990
▁convergence	-6991
EY	-6992
▁5.	-6993
▁eg	-6994
aker	-6995
atar	-6996
atri	-6997
ollar	-6998
▁Jong	-6999
▁dign	-7000
▁forth	-7001
▁ranks	-7002
▁stark	-7003
▁stood	-7004
▁turns	-7005
▁judges	-7006
▁upward	-7007
▁arguing	-7008
▁binding	-7009
▁actively	-7010
▁complain	-7011
▁conclude	-7012
▁doctrine	-7013
▁dominate	-7014
▁realized	-7015
▁communist	-7016
▁reinforce	-7017
▁safeguard	-7018
▁Berlusconi	-7019
▁difficulty	-7020
▁dysfunction	-7021
jud	-7022
▁Ann	-7023
▁DNA	-7024
▁Army	-7025
▁ISIS	-7026
backed	-7027
▁brief	-7028
▁roads	-7029
▁begins	-7030
▁Finance	-7031
▁cheaper	-7032
▁tariffs	-7033
▁champion	-7034
▁criteria	-7035
▁disinteg	-7036
▁committee	-7037
▁competing	-7038
▁favorable	-7039
▁philosoph	-7040
▁Cooperation	-7041
▁bureaucracy	-7042
▁rebalancing	-7043
▁recognizing	-7044
▁contemporary	-7045
▁communication	-7046
▁disproportion	-7047
;&	-7048
IP	-7049
va	-7050
new	-7051
zed	-7052
mony	-7053
omic	-7054
owed	-7055
uate	-7056
asive	-7057
▁pool	-7058
adjust	-7059
▁giant	-7060
▁poses	-7061
▁saved	-7062
reshold	-7063
▁albeit	-7064
▁fellow	-7065
▁headed	-7066
▁assault	-7067
▁periods	-7068
▁preserv	-7069
▁waiting	-7070
itzerland	-7071
▁Bernanke	-7072
▁Facebook	-7073
▁adopting	-7074
▁channels	-7075
▁upcoming	-7076
▁alliances	-7077
▁existence	-7078
▁foundations	-7079
zo	-7080
osm	-7081
ooth	-7082
▁Dis	-7083
▁Far	-7084
▁WTO	-7085
egoti	-7086
▁2003	-7087
▁feas	-7088
▁tsun	-7089
▁veto	-7090
racted	-7091
▁Green	-7092
▁facto	-7093
▁grave	-7094
▁route	-7095
▁Romney	-7096
▁honest	-7097
▁recall	-7098
▁regist	-7099
▁adoption	-7100
▁convince	-7101
▁geograph	-7102
▁missiles	-7103
▁persuade	-7104
▁attitudes	-7105
▁beneficial	-7106
▁likelihood	-7107
▁Switzerland	-7108
lav	-7109
mor	-7110
omed	-7111
▁halt	-7112
▁melt	-7113
▁sets	-7114
▁symp	-7115
▁Times	-7116
▁genes	-7117
▁advert	-7118
▁calcul	-7119
▁Chairman	-7120
▁judgment	-7121
▁principal	-7122
▁realities	-7123
▁monitoring	-7124
▁optimistic	-7125
▁weaknesses	-7126
▁legislative	-7127
▁congressional	-7128
oo	-7129
bur	-7130
▁Hu	-7131
kers	-7132
olas	-7133
▁sun	-7134
eting	-7135
ishes	-7136
▁Each	-7137
▁Road	-7138
▁alien	-7139
▁remed	-7140
▁Summit	-7141
▁memory	-7142
▁revive	-7143
▁dilemma	-7144
▁familiar	-7145
▁indebted	-7146
▁divisions	-7147
▁Government	-7148
▁fundamentals	-7149
OS	-7150
▁Bh	-7151
ixon	-7152
▁Hus	-7153
erman	-7154
▁lobb	-7155
▁love	-7156
▁subm	-7157
▁gross	-7158
▁haven	-7159
▁hoped	-7160
▁lived	-7161
▁pound	-7162
▁Center	-7163
▁driver	-7164
▁richer	-7165
▁Against	-7166
▁extensive	-7167
▁sensitive	-7168
▁threshold	-7169
▁propaganda	-7170
▁eliminating	-7171
AV	-7172
hr	-7173
▁11,	-7174
▁NGO	-7175
archy	-7176
astic	-7177
▁Chen	-7178
▁hurt	-7179
▁vary	-7180
Israel	-7181
orship	-7182
ounced	-7183
▁crops	-7184
▁insol	-7185
▁novel	-7186
▁spill	-7187
▁fought	-7188
▁lowest	-7189
▁overth	-7190
▁pessim	-7191
▁remove	-7192
▁sacrif	-7193
▁stated	-7194
▁somehow	-7195
▁explains	-7196
▁famously	-7197
▁disasters	-7198
▁livelihood	-7199
▁predictable	-7200
▁announcement	-7201
eds	-7202
itch	-7203
▁Aff	-7204
▁Ren	-7205
▁dub	-7206
▁pal	-7207
▁fasc	-7208
▁gaps	-7209
accept	-7210
ailing	-7211
▁forest	-7212
▁refuse	-7213
building	-7214
ilibrium	-7215
▁cabinet	-7216
▁details	-7217
▁premium	-7218
▁treaties	-7219
▁alongside	-7220
▁justified	-7221
▁Ahmadinejad	-7222
▁confronting	-7223
CT	-7224
KEL	-7225
ikh	-7226
rav	-7227
▁Gü	-7228
mmet	-7229
▁Emp	-7230
▁Kar	-7231
▁mos	-7232
polit	-7233
▁coun	-7234
▁deny	-7235
▁door	-7236
▁plun	-7237
holder	-7238
owered	-7239
▁Kyoto	-7240
▁cohes	-7241
▁quiet	-7242
▁inject	-7243
▁street	-7244
▁classes	-7245
▁exposure	-7246
▁isolated	-7247
▁judicial	-7248
▁mobilize	-7249
▁produces	-7250
▁purposes	-7251
▁attempted	-7252
▁introduce	-7253
▁overwhelm	-7254
▁shortfall	-7255
▁Industrial	-7256
▁territories	-7257
IT	-7258
ses	-7259
▁(1	-7260
ache	-7261
ding	-7262
izon	-7263
▁Mil	-7264
▁eye	-7265
KELEY	-7266
▁Pers	-7267
▁guard	-7268
▁schol	-7269
rational	-7270
▁Hussein	-7271
▁indirect	-7272
controlled	-7273
▁discussed	-7274
▁popularity	-7275
▁arrangement	-7276
▁sufficiently	-7277
ocal	-7278
rong	-7279
such	-7280
uris	-7281
▁Adm	-7282
▁hub	-7283
▁cens	-7284
incing	-7285
redict	-7286
urable	-7287
▁2013.	-7288
▁Moroc	-7289
▁Women	-7290
▁corre	-7291
▁donor	-7292
▁proud	-7293
▁resur	-7294
forward	-7295
▁formed	-7296
▁slowed	-7297
▁volume	-7298
election	-7299
ollowing	-7300
▁earthqu	-7301
▁BERKELEY	-7302
▁accident	-7303
▁demanded	-7304
▁dynamics	-7305
▁observed	-7306
▁computers	-7307
▁reinforced	-7308
▁interdepend	-7309
▁traditionally	-7310
ums	-7311
▁Qu	-7312
uity	-7313
▁eld	-7314
ophob	-7315
under	-7316
▁Supp	-7317
▁inex	-7318
active	-7319
icated	-7320
ighter	-7321
▁2012.	-7322
▁Assoc	-7323
▁Qatar	-7324
▁Somet	-7325
▁judge	-7326
▁merit	-7327
▁Having	-7328
▁flawed	-7329
▁invent	-7330
▁plural	-7331
▁suspic	-7332
▁Capital	-7333
▁Indians	-7334
▁deserve	-7335
▁relying	-7336
▁creditor	-7337
▁enhanced	-7338
▁proclaim	-7339
▁transportation	-7340
ey	-7341
sey	-7342
amin	-7343
aunt	-7344
educ	-7345
▁Ali	-7346
▁glo	-7347
▁los	-7348
▁map	-7349
scape	-7350
▁curb	-7351
▁deem	-7352
▁Crime	-7353
▁Nixon	-7354
▁Worse	-7355
▁circle	-7356
▁contag	-7357
▁flight	-7358
▁enacted	-7359
▁skilled	-7360
▁student	-7361
▁tactics	-7362
▁accurate	-7363
▁laureate	-7364
government	-7365
▁considering	-7366
▁destructive	-7367
SA	-7368
ek	-7369
iat	-7370
iary	-7371
▁SDR	-7372
▁cas	-7373
elect	-7374
night	-7375
▁Five	-7376
▁film	-7377
ioxide	-7378
▁crack	-7379
▁input	-7380
▁plumm	-7381
aughter	-7382
▁Reform	-7383
▁abuses	-7384
▁analog	-7385
▁denied	-7386
▁fairly	-7387
▁payment	-7388
▁refusal	-7389
▁shifted	-7390
▁talking	-7391
astrophic	-7392
▁Ethiopia	-7393
▁Thatcher	-7394
▁steadily	-7395
▁unstable	-7396
▁affecting	-7397
▁pragmatic	-7398
▁constrained	-7399
▁collaboration	-7400
ón	-7401
▁24	-7402
▁ble	-7403
▁fan	-7404
▁pul	-7405
0,000	-7406
water	-7407
▁Belg	-7408
▁Park	-7409
▁cope	-7410
▁tons	-7411
▁enfor	-7412
▁honor	-7413
▁unequ	-7414
istical	-7415
▁method	-7416
▁relies	-7417
▁distant	-7418
▁follows	-7419
orruption	-7420
▁Whatever	-7421
▁tendency	-7422
▁Ukrainian	-7423
▁shortages	-7424
▁comparison	-7425
▁experiences	-7426
▁understandable	-7427
HI	-7428
ivot	-7429
▁Ang	-7430
▁Wal	-7431
arked	-7432
inite	-7433
▁Fran	-7434
▁Jean	-7435
▁duty	-7436
▁plaus	-7437
▁chosen	-7438
currency	-7439
▁aspects	-7440
▁deliber	-7441
▁dynamism	-7442
▁overseas	-7443
▁teachers	-7444
▁followers	-7445
▁receiving	-7446
▁Foundation	-7447
▁considerations	-7448
Th	-7449
igen	-7450
▁arm	-7451
▁exh	-7452
&#45;	-7453
henko	-7454
▁fine	-7455
▁fool	-7456
▁heat	-7457
▁luck	-7458
reform	-7459
retton	-7460
▁abund	-7461
▁deriv	-7462
▁draft	-7463
▁ocean	-7464
ription	-7465
▁School	-7466
▁assist	-7467
▁steady	-7468
▁bolster	-7469
▁enables	-7470
▁reduces	-7471
▁telling	-7472
▁typical	-7473
▁attitude	-7474
▁declines	-7475
▁democrat	-7476
▁cooperate	-7477
▁integrity	-7478
▁mortality	-7479
▁resolving	-7480
▁Millennium	-7481
▁discovered	-7482
▁explicitly	-7483
▁situations	-7484
▁historically	-7485
▁determination	-7486
CO	-7487
asy	-7488
ras	-7489
▁Ts	-7490
cure	-7491
▁Xia	-7492
▁tob	-7493
▁Woods	-7494
▁bench	-7495
▁entry	-7496
▁hedge	-7497
▁panic	-7498
▁cataly	-7499
▁settle	-7500
▁schemes	-7501
▁tobacco	-7502
▁embraced	-7503
▁foremost	-7504
▁marriage	-7505
▁deepening	-7506
▁wellbeing	-7507
▁prevailing	-7508
▁competitors	-7509
▁surrounding	-7510
It	-7511
ky	-7512
cul	-7513
umn	-7514
▁23	-7515
▁7.	-7516
▁Ba	-7517
anim	-7518
erry	-7519
rict	-7520
supp	-7521
ected	-7522
▁Peru	-7523
energy	-7524
▁2003,	-7525
▁Boliv	-7526
▁harsh	-7527
▁exclus	-7528
▁seeing	-7529
▁suspect	-7530
▁tension	-7531
▁Northern	-7532
▁feasible	-7533
▁involves	-7534
▁unaccept	-7535
▁disappear	-7536
▁regularly	-7537
▁restoring	-7538
▁selection	-7539
▁delivering	-7540
▁emphasized	-7541
▁tightening	-7542
▁treatments	-7543
▁nonetheless	-7544
▁introduction	-7545
▁significance	-7546
▁representative	-7547
ham	-7548
ini	-7549
ipp	-7550
▁Sur	-7551
▁Ter	-7552
▁Nazi	-7553
▁Year	-7554
▁roll	-7555
iciary	-7556
urance	-7557
▁1960’	-7558
▁ultra	-7559
▁virus	-7560
essions	-7561
▁adding	-7562
▁career	-7563
▁Somalia	-7564
▁hostile	-7565
▁suicide	-7566
▁younger	-7567
▁obstacle	-7568
▁software	-7569
▁Greenspan	-7570
▁Otherwise	-7571
▁desirable	-7572
▁newspaper	-7573
▁enterprise	-7574
▁supervision	-7575
▁accelerating	-7576
▁protectionist	-7577
hman	-7578
▁500	-7579
▁San	-7580
▁Tay	-7581
▁jump	-7582
▁tail	-7583
▁trem	-7584
▁unus	-7585
iating	-7586
necess	-7587
ocrats	-7588
▁funded	-7589
▁restra	-7590
▁Alliance	-7591
▁investor	-7592
▁meantime	-7593
▁optimism	-7594
▁outbreak	-7595
▁naturally	-7596
▁undertake	-7597
▁challenged	-7598
▁insecurity	-7599
▁spectacular	-7600
▁inflationary	-7601
▁Rw	-7602
dict	-7603
gers	-7604
hard	-7605
wind	-7606
▁inj	-7607
▁intr	-7608
▁vice	-7609
gments	-7610
licted	-7611
▁Labor	-7612
▁pride	-7613
growing	-7614
▁forget	-7615
▁incumb	-7616
▁massac	-7617
▁dignity	-7618
▁discont	-7619
▁neutral	-7620
▁nowhere	-7621
▁genocide	-7622
▁happiness	-7623
▁premature	-7624
▁rejection	-7625
▁components	-7626
▁adjustments	-7627
▁differently	-7628
▁interpretation	-7629
ala	-7630
▁Air	-7631
▁Day	-7632
▁Dra	-7633
▁bid	-7634
ernal	-7635
hetic	-7636
▁depr	-7637
▁male	-7638
▁2004,	-7639
▁2011.	-7640
▁Gates	-7641
▁arsen	-7642
▁bills	-7643
▁dereg	-7644
▁finds	-7645
▁rigid	-7646
▁train	-7647
▁Cambod	-7648
▁dispos	-7649
▁precip	-7650
ceptions	-7651
▁concess	-7652
▁forests	-7653
▁shaping	-7654
▁Governor	-7655
▁governed	-7656
▁meltdown	-7657
▁integrate	-7658
▁strongest	-7659
▁appreciate	-7660
▁constitute	-7661
▁eliminated	-7662
▁equilibrium	-7663
▁ineffective	-7664
▁catastrophic	-7665
DI	-7666
OEs	-7667
asi	-7668
irm	-7669
rill	-7670
▁Tax	-7671
▁bed	-7672
▁fit	-7673
▁isn	-7674
▁kid	-7675
ivals	-7676
▁evil	-7677
imated	-7678
▁2016,	-7679
▁alive	-7680
▁amend	-7681
▁brand	-7682
▁Office	-7683
▁assass	-7684
▁degrad	-7685
▁stakes	-7686
▁Bretton	-7687
▁Richard	-7688
▁acquire	-7689
▁joining	-7690
▁liberty	-7691
▁neglect	-7692
▁findings	-7693
▁manifest	-7694
▁judiciary	-7695
▁administrative	-7696
-8	-7697
ghi	-7698
iol	-7699
▁Don	-7700
▁Shi	-7701
anium	-7702
prime	-7703
▁1930	-7704
▁Iron	-7705
▁mood	-7706
▁note	-7707
▁rank	-7708
▁Irish	-7709
▁Prize	-7710
▁broke	-7711
▁moder	-7712
▁tends	-7713
▁zones	-7714
ounding	-7715
▁blamed	-7716
▁scarce	-7717
▁therap	-7718
▁Austria	-7719
▁Several	-7720
▁burdens	-7721
▁degrees	-7722
▁pledged	-7723
▁traject	-7724
▁entering	-7725
▁preferred	-7726
▁acceptance	-7727
▁collateral	-7728
▁definition	-7729
▁declaration	-7730
▁straightforward	-7731
cu	-7732
ply	-7733
-199	-7734
asks	-7735
atal	-7736
▁Lis	-7737
▁bes	-7738
itate	-7739
tical	-7740
usive	-7741
▁nurt	-7742
▁outf	-7743
advant	-7744
▁align	-7745
uration	-7746
▁Lehman	-7747
▁exempl	-7748
▁pledge	-7749
▁resign	-7750
▁stream	-7751
▁worker	-7752
▁tsunami	-7753
▁employed	-7754
▁enduring	-7755
▁holdings	-7756
▁minimize	-7757
▁worrying	-7758
▁providers	-7759
▁complexity	-7760
▁confronted	-7761
▁recognizes	-7762
▁desperately	-7763
▁professionals	-7764
▁.	-7765
▁27	-7766
airo	-7767
oler	-7768
uled	-7769
well	-7770
▁Jun	-7771
▁bip	-7772
▁hes	-7773
exist	-7774
house	-7775
ormal	-7776
▁Emer	-7777
▁pand	-7778
▁pull	-7779
▁uphe	-7780
apping	-7781
ocracy	-7782
enomics	-7783
▁advent	-7784
▁machine	-7785
▁ranging	-7786
▁vicious	-7787
▁cyclical	-7788
▁delivery	-7789
▁describe	-7790
▁lowering	-7791
▁parallel	-7792
▁shortage	-7793
▁troubled	-7794
▁benchmark	-7795
▁altogether	-7796
▁stabilizing	-7797
spe	-7798
tic	-7799
▁$6	-7800
▁pu	-7801
ords	-7802
▁Inf	-7803
▁Ref	-7804
▁Ult	-7805
▁sho	-7806
▁web	-7807
Japan	-7808
olved	-7809
ullah	-7810
▁Wolf	-7811
▁card	-7812
▁diff	-7813
iative	-7814
▁grant	-7815
▁stret	-7816
adjusted	-7817
quarters	-7818
▁uranium	-7819
▁advocate	-7820
▁coherent	-7821
▁document	-7822
▁implying	-7823
▁diplomats	-7824
▁reporting	-7825
▁successes	-7826
iodiversity	-7827
▁artificial	-7828
▁infectious	-7829
▁protesters	-7830
▁exacerbated	-7831
▁predecessor	-7832
▁transatlantic	-7833
Cs	-7834
EI	-7835
▁Lo	-7836
▁TV	-7837
aise	-7838
▁Oil	-7839
vered	-7840
▁laid	-7841
▁toll	-7842
General	-7843
▁Draghi	-7844
▁bitter	-7845
▁bought	-7846
▁disarm	-7847
▁doubts	-7848
▁freely	-7849
▁Rouhani	-7850
▁aggress	-7851
▁exploit	-7852
▁favored	-7853
▁implied	-7854
▁revival	-7855
▁defeated	-7856
▁generals	-7857
▁unnecess	-7858
▁accounted	-7859
▁emotional	-7860
▁landscape	-7861
▁interesting	-7862
▁livelihoods	-7863
▁underpinned	-7864
▁acknowledged	-7865
▁expansionary	-7866
▁temperatures	-7867
▁urbanization	-7868
gs	-7869
LIN	-7870
NCE	-7871
▁sn	-7872
zing	-7873
edded	-7874
isher	-7875
▁Mahm	-7876
▁flee	-7877
▁rend	-7878
NCETON	-7879
alling	-7880
ipping	-7881
▁camps	-7882
▁juris	-7883
▁sight	-7884
▁vigor	-7885
▁Ronald	-7886
▁namely	-7887
▁affects	-7888
▁enjoyed	-7889
▁focuses	-7890
▁richest	-7891
▁clinical	-7892
▁founding	-7893
▁frequent	-7894
▁governor	-7895
▁inspired	-7896
democratic	-7897
productive	-7898
▁PRINCETON	-7899
▁emphasize	-7900
▁irrespons	-7901
▁criticized	-7902
▁assumptions	-7903
▁cooperative	-7904
▁constructive	-7905
▁concentration	-7906
-7	-7907
OK	-7908
voc	-7909
▁(“	-7910
▁7%	-7911
inal	-7912
organ	-7913
rutin	-7914
▁Mich	-7915
▁flat	-7916
▁leng	-7917
▁outs	-7918
ildren	-7919
▁fraud	-7920
▁grasp	-7921
▁polio	-7922
▁safer	-7923
▁stuck	-7924
▁style	-7925
▁Lisbon	-7926
▁animal	-7927
▁earned	-7928
▁Program	-7929
▁brother	-7930
▁lacking	-7931
▁Brothers	-7932
▁arrested	-7933
▁innocent	-7934
▁officers	-7935
▁initiated	-7936
▁interview	-7937
▁prisoners	-7938
▁returning	-7939
▁unpopular	-7940
▁reflecting	-7941
▁investigation	-7942
cap	-7943
▁70	-7944
▁Ay	-7945
▁€1	-7946
fold	-7947
▁God	-7948
▁Lar	-7949
▁mun	-7950
iques	-7951
▁Ocean	-7952
▁consp	-7953
▁seize	-7954
▁sheet	-7955
▁split	-7956
renched	-7957
▁adults	-7958
▁Liberal	-7959
▁Morocco	-7960
▁article	-7961
▁enlarge	-7962
▁scrutin	-7963
▁Africans	-7964
▁advisers	-7965
▁cultures	-7966
▁fraction	-7967
▁informed	-7968
▁occupied	-7969
▁disadvant	-7970
▁extremist	-7971
▁indicates	-7972
▁medicines	-7973
▁nutrition	-7974
▁Association	-7975
▁comparative	-7976
▁speculative	-7977
▁temperature	-7978
▁accumulation	-7979
KP	-7980
ael	-7981
tor	-7982
▁22	-7983
aked	-7984
ille	-7985
▁205	-7986
▁Pre	-7987
▁Squ	-7988
▁Sri	-7989
▁haz	-7990
erted	-7991
itime	-7992
think	-7993
▁club	-7994
▁perv	-7995
atible	-7996
liance	-7997
taking	-7998
▁Elect	-7999
▁Gülen	-8000
▁indef	-8001
▁Shinzo	-8002
▁soared	-8003
▁tribal	-8004
▁Economy	-8005
▁dismant	-8006
▁islands	-8007
▁looming	-8008
▁pricing	-8009
▁ratings	-8010
▁visited	-8011
▁worries	-8012
ideration	-8013
▁Protocol	-8014
▁scholars	-8015
▁convincing	-8016
▁obligation	-8017
▁prevention	-8018
▁unexpected	-8019
▁antibiotics	-8020
▁preferences	-8021
IF	-8022
vey	-8023
ELHI	-8024
irty	-8025
need	-8026
▁Env	-8027
▁Sol	-8028
▁cyn	-8029
▁ing	-8030
ester	-8031
front	-8032
▁cold	-8033
▁mism	-8034
▁tiny	-8035
▁DELHI	-8036
▁Mario	-8037
▁brink	-8038
▁revel	-8039
largest	-8040
▁patent	-8041
▁serves	-8042
▁shaped	-8043
▁closing	-8044
▁lawyers	-8045
▁football	-8046
▁socially	-8047
▁terrible	-8048
investment	-8049
▁Following	-8050
Palestinian	-8051
▁allocation	-8052
▁intentions	-8053
▁irrelevant	-8054
▁settlements	-8055
▁specifically	-8056
.&	-8057
CD	-8058
cup	-8059
oha	-8060
brid	-8061
high	-8062
▁Bre	-8063
▁End	-8064
▁yes	-8065
alley	-8066
▁Lank	-8067
▁Next	-8068
▁Real	-8069
▁cart	-8070
▁Doing	-8071
▁coinc	-8072
▁incon	-8073
▁steel	-8074
▁waves	-8075
▁League	-8076
▁endors	-8077
▁feared	-8078
▁impris	-8079
▁solely	-8080
▁versus	-8081
▁Already	-8082
▁Mahmoud	-8083
▁college	-8084
▁consent	-8085
▁sending	-8086
▁signals	-8087
▁ambition	-8088
▁assuming	-8089
▁hospitals	-8090
▁preparing	-8091
▁shrinking	-8092
▁bargaining	-8093
▁earthquake	-8094
▁newspapers	-8095
▁accelerated	-8096
▁existential	-8097
▁predecessors	-8098
▁consideration	-8099
▁destabilizing	-8100
no	-8101
”)	-8102
RID	-8103
igm	-8104
lov	-8105
uum	-8106
▁$8	-8107
▁8%	-8108
atch	-8109
prom	-8110
▁Few	-8111
▁MAD	-8112
▁rub	-8113
▁tit	-8114
aping	-8115
otten	-8116
ounce	-8117
riend	-8118
vency	-8119
▁cosm	-8120
▁curt	-8121
▁fish	-8122
▁lift	-8123
▁spot	-8124
▁alleg	-8125
▁elder	-8126
▁flaws	-8127
▁piece	-8128
▁rally	-8129
leading	-8130
▁Making	-8131
▁images	-8132
▁tempor	-8133
▁Nicolas	-8134
▁Whereas	-8135
▁devoted	-8136
▁surface	-8137
▁writing	-8138
▁overlook	-8139
▁republic	-8140
▁unpredict	-8141
▁Ultimately	-8142
▁constantly	-8143
▁revolutions	-8144
▁deleveraging	-8145
HO	-8146
abet	-8147
emer	-8148
lict	-8149
ogen	-8150
ropr	-8151
▁Lad	-8152
armed	-8153
eterm	-8154
icted	-8155
inces	-8156
izers	-8157
▁Marx	-8158
▁plus	-8159
▁ignor	-8160
▁trick	-8161
▁upper	-8162
▁Report	-8163
▁corner	-8164
▁median	-8165
▁smooth	-8166
▁unfold	-8167
▁contact	-8168
▁surpass	-8169
▁unknown	-8170
▁Friedman	-8171
▁arguably	-8172
▁eventual	-8173
▁contagion	-8174
▁magnitude	-8175
▁diminished	-8176
▁globalized	-8177
▁operational	-8178
▁overwhelmingly	-8179
BI	-8180
IB	-8181
eu	-8182
kes	-8183
sch	-8184
uma	-8185
van	-8186
▁Sa	-8187
inst	-8188
left	-8189
▁1.5	-8190
▁Sad	-8191
▁bab	-8192
▁hat	-8193
inter	-8194
▁Doha	-8195
▁enjo	-8196
▁flag	-8197
▁admit	-8198
▁conce	-8199
▁patri	-8200
▁stems	-8201
▁utter	-8202
▁fortun	-8203
▁classic	-8204
▁corresp	-8205
▁doubled	-8206
▁entails	-8207
▁trained	-8208
▁director	-8209
▁epidemic	-8210
▁tradable	-8211
▁Economics	-8212
▁defending	-8213
▁forecasts	-8214
▁plausible	-8215
▁suggesting	-8216
▁highlighted	-8217
▁availability	-8218
▁civilization	-8219
berg	-8220
▁Def	-8221
erson	-8222
ranch	-8223
▁Alex	-8224
▁Mont	-8225
▁abol	-8226
▁amid	-8227
▁pays	-8228
▁turb	-8229
▁Apple	-8230
▁Franç	-8231
▁Micro	-8232
▁breat	-8233
▁fluct	-8234
▁mixed	-8235
▁mosqu	-8236
society	-8237
viously	-8238
▁Crisis	-8239
▁anemic	-8240
▁Neither	-8241
▁devices	-8242
▁exchang	-8243
▁founded	-8244
▁malaise	-8245
▁mothers	-8246
▁tremend	-8247
ratically	-8248
▁restored	-8249
▁supervis	-8250
industrial	-8251
▁appealing	-8252
▁buildings	-8253
▁engineers	-8254
▁precedent	-8255
▁entrenched	-8256
▁bureaucratic	-8257
LS	-8258
yc	-8259
ket	-8260
▁NP	-8261
offs	-8262
tech	-8263
velt	-8264
ander	-8265
sheet	-8266
▁Tony	-8267
▁anch	-8268
▁bias	-8269
▁nets	-8270
▁odds	-8271
▁topp	-8272
ieties	-8273
▁2009.	-8274
▁fault	-8275
▁humil	-8276
▁tasks	-8277
osevelt	-8278
▁MADRID	-8279
▁approx	-8280
▁deemed	-8281
▁impede	-8282
▁obtain	-8283
▁player	-8284
▁regain	-8285
ominated	-8286
▁municip	-8287
▁resilient	-8288
▁accomplish	-8289
▁expectancy	-8290
▁highlights	-8291
▁concessions	-8292
▁exclusively	-8293
▁architecture	-8294
AIDS	-8295
▁bio	-8296
▁bon	-8297
utors	-8298
▁Dire	-8299
▁Serv	-8300
▁feat	-8301
▁hike	-8302
▁king	-8303
▁yang	-8304
rugman	-8305
valued	-8306
▁James	-8307
▁Kerry	-8308
▁crowd	-8309
▁grows	-8310
▁phone	-8311
▁BERLIN	-8312
▁Crimea	-8313
▁Instit	-8314
▁checks	-8315
▁demise	-8316
▁permit	-8317
cyclical	-8318
▁complac	-8319
▁rebuild	-8320
▁request	-8321
▁western	-8322
▁whereby	-8323
▁winners	-8324
▁officially	-8325
▁philosophy	-8326
▁trajectory	-8327
▁speculation	-8328
▁temporarily	-8329
▁Conservative	-8330
▁transmission	-8331
DA	-8332
EU	-8333
iro	-8334
▁6%	-8335
▁$10	-8336
▁300	-8337
▁hom	-8338
▁raw	-8339
▁Food	-8340
▁erod	-8341
▁mira	-8342
▁pact	-8343
▁soil	-8344
▁2014.	-8345
▁Civil	-8346
▁burst	-8347
▁gases	-8348
▁hyper	-8349
▁roots	-8350
▁Empire	-8351
▁Rwanda	-8352
▁Square	-8353
▁Valley	-8354
▁Within	-8355
▁forever	-8356
▁portray	-8357
▁serving	-8358
▁captured	-8359
▁insisted	-8360
▁Roosevelt	-8361
▁completed	-8362
▁contained	-8363
▁functions	-8364
▁headlines	-8365
▁respected	-8366
▁derivatives	-8367
▁stakeholders	-8368
▁unacceptable	-8369
ny	-8370
FTA	-8371
▁IP	-8372
▁WW	-8373
room	-8374
▁Web	-8375
backs	-8376
▁Bund	-8377
▁myth	-8378
▁spok	-8379
▁suit	-8380
idance	-8381
▁Above	-8382
▁Minist	-8383
▁Sharon	-8384
▁System	-8385
▁deepen	-8386
▁losers	-8387
▁prompt	-8388
▁Krugman	-8389
▁Twitter	-8390
▁answers	-8391
▁arrived	-8392
▁harmful	-8393
▁entities	-8394
▁hegemony	-8395
▁incorpor	-8396
▁occurring	-8397
▁aggression	-8398
▁compensate	-8399
▁association	-8400
▁negotiation	-8401
▁Globalization	-8402
,"	-8403
▁‘	-8404
Sem	-8405
odd	-8406
▁Op	-8407
▁TB	-8408
hors	-8409
laud	-8410
wage	-8411
▁Had	-8412
▁lic	-8413
▁pra	-8414
liers	-8415
occup	-8416
▁1997	-8417
▁2002	-8418
▁Does	-8419
▁calm	-8420
▁edge	-8421
▁sake	-8422
global	-8423
morrow	-8424
orious	-8425
▁absent	-8426
▁firmly	-8427
▁rebels	-8428
▁repair	-8429
▁reveal	-8430
▁voices	-8431
▁window	-8432
▁Article	-8433
▁Environ	-8434
▁bargain	-8435
▁charged	-8436
▁dioxide	-8437
▁drought	-8438
▁exhaust	-8439
▁kilomet	-8440
▁scandal	-8441
▁François	-8442
▁engaging	-8443
▁speaking	-8444
▁tomorrow	-8445
ifications	-8446
▁Churchill	-8447
▁Recession	-8448
▁appointed	-8449
▁disruption	-8450
▁instrument	-8451
▁irrational	-8452
▁violations	-8453
30	-8454
oe	-8455
bar	-8456
▁id	-8457
abwe	-8458
orse	-8459
ribe	-8460
oping	-8461
orage	-8462
▁Zimb	-8463
▁buff	-8464
▁caut	-8465
▁sees	-8466
ispens	-8467
regard	-8468
▁Armen	-8469
▁recur	-8470
▁surre	-8471
▁teams	-8472
assador	-8473
control	-8474
▁bridge	-8475
▁provoc	-8476
▁starts	-8477
▁vacuum	-8478
▁winner	-8479
ologists	-8480
▁Koreans	-8481
▁impover	-8482
▁legally	-8483
▁ranking	-8484
▁unified	-8485
▁Cambodia	-8486
▁Zimbabwe	-8487
▁cohesion	-8488
▁mutually	-8489
▁overhaul	-8490
▁municipal	-8491
▁reasonably	-8492
▁excessively	-8493
▁biodiversity	-8494
▁intellectuals	-8495
▁demonstrations	-8496
▁characteristics	-8497
LO	-8498
▁&	-8499
▁28	-8500
▁Ed	-8501
▁McC	-8502
▁Pop	-8503
▁Vol	-8504
aksin	-8505
atell	-8506
▁SDGs	-8507
▁bust	-8508
▁wife	-8509
▁roles	-8510
.&#160;	-8511
comings	-8512
▁Fourth	-8513
▁harmon	-8514
▁Algeria	-8515
▁beliefs	-8516
▁biology	-8517
▁blocked	-8518
▁carries	-8519
▁declare	-8520
▁drivers	-8521
▁evolved	-8522
▁orderly	-8523
▁virtual	-8524
▁detailed	-8525
▁fragment	-8526
▁securing	-8527
▁symptoms	-8528
▁widening	-8529
▁accepting	-8530
▁portfolio	-8531
▁scenarios	-8532
▁connection	-8533
▁responding	-8534
▁financially	-8535
▁requirement	-8536
GB	-8537
Sh	-8538
vy	-8539
▁x	-8540
dec	-8541
des	-8542
ito	-8543
utor	-8544
▁Cup	-8545
▁Gen	-8546
▁box	-8547
▁1960	-8548
▁Sino	-8549
▁cure	-8550
▁fier	-8551
▁pump	-8552
▁succ	-8553
guided	-8554
saving	-8555
▁Moham	-8556
▁Stand	-8557
▁award	-8558
▁drove	-8559
▁incur	-8560
▁stick	-8561
▁trump	-8562
ulators	-8563
▁Iraqis	-8564
▁cycles	-8565
▁houses	-8566
▁purely	-8567
▁History	-8568
▁Qaddafi	-8569
▁elderly	-8570
▁encount	-8571
▁outrage	-8572
▁tourism	-8573
▁traders	-8574
▁attacked	-8575
▁discount	-8576
▁excluded	-8577
▁orthodox	-8578
employment	-8579
▁confirmed	-8580
▁struggles	-8581
▁Economists	-8582
▁temptation	-8583
▁shortcomings	-8584
▁Constitutional	-8585
▁disintegration	-8586
▁redistribution	-8587
PA	-8588
500	-8589
mod	-8590
▁na	-8591
arat	-8592
▁ost	-8593
added	-8594
▁Vice	-8595
▁grav	-8596
▁Lanka	-8597
▁angry	-8598
▁depth	-8599
angible	-8600
ologies	-8601
▁Bosnia	-8602
▁Fiscal	-8603
▁Simply	-8604
▁casual	-8605
▁detain	-8606
▁spiral	-8607
▁tragic	-8608
▁damaged	-8609
▁exagger	-8610
▁breaking	-8611
▁guidance	-8612
▁maximize	-8613
▁promoted	-8614
▁stemming	-8615
▁thousand	-8616
▁hostility	-8617
▁recapital	-8618
▁surprised	-8619
▁distinction	-8620
▁enlargement	-8621
▁frustration	-8622
▁psychological	-8623
Wh	-8624
awa	-8625
SELS	-8626
conf	-8627
eter	-8628
▁Lee	-8629
▁gar	-8630
▁tum	-8631
▁Bhut	-8632
▁Long	-8633
▁airc	-8634
▁hide	-8635
▁ramp	-8636
▁site	-8637
USSELS	-8638
siders	-8639
▁lands	-8640
▁lobby	-8641
▁agents	-8642
▁letter	-8643
▁rivals	-8644
▁Senator	-8645
▁landing	-8646
▁minimal	-8647
▁entitled	-8648
▁maritime	-8649
▁recorded	-8650
performing	-8651
▁tolerance	-8652
▁Initiative	-8653
▁distinguish	-8654
▁efficiently	-8655
▁deflationary	-8656
▁dysfunctional	-8657
ONG	-8658
PEC	-8659
irt	-8660
ups	-8661
▁Ev	-8662
cked	-8663
riad	-8664
risk	-8665
step	-8666
▁Hen	-8667
▁eat	-8668
▁sad	-8669
aired	-8670
aning	-8671
▁Gord	-8672
▁ster	-8673
▁tied	-8674
▁town	-8675
weight	-8676
▁crude	-8677
▁flour	-8678
▁incap	-8679
▁incre	-8680
▁indif	-8681
▁navig	-8682
enophob	-8683
▁length	-8684
▁missed	-8685
▁Charles	-8686
▁Juncker	-8687
▁confirm	-8688
▁contest	-8689
▁fishing	-8690
▁BRUSSELS	-8691
▁aircraft	-8692
▁deployed	-8693
▁regulate	-8694
▁professor	-8695
▁capitalist	-8696
▁accumulated	-8697
▁distributed	-8698
▁foreseeable	-8699
▁predictions	-8700
▁transnational	-8701
▁democratically	-8702
▁interconnected	-8703
▁representation	-8704
ua	-8705
yo	-8706
”:	-8707
BOC	-8708
imm	-8709
▁Pu	-8710
ione	-8711
isms	-8712
nedy	-8713
▁Fut	-8714
▁McK	-8715
▁rid	-8716
▁Mand	-8717
▁diet	-8718
▁maln	-8719
profit	-8720
▁Chief	-8721
▁Right	-8722
▁ample	-8723
▁spons	-8724
▁sports	-8725
ortheast	-8726
▁ceiling	-8727
▁torture	-8728
▁Director	-8729
▁Together	-8730
▁choosing	-8731
▁embedded	-8732
▁interact	-8733
▁intermed	-8734
▁ministry	-8735
▁printing	-8736
▁reversal	-8737
▁discovery	-8738
▁recovered	-8739
▁suspicion	-8740
▁boundaries	-8741
▁discontent	-8742
▁frameworks	-8743
▁undermines	-8744
▁consolidate	-8745
▁privatization	-8746
tw	-8747
col	-8748
▁CD	-8749
lovak	-8750
osion	-8751
trans	-8752
▁beat	-8753
▁puzz	-8754
▁vide	-8755
arious	-8756
▁maneu	-8757
▁radio	-8758
▁advers	-8759
▁excell	-8760
▁occurs	-8761
▁Islands	-8762
▁Kennedy	-8763
▁Science	-8764
▁assumes	-8765
▁erosion	-8766
▁inequal	-8767
▁notable	-8768
▁tempted	-8769
▁Catholic	-8770
▁Community	-8771
▁Consensus	-8772
▁discourse	-8773
▁offensive	-8774
▁prevailed	-8775
▁benefiting	-8776
▁destroying	-8777
▁indefinite	-8778
▁kilometers	-8779
▁techniques	-8780
▁bondholders	-8781
▁applications	-8782
▁inequalities	-8783
▁polarization	-8784
▁justification	-8785
ym	-8786
zi	-8787
▁Ku	-8788
anes	-8789
inct	-8790
spec	-8791
▁BEI	-8792
▁ice	-8793
▁ven	-8794
rafat	-8795
▁Stud	-8796
▁elev	-8797
▁rain	-8798
▁warm	-8799
owners	-8800
▁spoke	-8801
defense	-8802
▁Terror	-8803
▁orders	-8804
▁preval	-8805
▁reserv	-8806
▁satell	-8807
▁vested	-8808
▁consume	-8809
▁drawing	-8810
▁formula	-8811
▁monitor	-8812
▁soaring	-8813
▁carrying	-8814
▁chairman	-8815
ispensable	-8816
▁condemned	-8817
▁militants	-8818
▁spreading	-8819
▁translate	-8820
▁exacerbate	-8821
▁resentment	-8822
▁traditions	-8823
LA	-8824
ixt	-8825
▁Wen	-8826
▁civ	-8827
▁phr	-8828
▁sle	-8829
▁tab	-8830
dated	-8831
skept	-8832
ulent	-8833
▁Gene	-8834
▁Move	-8835
▁cool	-8836
▁gene	-8837
▁stif	-8838
▁toug	-8839
abetes	-8840
encing	-8841
▁2007.	-8842
▁acted	-8843
▁alter	-8844
▁teach	-8845
▁notice	-8846
▁relent	-8847
▁resemb	-8848
▁taught	-8849
▁theore	-8850
▁Bolivia	-8851
▁condemn	-8852
▁loyalty	-8853
▁Lebanese	-8854
▁bailouts	-8855
▁countless	-8856
▁extending	-8857
▁forgotten	-8858
▁genuinely	-8859
▁liability	-8860
▁anticipated	-8861
▁bureaucrats	-8862
▁degradation	-8863
▁protections	-8864
▁demonstrates	-8865
▁reconstruction	-8866
▁recommendations	-8867
In	-8868
UN	-8869
erg	-8870
sum	-8871
▁AM	-8872
Russ	-8873
▁rac	-8874
ashes	-8875
iants	-8876
produ	-8877
▁Good	-8878
▁Mart	-8879
▁Post	-8880
▁item	-8881
▁semi	-8882
resist	-8883
▁1,000	-8884
▁Brown	-8885
▁Marsh	-8886
▁McKin	-8887
▁chair	-8888
▁dying	-8889
▁ought	-8890
▁Greeks	-8891
▁Histor	-8892
▁Sunnis	-8893
▁bloody	-8894
▁deadly	-8895
▁lifest	-8896
▁parity	-8897
▁relied	-8898
▁Finland	-8899
▁Success	-8900
▁applies	-8901
▁automob	-8902
▁install	-8903
▁storage	-8904
▁unclear	-8905
▁confined	-8906
▁defining	-8907
▁dictator	-8908
▁imported	-8909
▁pipeline	-8910
▁attracted	-8911
▁correspond	-8912
▁infections	-8913
▁tremendous	-8914
▁irresponsible	-8915
▁stabilization	-8916
HA	-8917
OM	-8918
eal	-8919
ulg	-8920
▁Equ	-8921
▁Est	-8922
▁Fuk	-8923
▁dan	-8924
▁lux	-8925
▁sky	-8926
Semit	-8927
atter	-8928
comed	-8929
essed	-8930
owing	-8931
uties	-8932
world	-8933
▁Jose	-8934
▁NGOs	-8935
▁bulk	-8936
▁coff	-8937
▁guer	-8938
▁olig	-8939
▁pock	-8940
▁subt	-8941
normal	-8942
▁Cairo	-8943
▁proof	-8944
▁squee	-8945
▁Arafat	-8946
▁ballot	-8947
▁basket	-8948
▁bright	-8949
▁master	-8950
▁thrive	-8951
▁transc	-8952
communic	-8953
▁Freedom	-8954
▁asymmet	-8955
▁discred	-8956
▁placing	-8957
▁silence	-8958
▁suffers	-8959
ependence	-8960
fficiency	-8961
▁Iranians	-8962
▁distrust	-8963
▁downside	-8964
▁factories	-8965
▁oversight	-8966
▁Christians	-8967
▁censorship	-8968
▁impression	-8969
▁punishment	-8970
▁recessions	-8971
▁superpower	-8972
▁facilitating	-8973
YO	-8974
5%,	-8975
amm	-8976
nel	-8977
▁35	-8978
▁Mo	-8979
▁ho	-8980
OKYO	-8981
hart	-8982
that	-8983
▁$50	-8984
▁Sam	-8985
arget	-8986
green	-8987
ounds	-8988
range	-8989
uated	-8990
▁Mass	-8991
▁SOEs	-8992
▁hind	-8993
▁keen	-8994
▁loud	-8995
▁reun	-8996
▁stal	-8997
anship	-8998
▁TOKYO	-8999
▁error	-9000
▁fifth	-9001
▁hence	-9002
▁midst	-9003
▁miles	-9004
▁relax	-9005
Western	-9006
▁behalf	-9007
▁dozens	-9008
▁hatred	-9009
▁inputs	-9010
▁racial	-9011
▁unanim	-9012
▁boosted	-9013
▁convert	-9014
▁debtors	-9015
▁exceeds	-9016
▁horizon	-9017
▁monopol	-9018
▁retreat	-9019
▁admitted	-9020
▁contempl	-9021
▁diminish	-9022
▁quarters	-9023
▁scrutiny	-9024
▁advancing	-9025
▁dismissed	-9026
▁biological	-9027
▁deployment	-9028
▁disruptive	-9029
▁insurgency	-9030
▁misleading	-9031
▁constitutes	-9032
▁disparities	-9033
▁restructure	-9034
▁commentators	-9035
▁manufacturers	-9036
▁unpredictable	-9037
5%.	-9038
oul	-9039
imal	-9040
onym	-9041
▁AKP	-9042
▁Kaz	-9043
bonds	-9044
isons	-9045
▁Hait	-9046
▁News	-9047
▁heed	-9048
▁resh	-9049
irical	-9050
uggish	-9051
▁annex	-9052
▁bolst	-9053
▁named	-9054
lusions	-9055
riendly	-9056
station	-9057
▁Gordon	-9058
▁behave	-9059
▁listen	-9060
▁savers	-9061
▁sounds	-9062
▁Thaksin	-9063
▁bombing	-9064
▁delayed	-9065
▁fastest	-9066
▁invited	-9067
▁passing	-9068
▁warfare	-9069
istically	-9070
▁Emerging	-9071
▁Strategy	-9072
▁comprise	-9073
▁opposing	-9074
▁reminder	-9075
▁symbolic	-9076
▁warnings	-9077
▁welcomed	-9078
▁Peninsula	-9079
▁childhood	-9080
▁depressed	-9081
▁reference	-9082
▁voluntary	-9083
▁ecosystems	-9084
▁guidelines	-9085
▁undertaken	-9086
▁application	-9087
▁approaching	-9088
▁diminishing	-9089
▁deliberately	-9090
▁Congressional	-9091
elf	-9092
law	-9093
AVEN	-9094
izer	-9095
lers	-9096
quis	-9097
▁Bor	-9098
▁Roy	-9099
▁Vik	-9100
▁flu	-9101
▁unh	-9102
▁van	-9103
apons	-9104
▁Time	-9105
▁seat	-9106
ilater	-9107
▁Davos	-9108
▁HAVEN	-9109
▁Round	-9110
▁Would	-9111
▁griev	-9112
▁notes	-9113
▁units	-9114
▁absurd	-9115
▁barrel	-9116
▁injust	-9117
▁phones	-9118
▁repeat	-9119
▁Sanders	-9120
▁records	-9121
▁2008-200	-9122
▁facility	-9123
▁fighters	-9124
▁philosop	-9125
▁spectrum	-9126
▁Brazilian	-9127
▁Sometimes	-9128
▁entertain	-9129
▁exclusion	-9130
▁promotion	-9131
▁sacrifice	-9132
▁profitable	-9133
▁succession	-9134
▁Corporation	-9135
▁controlling	-9136
▁expectation	-9137
▁conservation	-9138
UR	-9139
unk	-9140
elts	-9141
iasm	-9142
ship	-9143
▁Raj	-9144
▁pil	-9145
otism	-9146
stone	-9147
▁hire	-9148
▁horr	-9149
▁wins	-9150
needed	-9151
uously	-9152
▁allev	-9153
▁appet	-9154
▁hydro	-9155
▁immun	-9156
▁inhab	-9157
▁rises	-9158
▁slump	-9159
▁steep	-9160
aunting	-9161
iration	-9162
▁timing	-9163
▁engines	-9164
▁portion	-9165
▁postwar	-9166
▁substit	-9167
▁alarming	-9168
▁diabetes	-9169
▁fairness	-9170
▁reckless	-9171
▁subjects	-9172
▁xenophob	-9173
ilaterally	-9174
▁gathering	-9175
▁imbalance	-9176
▁adequately	-9177
▁deterrence	-9178
▁encourages	-9179
▁triggering	-9180
▁accordingly	-9181
▁connections	-9182
▁reinforcing	-9183
▁deregulation	-9184
EM	-9185
ont	-9186
▁Us	-9187
anth	-9188
aret	-9189
irac	-9190
made	-9191
▁Yan	-9192
▁rot	-9193
▁Less	-9194
▁edit	-9195
▁empt	-9196
▁tide	-9197
▁Banks	-9198
▁Niger	-9199
▁actor	-9200
▁peril	-9201
▁pione	-9202
▁rebel	-9203
igenous	-9204
▁Chirac	-9205
▁immune	-9206
▁induce	-9207
▁mathem	-9208
laration	-9209
▁Special	-9210
▁ordered	-9211
▁inaction	-9212
▁partisan	-9213
▁graduates	-9214
▁secretary	-9215
▁Developing	-9216
▁capability	-9217
▁discourage	-9218
▁reportedly	-9219
▁accomplished	-9220
▁aggressively	-9221
▁subsequently	-9222
▁Infrastructure	-9223
Le	-9224
yp	-9225
esh	-9226
ica	-9227
ino	-9228
arer	-9229
▁Age	-9230
▁aug	-9231
▁cum	-9232
▁vit	-9233
arted	-9234
aying	-9235
lined	-9236
▁Wars	-9237
▁thin	-9238
▁Catal	-9239
▁Swiss	-9240
▁lifet	-9241
▁marks	-9242
▁refin	-9243
iencies	-9244
▁Almost	-9245
▁Either	-9246
▁Kazakh	-9247
▁aggrav	-9248
▁debtor	-9249
▁denial	-9250
▁differ	-9251
▁remitt	-9252
▁square	-9253
▁string	-9254
inations	-9255
▁covered	-9256
▁issuing	-9257
▁reading	-9258
▁venture	-9259
▁Interest	-9260
▁defaults	-9261
▁formally	-9262
▁incompet	-9263
▁stagnant	-9264
▁theories	-9265
▁villages	-9266
▁diagnosis	-9267
▁exchanges	-9268
▁imperfect	-9269
▁performed	-9270
▁identities	-9271
▁incomplete	-9272
▁separation	-9273
▁substitute	-9274
▁comfortable	-9275
▁disarmament	-9276
▁exceptional	-9277
▁unnecessary	-9278
but	-9279
eft	-9280
ows	-9281
aval	-9282
cile	-9283
trad	-9284
▁CIA	-9285
▁FDI	-9286
▁cry	-9287
esity	-9288
field	-9289
othes	-9290
vedev	-9291
▁Gaul	-9292
▁Pope	-9293
▁Sach	-9294
▁plot	-9295
▁pron	-9296
elfare	-9297
terror	-9298
▁Water	-9299
▁forge	-9300
▁hikes	-9301
▁names	-9302
▁owned	-9303
▁retal	-9304
▁sport	-9305
▁unite	-9306
consist	-9307
levance	-9308
lovakia	-9309
private	-9310
▁attain	-9311
▁fertil	-9312
▁filled	-9313
▁phrase	-9314
▁strain	-9315
arations	-9316
▁located	-9317
▁revised	-9318
▁spurred	-9319
▁succumb	-9320
▁unusual	-9321
▁village	-9322
▁distress	-9323
▁liberals	-9324
▁allocated	-9325
▁departure	-9326
▁dimension	-9327
▁reconcile	-9328
▁enrichment	-9329
▁enthusiasm	-9330
▁exceptions	-9331
▁remarkably	-9332
▁determining	-9333
▁projections	-9334
▁Policymakers	-9335
▁representing	-9336
▁environmentally	-9337
zh	-9338
dad	-9339
Arab	-9340
JING	-9341
ford	-9342
ukov	-9343
▁$2.	-9344
▁Jud	-9345
▁NPT	-9346
▁Six	-9347
ghdad	-9348
overs	-9349
▁Debt	-9350
▁Pact	-9351
▁Prem	-9352
▁kick	-9353
headed	-9354
ocking	-9355
unning	-9356
▁2030.	-9357
▁Chair	-9358
▁Singh	-9359
▁array	-9360
▁artic	-9361
▁atroc	-9362
▁boast	-9363
▁craft	-9364
▁habit	-9365
▁keeps	-9366
▁naval	-9367
looking	-9368
▁breast	-9369
▁habits	-9370
▁locked	-9371
▁persec	-9372
▁poised	-9373
▁sphere	-9374
▁tested	-9375
▁Summers	-9376
▁burning	-9377
▁coastal	-9378
▁partial	-9379
efficient	-9380
▁Medvedev	-9381
▁acquired	-9382
▁audience	-9383
▁feelings	-9384
▁ignoring	-9385
▁province	-9386
▁conscious	-9387
▁extension	-9388
▁illiberal	-9389
▁witnessed	-9390
▁adaptation	-9391
▁citizenship	-9392
▁negotiators	-9393
▁entrepreneur	-9394
▁automatically	-9395
▁participating	-9396
Ps	-9397
RA	-9398
ago	-9399
aur	-9400
aze	-9401
coh	-9402
iki	-9403
pel	-9404
▁Ra	-9405
arus	-9406
asse	-9407
life	-9408
▁Bay	-9409
▁Dam	-9410
▁Nep	-9411
▁bin	-9412
▁mil	-9413
▁syn	-9414
▁vib	-9415
Islam	-9416
▁grim	-9417
▁rand	-9418
retion	-9419
▁ambig	-9420
▁breed	-9421
▁fatal	-9422
▁metap	-9423
▁param	-9424
▁weigh	-9425
Israeli	-9426
keeping	-9427
liberal	-9428
▁Geneva	-9429
▁Viktor	-9430
▁entity	-9431
▁ethics	-9432
▁BEIJING	-9433
▁Leaders	-9434
▁Michael	-9435
▁disclos	-9436
▁passion	-9437
▁privacy	-9438
▁Movement	-9439
▁borrowed	-9440
▁endorsed	-9441
▁packages	-9442
▁Microsoft	-9443
▁equitable	-9444
▁overnight	-9445
▁collection	-9446
▁conviction	-9447
▁creativity	-9448
▁preserving	-9449
▁recommended	-9450
proliferation	-9451
▁collectively	-9452
▁approximately	-9453
jo	-9454
FOR	-9455
cho	-9456
mas	-9457
▁Ha	-9458
asty	-9459
icks	-9460
olly	-9461
ugos	-9462
▁Cor	-9463
▁Opp	-9464
▁bus	-9465
-2008	-9466
iates	-9467
iform	-9468
licop	-9469
▁2030	-9470
eltsin	-9471
erated	-9472
idable	-9473
ocaust	-9474
states	-9475
▁Index	-9476
▁Nepal	-9477
▁fruit	-9478
▁genet	-9479
▁label	-9480
▁neuro	-9481
▁resum	-9482
ourcing	-9483
ugoslav	-9484
▁Leader	-9485
▁doctor	-9486
▁orient	-9487
▁punish	-9488
▁robots	-9489
▁slogan	-9490
▁100,000	-9491
▁Current	-9492
▁Yeltsin	-9493
▁authors	-9494
▁emerges	-9495
▁interim	-9496
▁intoler	-9497
▁spreads	-9498
▁diagnost	-9499
▁distance	-9500
▁normally	-9501
▁removing	-9502
▁stations	-9503
▁watching	-9504
management	-9505
▁budgetary	-9506
▁disregard	-9507
▁enhancing	-9508
▁meanwhile	-9509
▁misguided	-9510
▁rationale	-9511
▁reforming	-9512
▁regulated	-9513
▁replacing	-9514
▁decisively	-9515
▁indigenous	-9516
▁influenced	-9517
▁sanitation	-9518
▁Declaration	-9519
ka	-9520
za	-9521
dig	-9522
iam	-9523
▁Av	-9524
kans	-9525
sett	-9526
▁Abu	-9527
cohol	-9528
iracy	-9529
▁Poor	-9530
▁Roma	-9531
▁meat	-9532
▁shot	-9533
▁2020.	-9534
▁avert	-9535
▁bases	-9536
▁intim	-9537
▁loose	-9538
▁pivot	-9539
▁sched	-9540
achment	-9541
anthrop	-9542
▁Saudis	-9543
▁banned	-9544
▁entail	-9545
▁errors	-9546
▁nobody	-9547
▁seized	-9548
ognitive	-9549
▁Belarus	-9550
▁Belgium	-9551
▁Olympic	-9552
▁Project	-9553
▁Silicon	-9554
▁clients	-9555
▁customs	-9556
▁dissent	-9557
▁factory	-9558
▁knowing	-9559
▁urgency	-9560
▁backward	-9561
▁equipped	-9562
▁freedoms	-9563
▁imminent	-9564
▁impunity	-9565
▁outflows	-9566
▁receives	-9567
▁resisted	-9568
▁assessing	-9569
▁inconsist	-9570
▁indicator	-9571
▁inherited	-9572
▁electronic	-9573
▁formidable	-9574
▁frustrated	-9575
▁transaction	-9576
▁unification	-9577
▁impoverished	-9578
▁transforming	-9579
▁indispensable	-9580
bu	-9581
▁8.	-9582
▁CN	-9583
▁IT	-9584
bial	-9585
lass	-9586
mble	-9587
thal	-9588
▁CCP	-9589
▁Jac	-9590
▁Tok	-9591
▁Too	-9592
start	-9593
▁Mali	-9594
▁Near	-9595
▁Rein	-9596
▁fant	-9597
▁grab	-9598
rators	-9599
▁Sachs	-9600
▁grass	-9601
▁matur	-9602
▁tanks	-9603
▁towns	-9604
atollah	-9605
▁Future	-9606
▁benign	-9607
▁fierce	-9608
▁ingred	-9609
▁thinks	-9610
▁antagon	-9611
▁charism	-9612
▁closest	-9613
▁combine	-9614
▁hegemon	-9615
▁physics	-9616
▁reveals	-9617
▁strange	-9618
financial	-9619
▁enthusia	-9620
▁predomin	-9621
▁producer	-9622
▁whenever	-9623
▁Egyptians	-9624
▁breakdown	-9625
▁incumbent	-9626
▁qualified	-9627
▁Kazakhstan	-9628
▁Throughout	-9629
▁attributed	-9630
▁evolutionary	-9631
▁conservatives	-9632
▁profitability	-9633
▁Representatives	-9634
25	-9635
iph	-9636
aint	-9637
aste	-9638
atan	-9639
city	-9640
erto	-9641
ques	-9642
▁Leg	-9643
▁Tam	-9644
▁hus	-9645
▁mel	-9646
▁sli	-9647
Qaeda	-9648
shore	-9649
▁brib	-9650
▁fees	-9651
Brexit	-9652
vation	-9653
▁2002,	-9654
▁Basel	-9655
▁Tokyo	-9656
▁cliff	-9657
▁dozen	-9658
▁feels	-9659
▁topic	-9660
▁vague	-9661
induced	-9662
▁acquis	-9663
▁excuse	-9664
▁handle	-9665
▁hiring	-9666
▁lately	-9667
▁lender	-9668
▁lifted	-9669
▁myriad	-9670
▁overly	-9671
▁random	-9672
▁solved	-9673
▁unreal	-9674
▁Nothing	-9675
▁caution	-9676
▁farming	-9677
▁recruit	-9678
▁separat	-9679
▁surveys	-9680
enhancing	-9681
▁McKinsey	-9682
▁appetite	-9683
▁contains	-9684
▁daunting	-9685
▁illusion	-9686
▁militias	-9687
▁exclusive	-9688
▁formation	-9689
▁permitted	-9690
▁personnel	-9691
▁restraint	-9692
▁routinely	-9693
▁Ironically	-9694
▁nomination	-9695
▁peripheral	-9696
▁distortions	-9697
▁experiments	-9698
▁fragmentation	-9699
▁normalization	-9700
▁possibilities	-9701
Ind	-9702
afe	-9703
ova	-9704
FORD	-9705
gans	-9706
ials	-9707
omas	-9708
▁unm	-9709
World	-9710
asant	-9711
fifth	-9712
oline	-9713
ravel	-9714
▁Sant	-9715
▁gest	-9716
▁grip	-9717
▁scre	-9718
omfort	-9719
ranted	-9720
▁1999,	-9721
▁Royal	-9722
▁accus	-9723
▁monet	-9724
▁seeds	-9725
▁swift	-9726
▁tells	-9727
ariably	-9728
▁Former	-9729
▁Puerto	-9730
▁Thanks	-9731
▁hazard	-9732
▁spends	-9733
▁stages	-9734
friendly	-9735
liaments	-9736
▁Charter	-9737
▁Markets	-9738
▁inspire	-9739
▁logical	-9740
▁revived	-9741
▁secured	-9742
▁–&#160;	-9743
▁Agricult	-9744
▁cautious	-9745
▁favorite	-9746
▁frontier	-9747
▁arbitrary	-9748
▁automatic	-9749
▁launching	-9750
▁scientist	-9751
▁socialist	-9752
▁protracted	-9753
▁outstanding	-9754
▁permanently	-9755
▁understands	-9756
▁democratization	-9757
-3	-9758
80	-9759
rol	-9760
ych	-9761
zen	-9762
▁26	-9763
▁Up	-9764
bear	-9765
rock	-9766
▁Mic	-9767
▁1950	-9768
▁hate	-9769
▁pund	-9770
Soviet	-9771
orders	-9772
ularly	-9773
▁Delhi	-9774
▁Ghana	-9775
▁Henry	-9776
▁coerc	-9777
▁perce	-9778
▁prest	-9779
attered	-9780
outhern	-9781
▁Better	-9782
▁abrupt	-9783
▁favors	-9784
▁grants	-9785
▁replic	-9786
educated	-9787
▁Yanukov	-9788
▁alcohol	-9789
▁council	-9790
▁insight	-9791
▁obesity	-9792
▁satisfy	-9793
▁station	-9794
▁Military	-9795
▁amounted	-9796
▁factions	-9797
▁infected	-9798
▁paradigm	-9799
▁preoccup	-9800
▁resident	-9801
corruption	-9802
▁crackdown	-9803
▁criminals	-9804
▁empirical	-9805
▁overthrow	-9806
▁pervasive	-9807
▁attracting	-9808
▁coalitions	-9809
▁originally	-9810
▁reluctance	-9811
▁dangerously	-9812
▁introducing	-9813
▁statistical	-9814
!”	-9815
.,	-9816
40	-9817
vin	-9818
aped	-9819
uras	-9820
▁Hig	-9821
▁Spe	-9822
▁mir	-9823
▁wre	-9824
eline	-9825
pered	-9826
ronts	-9827
▁Mark	-9828
▁Rome	-9829
▁wary	-9830
ivable	-9831
▁Games	-9832
▁foods	-9833
▁greed	-9834
▁music	-9835
▁proxy	-9836
▁rigor	-9837
limited	-9838
roughts	-9839
version	-9840
▁bacter	-9841
▁pretty	-9842
▁shrink	-9843
▁worsen	-9844
▁Premier	-9845
▁dubious	-9846
▁examine	-9847
▁handful	-9848
▁lifting	-9849
▁propose	-9850
▁rewards	-9851
▁settled	-9852
▁Recently	-9853
▁averaged	-9854
▁blocking	-9855
▁massacre	-9856
▁opponent	-9857
▁tactical	-9858
▁treating	-9859
▁Holocaust	-9860
▁Obviously	-9861
▁decentral	-9862
▁declaring	-9863
▁dividends	-9864
▁literally	-9865
▁Yanukovych	-9866
▁discredited	-9867
▁disruptions	-9868
▁parliaments	-9869
▁probability	-9870
BC	-9871
ARC	-9872
Pro	-9873
cep	-9874
▁9%	-9875
inav	-9876
will	-9877
avoid	-9878
▁Coal	-9879
▁WWII	-9880
▁abst	-9881
▁clar	-9882
▁hier	-9883
▁mild	-9884
▁rice	-9885
cially	-9886
seless	-9887
▁afflu	-9888
▁cited	-9889
▁clout	-9890
▁drast	-9891
▁likes	-9892
andinav	-9893
atories	-9894
etitive	-9895
▁fisher	-9896
▁mining	-9897
▁arsenal	-9898
▁despair	-9899
▁extends	-9900
▁futures	-9901
▁intimid	-9902
▁mindset	-9903
▁removal	-9904
▁uniform	-9905
▁vibrant	-9906
estically	-9907
ugoslavia	-9908
▁Marshall	-9909
▁memories	-9910
▁refusing	-9911
▁tolerate	-9912
ologically	-9913
▁Companies	-9914
▁broadcast	-9915
▁depending	-9916
▁incapable	-9917
▁radically	-9918
▁reactions	-9919
development	-9920
▁compliance	-9921
▁discretion	-9922
▁heightened	-9923
▁conclusions	-9924
▁containment	-9925
▁remittances	-9926
▁transitions	-9927
▁calculations	-9928
▁interference	-9929
▁deterioration	-9930
If	-9931
sm	-9932
aba	-9933
epr	-9934
fur	-9935
rov	-9936
too	-9937
▁2,	-9938
agog	-9939
aire	-9940
char	-9941
disc	-9942
wood	-9943
▁Old	-9944
▁twe	-9945
▁uni	-9946
after	-9947
atics	-9948
▁fled	-9949
▁mudd	-9950
▁nost	-9951
atural	-9952
orough	-9953
rising	-9954
▁Sinai	-9955
▁empty	-9956
▁games	-9957
▁reign	-9958
riminal	-9959
▁Consum	-9960
▁Franco	-9961
▁Joseph	-9962
▁bipart	-9963
▁detect	-9964
▁luxury	-9965
▁Increas	-9966
▁Similar	-9967
▁agendas	-9968
▁endorse	-9969
▁sitting	-9970
▁Abdullah	-9971
▁adjusted	-9972
▁displace	-9973
▁mistrust	-9974
▁overhang	-9975
▁Ayatollah	-9976
▁advocated	-9977
▁suppliers	-9978
▁Protection	-9979
▁deliberate	-9980
▁presumably	-9981
▁intensified	-9982
▁perceptions	-9983
▁practically	-9984
▁breakthroughs	-9985
big	-9986
ela	-9987
gra	-9988
▁80	-9989
▁ES	-9990
▁La	-9991
▁Ug	-9992
avor	-9993
burg	-9994
rian	-9995
▁Rem	-9996
▁Ste	-9997
▁ped	-9998
anger	-9999
attle	-10000
derón	-10001
worth	-10002
▁Cost	-10003
▁Prom	-10004
▁Tayy	-10005
▁blue	-10006
arians	-10007
funded	-10008
▁1989,	-10009
▁Popul	-10010
▁cards	-10011
▁march	-10012
▁socio	-10013
▁store	-10014
▁gotten	-10015
▁hidden	-10016
▁rebell	-10017
▁traded	-10018
intended	-10019
▁Baghdad	-10020
▁Balkans	-10021
▁Mohamed	-10022
▁Romania	-10023
▁denying	-10024
▁helpful	-10025
▁origins	-10026
▁prestig	-10027
▁readily	-10028
▁rethink	-10029
▁smoking	-10030
▁stalled	-10031
developed	-10032
▁activist	-10033
▁droughts	-10034
▁instinct	-10035
▁lifetime	-10036
▁mistaken	-10037
▁postpone	-10038
▁troubles	-10039
▁concerted	-10040
▁considers	-10041
▁explosion	-10042
▁indicated	-10043
▁paralysis	-10044
▁unleashed	-10045
▁coordinate	-10046
▁grievances	-10047
▁indication	-10048
▁invariably	-10049
▁psychology	-10050
withstanding	-10051
▁centralized	-10052
▁composition	-10053
▁unilaterally	-10054
70	-10055
SR	-10056
awn	-10057
ida	-10058
ped	-10059
pre	-10060
rim	-10061
sky	-10062
upp	-10063
▁Ol	-10064
▁et	-10065
azon	-10066
bean	-10067
gian	-10068
onic	-10069
▁tap	-10070
▁tub	-10071
Frank	-10072
eches	-10073
ports	-10074
▁2020	-10075
▁Dodd	-10076
▁Nord	-10077
▁boss	-10078
▁mega	-10079
▁phot	-10080
▁shed	-10081
▁Black	-10082
▁Laden	-10083
▁Nazis	-10084
▁Recep	-10085
▁enshr	-10086
▁prize	-10087
▁rests	-10088
▁sheer	-10089
ajority	-10090
capital	-10091
▁Asians	-10092
▁Forces	-10093
▁Tayyip	-10094
▁buyers	-10095
▁hurric	-10096
▁lacked	-10097
▁Gazprom	-10098
▁compact	-10099
▁compare	-10100
▁heading	-10101
▁stagger	-10102
▁therapy	-10103
effective	-10104
▁Calderón	-10105
▁decrease	-10106
▁deserves	-10107
▁episodes	-10108
▁insights	-10109
▁morality	-10110
▁referred	-10111
▁renegoti	-10112
▁Scandinav	-10113
▁defensive	-10114
▁generates	-10115
▁scheduled	-10116
▁autocratic	-10117
▁automation	-10118
▁disturbing	-10119
▁fragmented	-10120
▁motivation	-10121
▁restricted	-10122
▁sustaining	-10123
▁systematic	-10124
▁undergoing	-10125
▁interaction	-10126
▁malnutrition	-10127
▁underestimated	-10128
IL	-10129
án	-10130
jan	-10131
▁150	-10132
▁Att	-10133
▁Has	-10134
▁Ser	-10135
▁rum	-10136
▁voc	-10137
andhi	-10138
itant	-10139
roads	-10140
ushed	-10141
▁1989	-10142
▁Fear	-10143
▁Soon	-10144
▁aren	-10145
▁elig	-10146
▁park	-10147
▁sick	-10148
uating	-10149
▁Haiti	-10150
▁wield	-10151
manship	-10152
ography	-10153
▁Action	-10154
▁Common	-10155
▁Gaulle	-10156
▁Thomas	-10157
▁Twenty	-10158
▁culmin	-10159
▁duties	-10160
▁silent	-10161
▁vastly	-10162
financed	-10163
▁adviser	-10164
▁enlight	-10165
▁episode	-10166
▁migrant	-10167
▁symptom	-10168
communist	-10169
reduction	-10170
▁Exchange	-10171
▁Xiaoping	-10172
▁invented	-10173
▁maneuver	-10174
▁prompted	-10175
▁sluggish	-10176
▁suppress	-10177
▁tangible	-10178
▁thorough	-10179
▁Inflation	-10180
▁reasoning	-10181
▁upgrading	-10182
▁worsening	-10183
▁Australian	-10184
▁abandoning	-10185
▁appearance	-10186
▁ecological	-10187
▁respective	-10188
▁sentiments	-10189
▁continental	-10190
▁philanthrop	-10191
▁revelations	-10192
▁Specifically	-10193
▁nationalists	-10194
▁demonstrating	-10195
▁industrialized	-10196
As	-10197
ki	-10198
uay	-10199
▁AMR	-10200
▁fro	-10201
▁Home	-10202
▁Open	-10203
▁PBOC	-10204
▁synt	-10205
▁Annan	-10206
▁Exper	-10207
▁Scott	-10208
▁Smith	-10209
▁bombs	-10210
▁civic	-10211
▁climb	-10212
▁recru	-10213
▁reson	-10214
▁scene	-10215
▁throw	-10216
raining	-10217
▁Darfur	-10218
▁defect	-10219
▁fright	-10220
▁genome	-10221
▁nomine	-10222
▁poison	-10223
▁existed	-10224
▁letting	-10225
▁gasoline	-10226
▁Socialist	-10227
▁believing	-10228
▁combating	-10229
▁neglected	-10230
▁outsiders	-10231
▁provinces	-10232
▁skeptical	-10233
▁renewables	-10234
▁controversy	-10235
▁incremental	-10236
▁underground	-10237
▁marginalized	-10238
PJ	-10239
TT	-10240
▁i	-10241
▁$9	-10242
alls	-10243
▁Rio	-10244
▁Wil	-10245
cture	-10246
human	-10247
rance	-10248
▁Mold	-10249
▁Zeal	-10250
▁aged	-10251
▁aver	-10252
▁cler	-10253
▁mant	-10254
▁shel	-10255
German	-10256
arrass	-10257
▁Guant	-10258
▁drone	-10259
▁euros	-10260
▁outwe	-10261
▁reaff	-10262
athered	-10263
▁Arctic	-10264
▁Refuge	-10265
▁prejud	-10266
▁wasted	-10267
affected	-10268
▁Johnson	-10269
▁breakup	-10270
▁credits	-10271
▁offices	-10272
▁outlets	-10273
▁pundits	-10274
▁solving	-10275
▁trapped	-10276
roductive	-10277
▁disputed	-10278
▁location	-10279
▁mainland	-10280
▁speeches	-10281
▁undercut	-10282
orestation	-10283
▁Abenomics	-10284
▁addresses	-10285
▁allegedly	-10286
▁insisting	-10287
▁ministries	-10288
▁supplement	-10289
▁fluctuations	-10290
yl	-10291
iza	-10292
mal	-10293
reb	-10294
rick	-10295
wait	-10296
▁asc	-10297
▁fab	-10298
▁peg	-10299
ceans	-10300
fired	-10301
great	-10302
icket	-10303
value	-10304
▁Jour	-10305
▁Mayn	-10306
▁sale	-10307
ensity	-10308
ferent	-10309
ighted	-10310
pelled	-10311
usions	-10312
▁2005.	-10313
▁Moral	-10314
▁Offic	-10315
▁Panel	-10316
▁bless	-10317
▁erode	-10318
▁mired	-10319
▁Martin	-10320
▁adhere	-10321
▁devise	-10322
▁embass	-10323
▁floods	-10324
▁potent	-10325
▁season	-10326
▁Private	-10327
▁endless	-10328
▁extract	-10329
▁militar	-10330
▁monthly	-10331
▁motives	-10332
▁subsidy	-10333
▁tougher	-10334
▁Politics	-10335
▁Southern	-10336
▁excesses	-10337
▁lobbying	-10338
▁empowered	-10339
▁proposing	-10340
▁Venezuelan	-10341
▁accessible	-10342
▁comprising	-10343
▁advertising	-10344
▁complacency	-10345
▁replacement	-10346
▁resolutions	-10347
▁conversation	-10348
▁Revolutionary	-10349
▁beneficiaries	-10350
27	-10351
Af	-10352
aug	-10353
irs	-10354
nov	-10355
▁Ko	-10356
feld	-10357
idal	-10358
uddh	-10359
▁Ach	-10360
▁Liu	-10361
▁WHO	-10362
▁dry	-10363
achev	-10364
ercul	-10365
▁AIIB	-10366
▁OPEC	-10367
▁Prov	-10368
▁Rico	-10369
▁ampl	-10370
▁cere	-10371
▁ring	-10372
▁ship	-10373
▁unth	-10374
assion	-10375
▁Buddh	-10376
▁Secur	-10377
▁booms	-10378
▁clash	-10379
▁effic	-10380
▁touch	-10381
atively	-10382
▁Gandhi	-10383
▁drives	-10384
▁masses	-10385
▁unhapp	-10386
▁Maynard	-10387
▁Swedish	-10388
▁Zealand	-10389
▁harness	-10390
▁obliged	-10391
▁suscept	-10392
erculosis	-10393
insurance	-10394
▁assembly	-10395
▁evolving	-10396
▁imagined	-10397
▁organize	-10398
▁universe	-10399
▁Eurobonds	-10400
▁ignorance	-10401
▁perfectly	-10402
▁withstand	-10403
▁ambassador	-10404
▁atrocities	-10405
▁bipartisan	-10406
▁overcoming	-10407
▁safeguards	-10408
▁skepticism	-10409
▁concentrate	-10410
▁disappeared	-10411
▁intensifying	-10412
▁technocratic	-10413
▁multilateralism	-10414
net	-10415
ski	-10416
▁fr	-10417
▁om	-10418
ilty	-10419
iots	-10420
kind	-10421
uepr	-10422
▁35%	-10423
▁Ecu	-10424
▁Tob	-10425
▁esp	-10426
▁lit	-10427
asure	-10428
board	-10429
▁1991	-10430
▁Alan	-10431
▁rage	-10432
▁sums	-10433
▁guess	-10434
▁hypoc	-10435
▁inhib	-10436
autiful	-10437
ievable	-10438
ignific	-10439
quarter	-10440
▁Kuwait	-10441
▁beings	-10442
▁ideals	-10443
▁insurg	-10444
▁metric	-10445
▁ostens	-10446
▁pillar	-10447
▁plight	-10448
▁sevent	-10449
▁stockp	-10450
icularly	-10451
location	-10452
resolved	-10453
▁Banking	-10454
▁conting	-10455
▁trusted	-10456
▁unravel	-10457
▁Administ	-10458
▁Everyone	-10459
▁Ministry	-10460
▁applying	-10461
▁prevents	-10462
▁revision	-10463
▁forefront	-10464
▁intensity	-10465
▁liberties	-10466
▁schooling	-10467
▁Yugoslavia	-10468
▁exemplified	-10469
▁facilitated	-10470
▁implication	-10471
▁indefinitely	-10472
▁disappointing	-10473
11	-10474
CH	-10475
IR	-10476
JP	-10477
UL	-10478
aku	-10479
omy	-10480
via	-10481
who	-10482
▁AT	-10483
▁Ox	-10484
good	-10485
ills	-10486
▁Dem	-10487
▁Hel	-10488
▁Hug	-10489
▁Kir	-10490
▁Ott	-10491
▁Tea	-10492
▁thw	-10493
digit	-10494
iably	-10495
vigor	-10496
▁Cels	-10497
▁Fail	-10498
▁Lula	-10499
▁MDGs	-10500
▁Thai	-10501
▁cush	-10502
▁damp	-10503
▁outp	-10504
▁tone	-10505
enable	-10506
etting	-10507
ushima	-10508
▁Hindu	-10509
▁bleak	-10510
▁borne	-10511
▁exped	-10512
▁robot	-10513
▁shoot	-10514
▁urged	-10515
herence	-10516
welfare	-10517
▁arrive	-10518
▁deputy	-10519
▁fronts	-10520
▁giants	-10521
▁marine	-10522
▁physic	-10523
▁rememb	-10524
▁switch	-10525
▁Affairs	-10526
▁Celsius	-10527
▁Jacques	-10528
▁bearing	-10529
▁durable	-10530
▁essence	-10531
▁founder	-10532
▁helicop	-10533
▁holders	-10534
▁journey	-10535
▁prudent	-10536
▁restaur	-10537
▁utterly	-10538
regulated	-10539
▁deciding	-10540
▁doubling	-10541
▁emotions	-10542
▁equities	-10543
▁incident	-10544
▁ratified	-10545
▁teaching	-10546
▁Investors	-10547
▁academics	-10548
▁historian	-10549
▁statehood	-10550
▁autonomous	-10551
▁cosmopolit	-10552
▁documented	-10553
▁inherently	-10554
▁liberalism	-10555
▁reflection	-10556
▁staggering	-10557
▁assessments	-10558
▁compromises	-10559
▁elimination	-10560
▁exaggerated	-10561
▁domestically	-10562
▁exploitation	-10563
▁manufactured	-10564
▁telecommunic	-10565
EF	-10566
▁ST	-10567
case	-10568
eded	-10569
mare	-10570
osni	-10571
▁Dig	-10572
emate	-10573
itous	-10574
phone	-10575
richt	-10576
ungry	-10577
▁Gorb	-10578
▁feet	-10579
▁monu	-10580
▁nerv	-10581
incial	-10582
▁1950’	-10583
▁Cuban	-10584
▁Event	-10585
▁Hosni	-10586
▁River	-10587
▁downg	-10588
▁erect	-10589
▁ports	-10590
▁shame	-10591
▁spear	-10592
▁voter	-10593
iversal	-10594
▁Baltic	-10595
▁Budget	-10596
▁McCain	-10597
▁Prince	-10598
▁enroll	-10599
▁eroded	-10600
▁freeze	-10601
▁illust	-10602
▁misman	-10603
▁nostal	-10604
▁revolt	-10605
▁scores	-10606
▁wishes	-10607
astricht	-10608
▁Ecuador	-10609
▁Mandela	-10610
▁appeals	-10611
▁circles	-10612
▁margins	-10613
▁strains	-10614
dominated	-10615
itization	-10616
izational	-10617
▁clearing	-10618
▁commonly	-10619
▁enforced	-10620
▁quantity	-10621
▁stressed	-10622
especially	-10623
▁Gorbachev	-10624
▁cognitive	-10625
▁exploited	-10626
▁infection	-10627
▁struggled	-10628
▁behavioral	-10629
▁enthusiast	-10630
▁militarily	-10631
▁unresolved	-10632
▁longstanding	-10633
▁deforestation	-10634
exp	-10635
isk	-10636
▁Pi	-10637
ania	-10638
orce	-10639
uble	-10640
▁$40	-10641
▁NCD	-10642
▁aro	-10643
apter	-10644
archs	-10645
ipras	-10646
isive	-10647
ousse	-10648
▁Prop	-10649
▁baby	-10650
▁blog	-10651
▁tech	-10652
dollar	-10653
inians	-10654
reason	-10655
▁Guard	-10656
▁blunt	-10657
▁conqu	-10658
▁embod	-10659
▁quasi	-10660
acities	-10661
conserv	-10662
ighting	-10663
▁Amazon	-10664
▁Libyan	-10665
▁Nearly	-10666
▁Uganda	-10667
▁hoping	-10668
▁oceans	-10669
▁recipe	-10670
▁tribun	-10671
▁Journal	-10672
▁Tsipras	-10673
▁coupled	-10674
▁ignores	-10675
▁pockets	-10676
▁pressed	-10677
▁rampant	-10678
▁reaches	-10679
▁category	-10680
▁disposal	-10681
▁flooding	-10682
▁signaled	-10683
▁survived	-10684
▁Fukushima	-10685
▁ceasefire	-10686
▁certainty	-10687
▁compelled	-10688
▁embarrass	-10689
▁intensify	-10690
▁maintains	-10691
▁rejecting	-10692
▁somewhere	-10693
▁strengths	-10694
▁continuous	-10695
▁fulfilling	-10696
▁destination	-10697
▁legislators	-10698
▁limitations	-10699
▁totalitarian	-10700
▁interdependence	-10701
▁vulnerabilities	-10702
SF	-10703
200	-10704
arc	-10705
bul	-10706
emy	-10707
obs	-10708
rev	-10709
sub	-10710
▁ax	-10711
euro	-10712
namo	-10713
obil	-10714
role	-10715
▁DPJ	-10716
▁ICT	-10717
▁dil	-10718
5,000	-10719
enter	-10720
ricts	-10721
speed	-10722
ánamo	-10723
▁1992	-10724
▁Care	-10725
▁Imag	-10726
▁Mikh	-10727
▁Oslo	-10728
▁Youn	-10729
▁hast	-10730
▁issu	-10731
▁narr	-10732
▁rapp	-10733
ibbean	-10734
▁2001.	-10735
▁fract	-10736
▁overe	-10737
▁preca	-10738
▁redef	-10739
diction	-10740
finance	-10741
ordable	-10742
porting	-10743
tenance	-10744
umbling	-10745
▁Confuc	-10746
▁Regard	-10747
▁Review	-10748
▁Syriza	-10749
▁bluepr	-10750
▁electr	-10751
▁guided	-10752
▁inward	-10753
▁quotas	-10754
▁soccer	-10755
▁suited	-10756
▁Goldman	-10757
▁clarity	-10758
▁gravity	-10759
▁husband	-10760
▁inhabit	-10761
▁lowered	-10762
▁minutes	-10763
▁patents	-10764
▁pillars	-10765
▁unequal	-10766
▁vehicle	-10767
▁Franklin	-10768
▁activism	-10769
▁guerrill	-10770
▁initiate	-10771
▁offshore	-10772
▁traction	-10773
celeration	-10774
▁Caribbean	-10775
▁dedicated	-10776
▁documents	-10777
▁Maastricht	-10778
▁advocating	-10779
▁narratives	-10780
▁processing	-10781
▁accommodate	-10782
▁communicate	-10783
▁eradication	-10784
▁humiliation	-10785
▁maintenance	-10786
▁trafficking	-10787
▁assassination	-10788
▁diversification	-10789
▁entrepreneurial	-10790
-9	-10791
AL	-10792
apt	-10793
ben	-10794
ule	-10795
exas	-10796
ften	-10797
iors	-10798
last	-10799
▁75%	-10800
▁bea	-10801
▁ham	-10802
ellen	-10803
▁Kash	-10804
▁Main	-10805
▁loos	-10806
▁peer	-10807
▁walk	-10808
determ	-10809
roleum	-10810
social	-10811
▁Could	-10812
▁brave	-10813
▁dealt	-10814
▁envis	-10815
▁infer	-10816
▁prone	-10817
▁swept	-10818
weapons	-10819
▁Castro	-10820
▁Marine	-10821
▁affair	-10822
▁arises	-10823
▁conced	-10824
▁consec	-10825
▁expose	-10826
▁native	-10827
▁outset	-10828
▁patron	-10829
▁rivers	-10830
▁sensit	-10831
▁triple	-10832
changing	-10833
illusion	-10834
▁booming	-10835
▁destiny	-10836
▁emulate	-10837
▁endured	-10838
▁expects	-10839
▁flowing	-10840
▁studied	-10841
▁watched	-10842
▁Medicare	-10843
▁abundant	-10844
▁examined	-10845
▁feedback	-10846
▁hardship	-10847
▁instance	-10848
▁literacy	-10849
▁missions	-10850
▁respects	-10851
▁tackling	-10852
▁assertive	-10853
▁attacking	-10854
▁celebrate	-10855
▁correctly	-10856
▁districts	-10857
▁fertility	-10858
▁mentioned	-10859
▁satellite	-10860
▁substance	-10861
▁Guantánamo	-10862
▁committing	-10863
▁distribute	-10864
▁emphasizes	-10865
▁escalating	-10866
▁overlooked	-10867
▁philosopher	-10868
▁publication	-10869
▁Environmental	-10870
-4	-10871
WF	-10872
ps	-10873
isi	-10874
ros	-10875
unc	-10876
fulf	-10877
iege	-10878
ulum	-10879
▁Val	-10880
▁sat	-10881
icago	-10882
ienna	-10883
ivial	-10884
▁1995	-10885
▁2017	-10886
▁plag	-10887
Muslim	-10888
esbank	-10889
school	-10890
ushing	-10891
▁2000.	-10892
▁2030,	-10893
▁Canad	-10894
▁bears	-10895
▁doors	-10896
▁floor	-10897
▁forum	-10898
▁maybe	-10899
economy	-10900
inkable	-10901
▁Michel	-10902
▁curric	-10903
▁desert	-10904
▁spoken	-10905
▁Certain	-10906
▁Earlier	-10907
▁Syrians	-10908
▁Workers	-10909
▁assured	-10910
▁battles	-10911
▁totally	-10912
▁transit	-10913
olidarity	-10914
resistant	-10915
▁strictly	-10916
▁sweeping	-10917
▁Christmas	-10918
▁accompany	-10919
▁champions	-10920
▁describes	-10921
▁execution	-10922
▁exercises	-10923
▁necessity	-10924
▁reformers	-10925
▁relevance	-10926
▁secession	-10927
▁violation	-10928
▁Ukrainians	-10929
▁attraction	-10930
▁casualties	-10931
▁performing	-10932
▁preference	-10933
▁privileged	-10934
▁proclaimed	-10935
▁provincial	-10936
▁disagreement	-10937
▁deteriorating	-10938
▁uncertainties	-10939
-5	-10940
TB	-10941
kh	-10942
”;	-10943
non	-10944
▁Ice	-10945
▁Jim	-10946
▁Mem	-10947
▁gam	-10948
▁haw	-10949
acked	-10950
eness	-10951
roche	-10952
umbai	-10953
▁Biny	-10954
▁Cauc	-10955
▁Marg	-10956
▁Silk	-10957
▁Stan	-10958
▁Stra	-10959
▁Well	-10960
▁copy	-10961
▁nutr	-10962
▁sist	-10963
▁urge	-10964
people	-10965
urning	-10966
▁1997,	-10967
▁Money	-10968
▁Texas	-10969
▁cripp	-10970
▁fired	-10971
▁items	-10972
▁panel	-10973
▁score	-10974
▁smugg	-10975
▁spark	-10976
▁video	-10977
elected	-10978
ropical	-10979
ussions	-10980
▁Yellen	-10981
▁breaks	-10982
▁counts	-10983
▁firing	-10984
▁judged	-10985
▁overst	-10986
▁tenure	-10987
▁Between	-10988
▁Mikhail	-10989
▁broaden	-10990
▁contend	-10991
▁inherit	-10992
▁linking	-10993
▁maximum	-10994
▁mineral	-10995
▁morally	-10996
▁optimal	-10997
▁provoke	-10998
▁regards	-10999
rudential	-11000
▁Reinhart	-11001
▁affluent	-11002
▁consists	-11003
▁consumed	-11004
▁daughter	-11005
▁friendly	-11006
▁instruct	-11007
▁integral	-11008
▁linkages	-11009
▁metaphor	-11010
▁militant	-11011
▁outweigh	-11012
▁radicals	-11013
▁scarcity	-11014
▁violated	-11015
▁embracing	-11016
▁fostering	-11017
▁healthier	-11018
▁mandatory	-11019
▁plummeted	-11020
▁surrender	-11021
otechnology	-11022
▁insistence	-11023
▁ostensibly	-11024
▁peacefully	-11025
▁contributes	-11026
▁theoretical	-11027
▁connectivity	-11028
▁subsidiaries	-11029
▁dictatorships	-11030
▁strategically	-11031
lie	-11032
rey	-11033
▁–&	-11034
anch	-11035
away	-11036
blem	-11037
▁Ext	-11038
▁Orb	-11039
▁Was	-11040
roika	-11041
skill	-11042
▁1999	-11043
▁Acad	-11044
▁Ever	-11045
▁Hugo	-11046
▁hang	-11047
▁intu	-11048
▁rush	-11049
consum	-11050
solete	-11051
▁1991,	-11052
▁Parad	-11053
▁Techn	-11054
▁arrog	-11055
▁calam	-11056
▁embar	-11057
▁inaug	-11058
▁irrig	-11059
▁movie	-11060
ication	-11061
itement	-11062
rategic	-11063
ustomed	-11064
▁Credit	-11065
▁Manuel	-11066
▁oversh	-11067
regional	-11068
▁Chicago	-11069
▁Moldova	-11070
▁clearer	-11071
▁elusive	-11072
▁harvest	-11073
▁nervous	-11074
▁passage	-11075
icultural	-11076
rochement	-11077
▁Binyamin	-11078
▁Italians	-11079
▁psychiat	-11080
▁salaries	-11081
▁segments	-11082
▁shocking	-11083
▁thinkers	-11084
&#45;&#45;	-11085
▁beautiful	-11086
▁geography	-11087
▁injustice	-11088
▁nightmare	-11089
▁orthodoxy	-11090
▁reinvigor	-11091
▁unlimited	-11092
denominated	-11093
▁Bundesbank	-11094
▁anticipate	-11095
▁diagnostic	-11096
▁dimensions	-11097
▁escalation	-11098
▁insolvency	-11099
▁preventive	-11100
▁remembered	-11101
▁unintended	-11102
▁contentious	-11103
▁identifying	-11104
▁imagination	-11105
▁residential	-11106
▁stimulating	-11107
▁undertaking	-11108
▁indifference	-11109
▁jurisdiction	-11110
▁underestimate	-11111
SB	-11112
uh	-11113
lan	-11114
acit	-11115
igil	-11116
ules	-11117
▁Dal	-11118
▁Rog	-11119
▁cra	-11120
▁hij	-11121
Claud	-11122
angan	-11123
blown	-11124
child	-11125
eding	-11126
issue	-11127
▁Crit	-11128
▁inse	-11129
▁medi	-11130
▁reap	-11131
▁vind	-11132
▁west	-11133
Claude	-11134
manuel	-11135
perial	-11136
▁Orbán	-11137
▁cruel	-11138
▁pregn	-11139
▁reper	-11140
ologist	-11141
service	-11142
▁Rousse	-11143
▁Scient	-11144
▁Vienna	-11145
▁anyway	-11146
▁boards	-11147
▁cultiv	-11148
▁detail	-11149
▁fabric	-11150
▁influx	-11151
▁regret	-11152
▁thrown	-11153
balanced	-11154
▁Imagine	-11155
▁Society	-11156
▁anytime	-11157
▁cynical	-11158
▁desired	-11159
▁discern	-11160
▁hearing	-11161
▁miracle	-11162
▁officer	-11163
▁oversee	-11164
▁rivalry	-11165
▁trivial	-11166
▁viewing	-11167
▁Children	-11168
▁Nowadays	-11169
▁Scottish	-11170
▁centrist	-11171
▁covering	-11172
▁customer	-11173
▁evaluate	-11174
▁exceeded	-11175
▁killings	-11176
▁modified	-11177
▁pointing	-11178
▁presents	-11179
▁proposes	-11180
▁reminded	-11181
▁Hungarian	-11182
▁channeled	-11183
▁comprises	-11184
▁everybody	-11185
▁insolvent	-11186
▁marketing	-11187
▁mobilized	-11188
▁stalemate	-11189
▁suspended	-11190
information	-11191
▁accurately	-11192
▁distressed	-11193
▁homeowners	-11194
▁journalist	-11195
▁portfolios	-11196
▁technocrats	-11197
▁unrealistic	-11198
▁unfortunately	-11199
▁systematically	-11200
vo	-11201
▁¥	-11202
anz	-11203
opt	-11204
usp	-11205
▁9.	-11206
▁BO	-11207
▁Ki	-11208
asus	-11209
clos	-11210
prot	-11211
rush	-11212
umes	-11213
▁Exp	-11214
▁Yas	-11215
▁ath	-11216
▁fer	-11217
▁jun	-11218
▁odd	-11219
itage	-11220
ringe	-11221
▁100%	-11222
▁Adam	-11223
▁Deal	-11224
▁Snow	-11225
▁Tian	-11226
▁Zhou	-11227
asions	-11228
engine	-11229
lywood	-11230
▁1990,	-11231
▁Anglo	-11232
▁Peter	-11233
▁Small	-11234
▁color	-11235
▁magaz	-11236
▁overl	-11237
▁plain	-11238
▁river	-11239
▁secre	-11240
▁tyran	-11241
reating	-11242
▁Mumbai	-11243
▁cement	-11244
▁clever	-11245
▁compel	-11246
▁lethal	-11247
▁makers	-11248
▁winter	-11249
breaking	-11250
▁ensuing	-11251
▁foolish	-11252
▁forming	-11253
▁fortune	-11254
▁hardest	-11255
▁hostage	-11256
▁pledges	-11257
▁procure	-11258
▁reacted	-11259
▁renewal	-11260
▁specter	-11261
▁unavoid	-11262
▁Criminal	-11263
▁drinking	-11264
▁impeding	-11265
▁irrevers	-11266
▁maternal	-11267
▁preceded	-11268
▁selected	-11269
▁talented	-11270
▁thriving	-11271
▁wherever	-11272
▁collected	-11273
▁exceeding	-11274
▁excellent	-11275
▁explosive	-11276
▁troubling	-11277
functioning	-11278
▁&#45;&#45;	-11279
▁cumulative	-11280
▁businessmen	-11281
▁conditional	-11282
▁consecutive	-11283
▁enlightened	-11284
▁materialize	-11285
▁personality	-11286
establishment	-11287
▁explanations	-11288
▁immunization	-11289
▁complementary	-11290
ato	-11291
dis	-11292
iar	-11293
aved	-11294
ilip	-11295
moon	-11296
pora	-11297
raid	-11298
▁Fox	-11299
▁etc	-11300
▁gal	-11301
inked	-11302
osity	-11303
peror	-11304
ribed	-11305
sider	-11306
winds	-11307
▁1979	-11308
▁Anti	-11309
▁Wild	-11310
▁leap	-11311
acious	-11312
utable	-11313
▁2,000	-11314
▁2050,	-11315
▁Renzi	-11316
▁centr	-11317
▁exhib	-11318
▁fever	-11319
▁globe	-11320
▁rever	-11321
▁royal	-11322
▁sober	-11323
▁swing	-11324
▁tries	-11325
erating	-11326
itizens	-11327
seekers	-11328
▁dreams	-11329
▁guilty	-11330
▁ranked	-11331
▁resume	-11332
▁shield	-11333
capacity	-11334
▁careers	-11335
▁distort	-11336
▁embargo	-11337
▁fallout	-11338
▁nominee	-11339
▁permits	-11340
dependent	-11341
▁Olympics	-11342
▁comments	-11343
▁concepts	-11344
▁gathered	-11345
▁operates	-11346
▁opinions	-11347
▁persists	-11348
▁proceeds	-11349
▁reactors	-11350
▁democrats	-11351
▁distorted	-11352
▁socialism	-11353
▁suspected	-11354
▁competence	-11355
▁compounded	-11356
▁historians	-11357
▁personally	-11358
▁rebuilding	-11359
▁suspicious	-11360
▁witnessing	-11361
▁Politicians	-11362
▁correlation	-11363
▁destabilize	-11364
▁interpreted	-11365
▁shareholder	-11366
▁unthinkable	-11367
▁disagreements	-11368
▁rapprochement	-11369
ais	-11370
ano	-11371
fty	-11372
kew	-11373
pts	-11374
rah	-11375
amac	-11376
icit	-11377
keep	-11378
neum	-11379
rend	-11380
uits	-11381
▁Com	-11382
▁Ide	-11383
▁Imm	-11384
▁Lag	-11385
▁Nap	-11386
▁Tim	-11387
▁Zed	-11388
▁mad	-11389
ammar	-11390
eling	-11391
fuels	-11392
gical	-11393
otion	-11394
wered	-11395
▁$500	-11396
▁1998	-11397
▁Exec	-11398
▁Kiss	-11399
▁adds	-11400
▁drew	-11401
▁gang	-11402
fiscal	-11403
requis	-11404
risome	-11405
▁1979,	-11406
▁Barro	-11407
▁Force	-11408
▁Monti	-11409
▁Using	-11410
▁chess	-11411
▁defer	-11412
▁frict	-11413
▁intra	-11414
▁onset	-11415
▁shall	-11416
▁spike	-11417
▁theme	-11418
Qaddafi	-11419
amacare	-11420
nuclear	-11421
▁Across	-11422
▁Mechan	-11423
▁assemb	-11424
▁branch	-11425
▁evolve	-11426
▁repeal	-11427
▁tended	-11428
▁visits	-11429
equality	-11430
▁Iceland	-11431
▁Muammar	-11432
▁acquies	-11433
▁ensures	-11434
▁fleeing	-11435
▁guiding	-11436
▁refuses	-11437
▁stepped	-11438
prisingly	-11439
▁Contrary	-11440
▁Margaret	-11441
▁determin	-11442
▁obsolete	-11443
▁scandals	-11444
▁sentence	-11445
▁incidents	-11446
▁pessimism	-11447
▁worrisome	-11448
▁internally	-11449
▁responsive	-11450
▁allegations	-11451
▁proposition	-11452
▁restoration	-11453
▁transferred	-11454
▁vaccination	-11455
▁cosmopolitan	-11456
▁contradictory	-11457
▁unwillingness	-11458
▁Administration	-11459
▁organizational	-11460
QE	-11461
ui	-11462
due	-11463
iri	-11464
”).	-11465
arre	-11466
enda	-11467
inis	-11468
ourg	-11469
scar	-11470
yles	-11471
▁GNP	-11472
▁Hum	-11473
▁III	-11474
▁Mel	-11475
imity	-11476
rones	-11477
roots	-11478
spons	-11479
yield	-11480
▁Bulg	-11481
▁Flor	-11482
▁akin	-11483
▁diam	-11484
artial	-11485
astics	-11486
ubborn	-11487
ulture	-11488
▁Advis	-11489
▁Euras	-11490
▁Large	-11491
▁NAFTA	-11492
▁Start	-11493
▁aston	-11494
▁delic	-11495
▁drama	-11496
▁holid	-11497
▁inert	-11498
▁irony	-11499
▁pecul	-11500
▁slack	-11501
▁sugar	-11502
▁trees	-11503
▁veget	-11504
balance	-11505
▁crunch	-11506
▁exempt	-11507
▁hearts	-11508
▁lesser	-11509
▁rounds	-11510
▁safely	-11511
▁storms	-11512
Japanese	-11513
▁Poverty	-11514
▁apparat	-11515
▁clashes	-11516
▁cushion	-11517
▁faction	-11518
▁inspect	-11519
▁shouldn	-11520
▁tighten	-11521
political	-11522
▁Caucasus	-11523
▁efficacy	-11524
▁obtained	-11525
▁reviving	-11526
▁stunning	-11527
▁broadband	-11528
▁detention	-11529
▁eradicate	-11530
▁exhausted	-11531
▁languages	-11532
▁pipelines	-11533
▁radiation	-11534
▁resistant	-11535
▁Regardless	-11536
▁calculated	-11537
▁complained	-11538
▁convenient	-11539
▁indirectly	-11540
▁surrounded	-11541
▁accusations	-11542
▁disillusion	-11543
▁emphasizing	-11544
Proliferation	-11545
▁Independence	-11546
▁Unemployment	-11547
aya	-11548
gue	-11549
nes	-11550
▁JP	-11551
▁Ji	-11552
Iran	-11553
What	-11554
drop	-11555
heid	-11556
imil	-11557
list	-11558
seen	-11559
stop	-11560
▁12%	-11561
▁Ale	-11562
▁Cro	-11563
▁Pat	-11564
▁Ret	-11565
▁owe	-11566
cular	-11567
iency	-11568
ierra	-11569
rants	-11570
▁Left	-11571
▁Self	-11572
▁boys	-11573
▁dias	-11574
▁dual	-11575
▁echo	-11576
▁epic	-11577
▁hamp	-11578
▁impe	-11579
▁jail	-11580
▁swap	-11581
▁tear	-11582
▁wasn	-11583
▁woes	-11584
rawing	-11585
reated	-11586
▁1998,	-11587
▁Maybe	-11588
▁Turks	-11589
▁fires	-11590
▁unden	-11591
▁vigil	-11592
▁Around	-11593
▁anonym	-11594
▁burned	-11595
▁miscon	-11596
▁remedy	-11597
▁timely	-11598
▁unjust	-11599
▁writer	-11600
▁Equally	-11601
▁Protest	-11602
▁arrival	-11603
▁bridges	-11604
▁embassy	-11605
▁evasion	-11606
▁leftist	-11607
▁manager	-11608
▁penalty	-11609
▁plunged	-11610
▁proflig	-11611
▁rebound	-11612
▁unhappy	-11613
▁unleash	-11614
▁Eurozone	-11615
▁Managing	-11616
▁Rousseff	-11617
▁commerce	-11618
▁executed	-11619
▁exporter	-11620
▁perceive	-11621
▁perverse	-11622
▁resemble	-11623
▁stubborn	-11624
▁sympathy	-11625
▁balancing	-11626
▁blueprint	-11627
▁immigrant	-11628
▁measuring	-11629
▁modernize	-11630
▁organisms	-11631
▁particles	-11632
▁uncomfort	-11633
▁accumulate	-11634
▁accustomed	-11635
▁capacities	-11636
▁collapsing	-11637
▁compatible	-11638
▁containing	-11639
▁explaining	-11640
▁mitigating	-11641
▁reconsider	-11642
▁description	-11643
▁prohibition	-11644
▁restricting	-11645
▁environments	-11646
▁headquarters	-11647
▁highlighting	-11648
▁peacekeeping	-11649
▁transitional	-11650
▁reunification	-11651
ED	-11652
abe	-11653
UNIC	-11654
chen	-11655
nest	-11656
viol	-11657
▁$3.	-11658
▁Lux	-11659
▁Teh	-11660
aming	-11661
borne	-11662
heres	-11663
rates	-11664
▁Shah	-11665
▁Step	-11666
▁Uber	-11667
▁Zion	-11668
▁band	-11669
▁forb	-11670
▁plut	-11671
▁spin	-11672
▁unim	-11673
member	-11674
struct	-11675
▁2006.	-11676
▁2020,	-11677
▁Fifth	-11678
▁Short	-11679
▁Young	-11680
▁cloud	-11681
▁sever	-11682
▁ships	-11683
▁Madrid	-11684
▁Modern	-11685
▁Sierra	-11686
▁commem	-11687
▁embark	-11688
▁merits	-11689
▁misery	-11690
▁newcom	-11691
ractable	-11692
▁Digital	-11693
▁Florida	-11694
▁adapted	-11695
▁insists	-11696
▁organic	-11697
▁outsize	-11698
▁payroll	-11699
▁violate	-11700
▁Canadian	-11701
▁navigate	-11702
▁resigned	-11703
▁succeeds	-11704
▁uprising	-11705
▁Kissinger	-11706
▁moderates	-11707
▁realizing	-11708
▁revealing	-11709
▁reversing	-11710
▁satisfied	-11711
▁trillions	-11712
▁pragmatism	-11713
▁reassuring	-11714
▁appointment	-11715
▁appreciated	-11716
▁persecution	-11717
▁specialized	-11718
▁unavoidable	-11719
▁Historically	-11720
▁interactions	-11721
▁Representative	-11722
MEs	-11723
oup	-11724
umi	-11725
▁9/	-11726
▁Lu	-11727
awat	-11728
lead	-11729
lege	-11730
quir	-11731
▁COP	-11732
▁Jos	-11733
▁Len	-11734
▁Ten	-11735
▁Tig	-11736
▁cod	-11737
▁lik	-11738
acies	-11739
ulous	-11740
▁$200	-11741
▁1967	-11742
▁Carn	-11743
▁Fram	-11744
▁Maur	-11745
▁cert	-11746
▁cite	-11747
▁harb	-11748
▁laud	-11749
▁ride	-11750
azeera	-11751
chenko	-11752
ercant	-11753
handed	-11754
inence	-11755
wealth	-11756
▁2017,	-11757
▁Alban	-11758
▁Osama	-11759
▁Poles	-11760
▁cance	-11761
▁inner	-11762
▁penet	-11763
▁swaps	-11764
▁devote	-11765
▁enjoys	-11766
▁harass	-11767
▁reperc	-11768
▁speaks	-11769
▁uncomp	-11770
▁worthy	-11771
▁wouldn	-11772
ortunate	-11773
▁Armenia	-11774
▁Ottoman	-11775
▁analogy	-11776
▁explore	-11777
▁illustr	-11778
▁readers	-11779
▁symbols	-11780
▁tighter	-11781
iological	-11782
sponsored	-11783
▁imprison	-11784
▁prestige	-11785
▁sacrific	-11786
▁stopping	-11787
▁Argentine	-11788
▁ballistic	-11789
▁competent	-11790
▁denounced	-11791
▁exporting	-11792
▁identical	-11793
▁illnesses	-11794
▁leveraged	-11795
▁postponed	-11796
▁prerequis	-11797
▁subjected	-11798
▁varieties	-11799
▁Solidarity	-11800
▁achievable	-11801
▁annexation	-11802
▁conspiracy	-11803
▁constraint	-11804
▁manipulate	-11805
▁mitigation	-11806
▁prohibited	-11807
▁manufacture	-11808
▁proceedings	-11809
▁associations	-11810
▁prescription	-11811
▁civilizations	-11812
▁entertainment	-11813
▁exceptionally	-11814
▁repercussions	-11815
▁fundamentalists	-11816
-6	-11817
DB	-11818
FP	-11819
iy	-11820
rip	-11821
”),	-11822
▁EM	-11823
▁du	-11824
host	-11825
iped	-11826
▁Dub	-11827
▁Mat	-11828
oting	-11829
ovsky	-11830
perty	-11831
▁Conc	-11832
▁Deut	-11833
▁Mult	-11834
▁Resp	-11835
▁ages	-11836
▁boyc	-11837
▁busy	-11838
▁butt	-11839
▁glut	-11840
▁ling	-11841
▁owes	-11842
▁tank	-11843
50,000	-11844
atical	-11845
olving	-11846
umping	-11847
▁Impro	-11848
▁Sadly	-11849
▁brill	-11850
▁drops	-11851
▁exert	-11852
▁tacit	-11853
▁Milton	-11854
▁Rising	-11855
▁anchor	-11856
▁clause	-11857
▁coffee	-11858
▁comply	-11859
▁doomed	-11860
▁dubbed	-11861
▁havens	-11862
▁nearby	-11863
▁oldest	-11864
▁taxing	-11865
iniscent	-11866
majority	-11867
oliberal	-11868
▁anxious	-11869
▁bonuses	-11870
▁demagog	-11871
▁intends	-11872
▁passive	-11873
▁presupp	-11874
▁profile	-11875
▁confused	-11876
▁finished	-11877
▁headline	-11878
▁moreover	-11879
▁promotes	-11880
▁reformed	-11881
▁rendered	-11882
▁Euroskept	-11883
▁apparatus	-11884
▁disorders	-11885
▁impending	-11886
▁paralyzed	-11887
▁privately	-11888
▁recipient	-11889
▁complaints	-11890
▁credential	-11891
▁discussing	-11892
▁geographic	-11893
▁insurgents	-11894
▁intervened	-11895
▁profoundly	-11896
▁recipients	-11897
▁regulating	-11898
▁relentless	-11899
▁structured	-11900
▁exploration	-11901
▁forecasting	-11902
▁outsourcing	-11903
▁displacement	-11904
▁satisfaction	-11905
▁demonstrators	-11906
▁extraordinarily	-11907
TC	-11908
arb	-11909
awi	-11910
dep	-11911
hon	-11912
map	-11913
▁Fl	-11914
▁nu	-11915
▁ug	-11916
ales	-11917
arde	-11918
aven	-11919
chev	-11920
gone	-11921
ndra	-11922
pace	-11923
play	-11924
▁400	-11925
▁Low	-11926
▁Pot	-11927
▁Ram	-11928
▁SWF	-11929
▁cow	-11930
▁hoc	-11931
▁lov	-11932
▁luc	-11933
▁tie	-11934
aires	-11935
annon	-11936
found	-11937
group	-11938
▁bind	-11939
▁lest	-11940
▁obsc	-11941
▁ruth	-11942
▁skin	-11943
erable	-11944
itated	-11945
orking	-11946
public	-11947
rapped	-11948
▁2016.	-11949
▁Dream	-11950
▁Innov	-11951
▁Leone	-11952
▁Stock	-11953
▁title	-11954
ifiable	-11955
▁Altern	-11956
▁Maduro	-11957
▁batter	-11958
▁motion	-11959
▁overhe	-11960
▁ratify	-11961
▁traits	-11962
▁unsett	-11963
▁upside	-11964
▁Failure	-11965
▁Overall	-11966
▁Service	-11967
▁courses	-11968
▁curtail	-11969
▁decides	-11970
▁earning	-11971
▁exclude	-11972
▁handled	-11973
▁revital	-11974
▁surging	-11975
▁agreeing	-11976
▁allocate	-11977
▁capitals	-11978
▁defenses	-11979
▁patience	-11980
▁precious	-11981
▁prevails	-11982
▁sequence	-11983
▁skeptics	-11984
▁standoff	-11985
▁Communism	-11986
▁Executive	-11987
▁admission	-11988
▁dissatisf	-11989
▁enshrined	-11990
▁fragility	-11991
▁inflicted	-11992
▁pluralism	-11993
▁surpassed	-11994
conditional	-11995
▁convention	-11996
▁delegation	-11997
▁domination	-11998
▁enormously	-11999
▁extraction	-12000
▁irrigation	-12001
▁oppression	-12002
▁quantities	-12003
▁questioned	-12004
▁repressive	-12005
▁genetically	-12006
▁intelligent	-12007
▁intractable	-12008
▁procurement	-12009
▁speculators	-12010
▁suppression	-12011
▁unfortunate	-12012
▁consultation	-12013
▁decentralized	-12014
AT	-12015
St	-12016
di	-12017
ads	-12018
ady	-12019
san	-12020
zai	-12021
....	-12022
arth	-12023
help	-12024
inea	-12025
laim	-12026
mail	-12027
mert	-12028
okes	-12029
star	-12030
▁$20	-12031
▁($1	-12032
▁1.2	-12033
▁11%	-12034
▁Bad	-12035
▁Bes	-12036
▁Kac	-12037
▁Kyi	-12038
UNICH	-12039
apped	-12040
ariff	-12041
athan	-12042
books	-12043
eters	-12044
orbyn	-12045
ouses	-12046
▁Drug	-12047
▁Need	-12048
▁Tanz	-12049
▁boon	-12050
▁gamb	-12051
▁glim	-12052
▁hall	-12053
isible	-12054
orrect	-12055
▁havoc	-12056
▁pneum	-12057
▁ruler	-12058
▁verge	-12059
▁veter	-12060
changed	-12061
oshenko	-12062
sighted	-12063
▁Agenda	-12064
▁Khrush	-12065
▁MUNICH	-12066
▁afraid	-12067
▁insult	-12068
▁picked	-12069
▁silver	-12070
Semitism	-12071
resource	-12072
▁College	-12073
▁Persian	-12074
▁William	-12075
▁advised	-12076
▁aligned	-12077
▁approve	-12078
▁derived	-12079
▁descend	-12080
▁impasse	-12081
▁moments	-12082
▁quietly	-12083
▁Building	-12084
▁Emmanuel	-12085
▁backdrop	-12086
▁centered	-12087
▁contempt	-12088
▁crossing	-12089
▁dividend	-12090
▁everyday	-12091
▁extremes	-12092
▁gridlock	-12093
▁innovate	-12094
▁spurring	-12095
▁Certainly	-12096
▁locations	-12097
▁proximity	-12098
▁repayment	-12099
established	-12100
▁Khrushchev	-12101
▁absolutely	-12102
▁correction	-12103
▁dependency	-12104
▁depositors	-12105
▁disorderly	-12106
▁jeopardize	-12107
▁liberation	-12108
▁positioned	-12109
▁prediction	-12110
▁reinforces	-12111
▁subsidized	-12112
▁successive	-12113
▁calculation	-12114
▁conferences	-12115
▁entitlement	-12116
▁forthcoming	-12117
▁realization	-12118
▁superiority	-12119
▁susceptible	-12120
▁technically	-12121
▁undervalued	-12122
▁occasionally	-12123
▁demonstration	-12124
▁predominantly	-12125
▁fundamentalism	-12126
▁understandably	-12127
▁administrations	-12128
BM	-12129
ali	-12130
een	-12131
▁65	-12132
▁90	-12133
▁GM	-12134
▁Je	-12135
abao	-12136
hips	-12137
upid	-12138
▁1.3	-12139
▁BJP	-12140
▁Bah	-12141
▁Beg	-12142
▁Cap	-12143
▁Kat	-12144
▁Lim	-12145
▁SAN	-12146
▁sta	-12147
amous	-12148
anmen	-12149
icked	-12150
overy	-12151
▁0.5%	-12152
▁Life	-12153
▁Murd	-12154
▁Rest	-12155
▁Urug	-12156
▁bell	-12157
▁chol	-12158
▁junt	-12159
▁page	-12160
▁unsu	-12161
enment	-12162
riched	-12163
unting	-12164
▁Hence	-12165
▁inval	-12166
▁pages	-12167
▁theor	-12168
America	-12169
appropr	-12170
▁Corbyn	-12171
▁Jiabao	-12172
▁Luxemb	-12173
▁Olmert	-12174
▁Tehran	-12175
▁betray	-12176
▁crowds	-12177
▁hungry	-12178
▁lasted	-12179
▁proves	-12180
▁stores	-12181
▁tactic	-12182
▁virtue	-12183
riptions	-12184
utionary	-12185
▁Consequ	-12186
▁Critics	-12187
▁Jazeera	-12188
▁Paradox	-12189
▁Uruguay	-12190
▁barrier	-12191
▁dictate	-12192
▁fertile	-12193
▁plagued	-12194
▁plastic	-12195
▁signing	-12196
▁verdict	-12197
▁weakens	-12198
elligence	-12199
▁elevated	-12200
▁inclined	-12201
▁incurred	-12202
▁retrench	-12203
▁rigorous	-12204
▁Mechanism	-12205
▁amendment	-12206
▁confusion	-12207
▁criticize	-12208
▁headwinds	-12209
▁judgments	-12210
▁lifestyle	-12211
▁modernity	-12212
▁outbreaks	-12213
▁persuaded	-12214
▁rebalance	-12215
▁rebellion	-12216
▁resembles	-12217
▁unchanged	-12218
▁Eventually	-12219
▁analytical	-12220
▁definitive	-12221
▁literature	-12222
▁manageable	-12223
▁objections	-12224
▁predicting	-12225
▁supportive	-12226
▁conflicting	-12227
▁preoccupied	-12228
▁questioning	-12229
▁reminiscent	-12230
▁supervisory	-12231
▁inconsistent	-12232
▁irreversible	-12233
▁corresponding	-12234
▁constituencies	-12235
▁investigations	-12236
At	-12237
No	-12238
uy	-12239
”?	-12240
▁£	-12241
TIP	-12242
dog	-12243
ede	-12244
mir	-12245
pop	-12246
▁ox	-12247
apid	-12248
aque	-12249
held	-12250
iral	-12251
rior	-12252
risy	-12253
rows	-12254
▁16%	-12255
▁BOJ	-12256
▁Ent	-12257
▁MIL	-12258
▁RMB	-12259
▁Rob	-12260
▁Xin	-12261
▁fee	-12262
▁pin	-12263
benef	-12264
heads	-12265
nings	-12266
reach	-12267
▁1.5%	-12268
▁CEOs	-12269
▁Dani	-12270
▁Hans	-12271
▁IPCC	-12272
▁Kenn	-12273
▁Mitt	-12274
▁Stat	-12275
▁belt	-12276
▁dece	-12277
▁fans	-12278
▁nurs	-12279
▁poet	-12280
▁stip	-12281
▁stro	-12282
▁tant	-12283
▁wart	-12284
anches	-12285
issile	-12286
▁2000’	-12287
▁About	-12288
▁Boris	-12289
▁Domin	-12290
▁Harry	-12291
▁Major	-12292
▁Seoul	-12293
▁endow	-12294
▁freer	-12295
▁naive	-12296
▁realm	-12297
uctions	-12298
▁Anyone	-12299
▁breath	-12300
▁broker	-12301
▁caliph	-12302
▁convey	-12303
▁device	-12304
▁hugely	-12305
▁humili	-12306
▁myster	-12307
▁render	-12308
dictions	-12309
entially	-12310
icrobial	-12311
▁Liberia	-12312
▁counted	-12313
▁crowded	-12314
▁herself	-12315
▁invaded	-12316
▁obscure	-12317
▁reprodu	-12318
▁retired	-12319
▁useless	-12320
▁Cultural	-12321
▁Orthodox	-12322
▁brothers	-12323
▁defended	-12324
▁depended	-12325
▁emission	-12326
▁flourish	-12327
▁misunder	-12328
▁mountain	-12329
▁protocol	-12330
▁studying	-12331
▁treasury	-12332
▁Tiananmen	-12333
▁alleviate	-12334
▁amounting	-12335
▁constrain	-12336
▁diffusion	-12337
▁fulfilled	-12338
▁penalties	-12339
▁qualities	-12340
▁unfolding	-12341
▁worldview	-12342
▁Inequality	-12343
▁classified	-12344
▁financiers	-12345
▁journalism	-12346
▁precarious	-12347
▁radicalism	-12348
▁empowerment	-12349
▁geopolitics	-12350
▁inhabitants	-12351
▁intervening	-12352
▁prosecution	-12353
▁artificially	-12354
▁incompetence	-12355
▁perpetrators	-12356
▁persistently	-12357
▁jurisdictions	-12358
dem	-12359
vio	-12360
▁CH	-12361
▁Hy	-12362
▁SP	-12363
-198	-12364
edge	-12365
etus	-12366
igue	-12367
teen	-12368
▁30-	-12369
▁Fac	-12370
▁Gra	-12371
▁Hay	-12372
▁Rab	-12373
▁Rad	-12374
▁Suu	-12375
▁Var	-12376
▁biz	-12377
▁cam	-12378
▁dat	-12379
▁gay	-12380
▁rav	-12381
chest	-12382
grown	-12383
izumi	-12384
jiang	-12385
lived	-12386
month	-12387
tered	-12388
wards	-12389
▁1994	-12390
▁1996	-12391
▁FARC	-12392
▁Trad	-12393
▁Yush	-12394
▁auto	-12395
▁medd	-12396
fueled	-12397
ighbor	-12398
▁1994,	-12399
▁Istan	-12400
▁chart	-12401
▁deple	-12402
▁embry	-12403
▁farms	-12404
▁inexp	-12405
▁loses	-12406
▁opted	-12407
▁steam	-12408
irected	-12409
issance	-12410
rafting	-12411
▁Bannon	-12412
▁Bhutto	-12413
▁Darwin	-12414
▁Rogoff	-12415
▁Rohing	-12416
▁Zedong	-12417
▁affirm	-12418
▁forged	-12419
▁futile	-12420
▁mature	-12421
▁pulled	-12422
▁strang	-12423
berspace	-12424
military	-12425
▁Koizumi	-12426
▁Looking	-12427
▁Malaria	-12428
▁awarded	-12429
▁bizarre	-12430
▁coexist	-12431
▁depress	-12432
▁illicit	-12433
▁impeded	-12434
▁retains	-12435
▁sparked	-12436
▁staying	-12437
▁supreme	-12438
▁varying	-12439
▁volunte	-12440
▁Citizens	-12441
▁Istanbul	-12442
▁bacteria	-12443
▁composed	-12444
▁engineer	-12445
▁envision	-12446
▁exported	-12447
▁horrific	-12448
▁maturity	-12449
▁settings	-12450
▁tropical	-12451
▁visiting	-12452
▁Achieving	-12453
▁Governing	-12454
▁chemicals	-12455
▁directors	-12456
▁installed	-12457
▁proactive	-12458
▁slaughter	-12459
▁Resolution	-12460
▁categories	-12461
▁divergence	-12462
▁enrollment	-12463
▁expressing	-12464
▁moderation	-12465
▁recovering	-12466
▁credentials	-12467
▁discoveries	-12468
▁inspiration	-12469
▁persistence	-12470
▁underscores	-12471
▁deficiencies	-12472
▁geographical	-12473
▁participated	-12474
▁ratification	-12475
▁multicultural	-12476
▁transformative	-12477
MT	-12478
POR	-12479
inf	-12480
ker	-12481
▁Ho	-12482
▁ze	-12483
acle	-12484
from	-12485
game	-12486
inqu	-12487
lose	-12488
otal	-12489
▁45%	-12490
▁Ash	-12491
▁Cru	-12492
▁Men	-12493
▁PLO	-12494
▁cig	-12495
▁ele	-12496
▁fru	-12497
▁pes	-12498
▁pit	-12499
▁sed	-12500
arrhe	-12501
intao	-12502
irmed	-12503
ogene	-12504
ourge	-12505
stein	-12506
▁Disc	-12507
▁Dise	-12508
▁Hass	-12509
▁Land	-12510
▁Nare	-12511
▁Pres	-12512
▁Rums	-12513
▁Tric	-12514
▁bird	-12515
▁dose	-12516
▁gift	-12517
▁guns	-12518
▁hint	-12519
▁samp	-12520
▁stir	-12521
▁sway	-12522
▁webs	-12523
asures	-12524
idding	-12525
ixture	-12526
ledged	-12527
ulence	-12528
utting	-12529
▁cling	-12530
▁drain	-12531
▁exile	-12532
▁junta	-12533
▁paths	-12534
▁scram	-12535
▁spell	-12536
▁traum	-12537
▁walls	-12538
arching	-12539
instein	-12540
urances	-12541
▁Guinea	-12542
▁Jintao	-12543
▁Sharif	-12544
▁Silvio	-12545
▁Warren	-12546
▁Warsaw	-12547
▁athlet	-12548
▁hosted	-12549
▁papers	-12550
▁repaid	-12551
▁subtle	-12552
▁trauma	-12553
▁underw	-12554
▁beneath	-12555
▁educate	-12556
▁ensured	-12557
▁hardlin	-12558
▁nurture	-12559
▁outlays	-12560
▁overest	-12561
▁rejects	-12562
▁wartime	-12563
democracy	-12564
producing	-12565
terrorism	-12566
▁Narendra	-12567
▁Rumsfeld	-12568
▁Standard	-12569
▁Tanzania	-12570
▁abstract	-12571
▁employer	-12572
▁hypothes	-12573
▁landmark	-12574
▁narrowly	-12575
▁takeover	-12576
▁2008-2009	-12577
▁Relations	-12578
▁accidents	-12579
▁avoidance	-12580
▁notorious	-12581
▁obsession	-12582
▁peninsula	-12583
▁reformist	-12584
▁relatives	-12585
▁watershed	-12586
▁Liberation	-12587
▁disposable	-12588
▁exploiting	-12589
▁professors	-12590
▁registered	-12591
▁compromised	-12592
▁constructed	-12593
▁ingredients	-12594
▁macroeconom	-12595
▁resignation	-12596
▁exacerbating	-12597
▁imprisonment	-12598
▁distinguished	-12599
▁neighborhoods	-12600
▁conditionality	-12601
▁disappointment	-12602
▁interdependent	-12603
Ab	-12604
GH	-12605
-15	-12606
▁Ap	-12607
hend	-12608
lude	-12609
omer	-12610
pric	-12611
xual	-12612
▁EMU	-12613
▁Moz	-12614
▁fur	-12615
▁lax	-12616
▁mig	-12617
▁tor	-12618
▁upd	-12619
appro	-12620
asser	-12621
inate	-12622
ivism	-12623
overe	-12624
▁1993	-12625
▁Camp	-12626
▁Vict	-12627
▁mine	-12628
▁omin	-12629
▁ruin	-12630
▁soul	-12631
▁tape	-12632
▁unve	-12633
killed	-12634
▁disen	-12635
▁disse	-12636
▁energ	-12637
▁heral	-12638
▁lingu	-12639
▁posts	-12640
▁riots	-12641
▁sanct	-12642
▁shore	-12643
▁siege	-12644
angered	-12645
defined	-12646
▁Deputy	-12647
▁Little	-12648
▁abound	-12649
▁ancest	-12650
▁buffer	-12651
▁golden	-12652
▁hybrid	-12653
▁meters	-12654
▁portra	-12655
▁praise	-12656
children	-12657
payments	-12658
▁Cypriot	-12659
▁Studies	-12660
▁Trichet	-12661
▁analyze	-12662
▁arising	-12663
▁cleaner	-12664
▁clinics	-12665
▁crossed	-12666
▁dispers	-12667
▁divorce	-12668
▁fantasy	-12669
▁imposes	-12670
▁millenn	-12671
▁proving	-12672
▁reactor	-12673
▁realism	-12674
▁refrain	-12675
▁virtues	-12676
establish	-12677
▁Mohammad	-12678
▁Mohammed	-12679
▁Rohingya	-12680
▁divisive	-12681
▁enjoying	-12682
▁improves	-12683
▁messages	-12684
▁pandemic	-12685
▁protects	-12686
▁sciences	-12687
▁shopping	-12688
revolution	-12689
▁Catalonia	-12690
▁Confucian	-12691
▁Northeast	-12692
▁civilized	-12693
▁commander	-12694
▁disrupted	-12695
▁evidently	-12696
▁jihadists	-12697
▁newcomers	-12698
▁privilege	-12699
▁submitted	-12700
▁Individual	-12701
▁conducting	-12702
▁describing	-12703
▁eighteenth	-12704
▁grassroots	-12705
▁helicopter	-12706
▁imposition	-12707
▁imprisoned	-12708
▁prevalence	-12709
▁diversified	-12710
▁signatories	-12711
▁substantive	-12712
▁governmental	-12713
▁perspectives	-12714
▁tuberculosis	-12715
▁acknowledging	-12716
▁independently	-12717
▁unconditional	-12718
EV	-12719
ati	-12720
azi	-12721
ero	-12722
gar	-12723
-20,	-12724
Year	-12725
bott	-12726
dest	-12727
fast	-12728
inge	-12729
ldom	-12730
west	-12731
▁13%	-12732
▁JPM	-12733
▁Lou	-12734
▁geo	-12735
▁hem	-12736
▁ton	-12737
▁ves	-12738
anged	-12739
ework	-12740
liest	-12741
owitz	-12742
peace	-12743
umber	-12744
▁HONG	-12745
▁KONG	-12746
▁dies	-12747
▁eman	-12748
▁fake	-12749
▁rall	-12750
▁swit	-12751
acking	-12752
collar	-12753
decade	-12754
eville	-12755
ittees	-12756
ourced	-12757
rehend	-12758
▁1992,	-12759
▁Congo	-12760
▁Recon	-12761
▁bread	-12762
▁datab	-12763
▁fines	-12764
▁horse	-12765
▁lucky	-12766
▁mayor	-12767
▁meets	-12768
▁peers	-12769
▁quota	-12770
▁sorts	-12771
▁stamp	-12772
▁stuff	-12773
Russian	-12774
▁Higher	-12775
▁Napole	-12776
▁Wilson	-12777
▁autumn	-12778
▁dismal	-12779
▁glance	-12780
▁heroic	-12781
▁listed	-12782
▁neglig	-12783
ependent	-12784
ercantil	-12785
▁Challen	-12786
▁endemic	-12787
▁hitting	-12788
▁jointly	-12789
▁lagging	-12790
▁locally	-12791
▁militia	-12792
▁precond	-12793
▁preempt	-12794
▁priorit	-12795
▁simpler	-12796
▁talents	-12797
▁utility	-12798
▁deepened	-12799
▁hardline	-12800
▁illiquid	-12801
▁mosquito	-12802
▁murdered	-12803
▁outdated	-12804
imicrobial	-12805
▁frequency	-12806
▁religions	-12807
▁withdrawn	-12808
▁Management	-12809
▁automobile	-12810
▁celebrated	-12811
▁compassion	-12812
▁critically	-12813
▁depressing	-12814
▁disability	-12815
▁multiplier	-12816
▁organizing	-12817
▁successors	-12818
▁tendencies	-12819
▁battlefield	-12820
▁imperatives	-12821
▁integrating	-12822
▁restrictive	-12823
▁retaliation	-12824
▁transmitted	-12825
▁acceleration	-12826
▁disadvantage	-12827
▁disappointed	-12828
▁incompatible	-12829
▁contradiction	-12830
▁fundamentalist	-12831
GI	-12832
PE	-12833
nn	-12834
ta	-12835
wa	-12836
bes	-12837
hud	-12838
mit	-12839
ota	-12840
ouf	-12841
Chin	-12842
even	-12843
greg	-12844
isen	-12845
itim	-12846
kaku	-12847
uana	-12848
▁22%	-12849
▁Adv	-12850
▁Dif	-12851
▁Rod	-12852
▁bru	-12853
arded	-12854
eless	-12855
heric	-12856
icate	-12857
iller	-12858
onies	-12859
quiry	-12860
ucing	-12861
äuble	-12862
▁Azer	-12863
▁Gore	-12864
▁Salv	-12865
▁TTIP	-12866
▁bets	-12867
▁bull	-12868
▁hurd	-12869
▁mend	-12870
▁skew	-12871
▁twin	-12872
▁wear	-12873
Brazil	-12874
ainted	-12875
arctic	-12876
ulsion	-12877
▁1995,	-12878
▁Child	-12879
▁Think	-12880
▁Which	-12881
▁Years	-12882
▁agent	-12883
▁heter	-12884
Chinese	-12885
akening	-12886
inating	-12887
▁Atomic	-12888
▁Latvia	-12889
▁assign	-12890
▁banker	-12891
▁boosts	-12892
▁endure	-12893
▁intact	-12894
▁opaque	-12895
▁pieces	-12896
▁plague	-12897
▁puzzle	-12898
▁seldom	-12899
▁squand	-12900
▁talked	-12901
▁tissue	-12902
▁trades	-12903
▁Bahrain	-12904
▁Britons	-12905
▁Support	-12906
▁Tibetan	-12907
▁debated	-12908
▁expropr	-12909
▁fearful	-12910
▁fiction	-12911
▁gesture	-12912
▁impacts	-12913
▁longest	-12914
▁orchest	-12915
▁picking	-12916
▁skyrock	-12917
▁tyranny	-12918
▁unequiv	-12919
▁volumes	-12920
reasuries	-12921
▁Progress	-12922
▁bombings	-12923
▁catalyst	-12924
▁dividing	-12925
▁employee	-12926
▁exciting	-12927
▁likewise	-12928
▁mandates	-12929
▁peculiar	-12930
▁provoked	-12931
▁reassert	-12932
▁retained	-12933
▁subordin	-12934
▁taxpayer	-12935
▁vigorous	-12936
▁Alexander	-12937
▁Colombian	-12938
▁brutality	-12939
▁capturing	-12940
▁convicted	-12941
▁decreased	-12942
▁disparate	-12943
▁lucrative	-12944
▁nostalgia	-12945
▁oligarchs	-12946
▁portrayed	-12947
▁selective	-12948
▁Securities	-12949
▁accordance	-12950
▁groundwork	-12951
▁mobilizing	-12952
▁properties	-12953
▁resurgence	-12954
▁separatist	-12955
▁suggestion	-12956
▁wealthiest	-12957
particularly	-12958
▁adversaries	-12959
▁illustrates	-12960
▁manipulated	-12961
▁modernizing	-12962
▁sensitivity	-12963
determination	-12964
▁constituency	-12965
▁discouraging	-12966
▁indebtedness	-12967
▁Conservatives	-12968
▁discretionary	-12969
▁technologically	-12970
cr	-12971
IFA	-12972
abs	-12973
aki	-12974
bai	-12975
bel	-12976
gor	-12977
hot	-12978
ids	-12979
ken	-12980
mes	-12981
rot	-12982
rup	-12983
▁31	-12984
▁IA	-12985
▁IR	-12986
▁LA	-12987
▁Py	-12988
0027	-12989
habi	-12990
ihil	-12991
▁17%	-12992
▁2%.	-12993
▁CIT	-12994
▁GCC	-12995
▁Pow	-12996
▁Taj	-12997
▁bag	-12998
abled	-12999
craft	-13000
icter	-13001
ighed	-13002
inery	-13003
lings	-13004
merce	-13005
oving	-13006
track	-13007
▁Jeff	-13008
▁Sure	-13009
▁chau	-13010
▁ende	-13011
▁lags	-13012
▁mole	-13013
▁subs	-13014
▁ugly	-13015
hengen	-13016
inable	-13017
ulates	-13018
▁Glass	-13019
▁alert	-13020
▁backs	-13021
▁boats	-13022
▁curve	-13023
▁owner	-13024
▁recal	-13025
▁reloc	-13026
▁repud	-13027
▁sleep	-13028
certain	-13029
fledged	-13030
itating	-13031
▁Bhutan	-13032
▁Oxford	-13033
▁Recogn	-13034
▁Shiite	-13035
▁Strong	-13036
▁bypass	-13037
▁column	-13038
▁drones	-13039
▁elabor	-13040
▁gamble	-13041
▁heated	-13042
▁plunge	-13043
▁sister	-13044
▁strife	-13045
▁theirs	-13046
▁wisely	-13047
specific	-13048
▁Kashmir	-13049
▁Morales	-13050
▁Volcker	-13051
▁counsel	-13052
▁devised	-13053
▁drastic	-13054
▁footing	-13055
▁inertia	-13056
▁mixture	-13057
▁morning	-13058
▁outward	-13059
▁shelter	-13060
▁toppled	-13061
▁turnout	-13062
President	-13063
ilization	-13064
president	-13065
▁Regional	-13066
▁Schengen	-13067
▁Schäuble	-13068
▁Services	-13069
▁analyses	-13070
▁deadline	-13071
▁deprived	-13072
▁diaspora	-13073
▁embarked	-13074
▁floating	-13075
▁incoming	-13076
▁markedly	-13077
▁servants	-13078
▁sizeable	-13079
▁stricter	-13080
▁Antarctic	-13081
▁Economist	-13082
▁Framework	-13083
▁Taiwanese	-13084
▁apartheid	-13085
▁hegemonic	-13086
▁northeast	-13087
▁populated	-13088
▁possesses	-13089
▁procedure	-13090
▁readiness	-13091
▁screening	-13092
▁spiritual	-13093
engineering	-13094
▁Yushchenko	-13095
▁commentary	-13096
▁developers	-13097
▁healthcare	-13098
▁influences	-13099
▁majorities	-13100
▁privileges	-13101
▁pronounced	-13102
▁proponents	-13103
▁starvation	-13104
▁turbulence	-13105
▁worthwhile	-13106
▁advancement	-13107
▁coincidence	-13108
▁specialists	-13109
▁strengthens	-13110
▁unregulated	-13111
▁administered	-13112
▁questionable	-13113
▁systemically	-13114
▁Transatlantic	-13115
▁socioeconomic	-13116
▁uncomfortable	-13117
▁distributional	-13118
AM	-13119
MI	-13120
da	-13121
rö	-13122
▁­	-13123
can	-13124
▁Dr	-13125
atur	-13126
ifts	-13127
ifty	-13128
zhen	-13129
▁85%	-13130
▁KGB	-13131
▁Kor	-13132
▁LDP	-13133
▁Mun	-13134
▁Nav	-13135
▁ber	-13136
▁lin	-13137
arest	-13138
auses	-13139
luded	-13140
ombie	-13141
onial	-13142
oston	-13143
urned	-13144
▁1945	-13145
▁Area	-13146
▁Test	-13147
▁axis	-13148
▁buck	-13149
▁detr	-13150
▁evac	-13151
▁oust	-13152
▁owed	-13153
▁pend	-13154
▁pond	-13155
▁seed	-13156
anding	-13157
arming	-13158
linked	-13159
placed	-13160
▁2002.	-13161
▁2003.	-13162
▁2050.	-13163
▁Croat	-13164
▁arena	-13165
▁magic	-13166
▁merch	-13167
▁scant	-13168
▁shake	-13169
▁slows	-13170
ulatory	-13171
▁Boston	-13172
▁Damasc	-13173
▁Powell	-13174
▁apolog	-13175
▁bailed	-13176
▁famine	-13177
▁flying	-13178
▁lawyer	-13179
▁mantra	-13180
▁milest	-13181
▁mirror	-13182
▁myself	-13183
▁pollut	-13184
▁suprem	-13185
▁surviv	-13186
▁valued	-13187
▁varied	-13188
aissance	-13189
business	-13190
▁Czechos	-13191
▁Lagarde	-13192
▁augment	-13193
▁convict	-13194
▁diarrhe	-13195
▁heating	-13196
▁horrors	-13197
▁instant	-13198
▁manages	-13199
▁matched	-13200
▁mergers	-13201
▁shocked	-13202
▁shorter	-13203
Palestine	-13204
▁Americas	-13205
▁Refugees	-13206
▁asserted	-13207
▁graduate	-13208
▁monarchy	-13209
▁textbook	-13210
▁variable	-13211
▁Strategic	-13212
▁colleague	-13213
▁detriment	-13214
▁diversify	-13215
▁donations	-13216
▁governors	-13217
▁invention	-13218
▁occupying	-13219
▁stringent	-13220
▁supplying	-13221
▁tightened	-13222
▁unskilled	-13223
▁wealthier	-13224
▁workplace	-13225
▁continuity	-13226
▁disclosure	-13227
▁fertilizer	-13228
▁functional	-13229
▁indicating	-13230
▁patriotism	-13231
▁practition	-13232
▁prosecutor	-13233
▁unbalanced	-13234
▁charismatic	-13235
▁mathematics	-13236
▁enthusiastic	-13237
▁experimental	-13238
▁reproductive	-13239
▁retrenchment	-13240
▁collaborative	-13241
▁disadvantaged	-13242
▁mismanagement	-13243
ofi	-13244
thy	-13245
▁(2	-13246
▁36	-13247
▁37	-13248
▁Ib	-13249
This	-13250
asht	-13251
bing	-13252
gery	-13253
icot	-13254
olen	-13255
sche	-13256
yans	-13257
▁$60	-13258
▁-0.	-13259
▁10.	-13260
▁190	-13261
▁2.5	-13262
▁FSB	-13263
▁Ill	-13264
▁Slo	-13265
▁Wah	-13266
▁Way	-13267
▁awa	-13268
▁boy	-13269
▁coc	-13270
▁gig	-13271
▁sab	-13272
There	-13273
print	-13274
rooms	-13275
▁1973	-13276
▁Brex	-13277
▁Ehud	-13278
▁Emir	-13279
▁disd	-13280
▁inad	-13281
▁pour	-13282
▁sons	-13283
▁user	-13284
▁wire	-13285
around	-13286
hammad	-13287
ompass	-13288
▁2017.	-13289
▁Larry	-13290
▁clubs	-13291
▁franc	-13292
▁grain	-13293
▁recyc	-13294
▁ridic	-13295
▁versa	-13296
banking	-13297
hemical	-13298
overing	-13299
▁Diplom	-13300
▁Sovere	-13301
▁Target	-13302
▁agrees	-13303
▁atomic	-13304
▁delays	-13305
▁fruits	-13306
▁sacred	-13307
▁shorts	-13308
▁stupid	-13309
▁troika	-13310
▁uneven	-13311
▁worlds	-13312
▁anymore	-13313
▁blaming	-13314
▁forging	-13315
▁fraught	-13316
▁persons	-13317
▁publish	-13318
▁rescued	-13319
▁reviews	-13320
▁stretch	-13321
▁visions	-13322
▁airports	-13323
▁attended	-13324
▁coercion	-13325
▁eligible	-13326
▁embodied	-13327
▁exposing	-13328
▁operated	-13329
▁tailored	-13330
▁tourists	-13331
▁upheaval	-13332
▁vigilant	-13333
ignificant	-13334
ranational	-13335
▁Hollywood	-13336
▁asserting	-13337
▁classical	-13338
▁comparing	-13339
▁conceived	-13340
▁excluding	-13341
▁fisheries	-13342
▁listening	-13343
▁machinery	-13344
▁occasions	-13345
▁partition	-13346
▁prevalent	-13347
▁upholding	-13348
lightenment	-13349
▁Affordable	-13350
▁assurances	-13351
▁committees	-13352
▁dissidents	-13353
▁engineered	-13354
▁laboratory	-13355
▁possession	-13356
▁sacrifices	-13357
▁simplistic	-13358
▁stabilized	-13359
▁vocational	-13360
▁automobiles	-13361
▁contemplate	-13362
▁marketplace	-13363
▁meaningless	-13364
▁observation	-13365
▁preventable	-13366
▁respondents	-13367
▁Intelligence	-13368
▁deteriorated	-13369
▁prerequisite	-13370
▁consequential	-13371
▁precautionary	-13372
▁Czechoslovakia	-13373
▁notwithstanding	-13374
EP	-13375
uj	-13376
00,	-13377
lem	-13378
oko	-13379
▁29	-13380
▁EF	-13381
▁Il	-13382
EOUL	-13383
emia	-13384
hour	-13385
paid	-13386
pins	-13387
plan	-13388
rier	-13389
ript	-13390
uber	-13391
▁28%	-13392
▁BoE	-13393
▁Dom	-13394
▁Ger	-13395
▁Yuk	-13396
▁ans	-13397
▁nan	-13398
eller	-13399
erved	-13400
isure	-13401
mount	-13402
ndrom	-13403
odork	-13404
opian	-13405
raged	-13406
rying	-13407
there	-13408
▁Belt	-13409
▁FIFA	-13410
▁Hard	-13411
▁IAEA	-13412
▁José	-13413
▁NCDs	-13414
▁Niet	-13415
▁SMEs	-13416
▁cher	-13417
▁corn	-13418
▁culp	-13419
▁ills	-13420
▁shop	-13421
▁teen	-13422
▁thro	-13423
ducive	-13424
fforts	-13425
ijuana	-13426
inston	-13427
scious	-13428
supply	-13429
system	-13430
target	-13431
undrum	-13432
▁1980,	-13433
▁Local	-13434
▁Price	-13435
▁SEOUL	-13436
▁Tamil	-13437
▁dirty	-13438
▁disgu	-13439
▁doses	-13440
▁films	-13441
▁frame	-13442
▁shark	-13443
▁strip	-13444
▁swath	-13445
▁upris	-13446
▁vivid	-13447
benefit	-13448
general	-13449
icament	-13450
managed	-13451
million	-13452
onsense	-13453
politik	-13454
profile	-13455
▁Carter	-13456
▁Hassan	-13457
▁Nobody	-13458
▁Taylor	-13459
▁Things	-13460
▁covert	-13461
▁domain	-13462
▁eating	-13463
▁galvan	-13464
▁incurs	-13465
▁infant	-13466
▁organs	-13467
▁reiter	-13468
▁surged	-13469
▁yellow	-13470
thinking	-13471
▁200,000	-13472
▁Barroso	-13473
▁Drawing	-13474
▁Khodork	-13475
▁Senkaku	-13476
▁Winston	-13477
▁appease	-13478
▁cheaply	-13479
▁chooses	-13480
▁debacle	-13481
▁defines	-13482
▁hopeful	-13483
▁pulling	-13484
▁reminds	-13485
▁secrecy	-13486
▁squeeze	-13487
▁stature	-13488
▁staunch	-13489
▁upgrade	-13490
stitution	-13491
▁Austrian	-13492
▁Buddhist	-13493
▁Democrat	-13494
▁Muhammad	-13495
▁Salvador	-13496
▁answered	-13497
▁blessing	-13498
▁confirms	-13499
▁convened	-13500
▁delicate	-13501
▁develops	-13502
▁fortunes	-13503
▁heritage	-13504
▁inflated	-13505
▁jihadist	-13506
▁plastics	-13507
▁punished	-13508
▁reassure	-13509
▁remedies	-13510
▁supplied	-13511
▁tortured	-13512
confidence	-13513
fulfilling	-13514
▁Universal	-13515
▁Wolfowitz	-13516
▁alienated	-13517
▁assertion	-13518
▁collapses	-13519
▁encompass	-13520
▁interrupt	-13521
▁logistics	-13522
▁parallels	-13523
▁polarized	-13524
▁preceding	-13525
▁purchased	-13526
▁resisting	-13527
▁rivalries	-13528
▁sidelines	-13529
▁signaling	-13530
▁synthetic	-13531
▁uprisings	-13532
▁viability	-13533
▁Luxembourg	-13534
▁asymmetric	-13535
▁comprehend	-13536
▁depreciate	-13537
▁endangered	-13538
▁innovators	-13539
▁monopolies	-13540
▁thoughtful	-13541
▁variations	-13542
productivity	-13543
▁pessimistic	-13544
▁prosecutors	-13545
globalization	-13546
▁Khodorkovsky	-13547
▁overcapacity	-13548
▁underpinning	-13549
▁accommodation	-13550
15	-13551
ID	-13552
del	-13553
ppo	-13554
xon	-13555
▁38	-13556
Shia	-13557
ardo	-13558
aund	-13559
coin	-13560
hent	-13561
iche	-13562
khaz	-13563
lant	-13564
lium	-13565
poor	-13566
take	-13567
▁Hur	-13568
▁bom	-13569
▁upt	-13570
▁von	-13571
ambig	-13572
apego	-13573
aware	-13574
ivest	-13575
lical	-13576
▁2050	-13577
▁Deep	-13578
▁Karl	-13579
▁Seas	-13580
▁USSR	-13581
▁Work	-13582
▁aven	-13583
▁beef	-13584
▁cycl	-13585
▁glac	-13586
▁icon	-13587
▁offs	-13588
▁sche	-13589
▁zeal	-13590
akable	-13591
iteers	-13592
paying	-13593
ridden	-13594
strong	-13595
▁Abdel	-13596
▁Chern	-13597
▁Costa	-13598
▁Early	-13599
▁Guate	-13600
▁Osset	-13601
▁Super	-13602
▁ethos	-13603
▁misal	-13604
▁taxed	-13605
▁widen	-13606
habilit	-13607
keepers	-13608
serving	-13609
working	-13610
▁fusion	-13611
▁inclus	-13612
▁medioc	-13613
▁passes	-13614
▁rocket	-13615
▁spared	-13616
▁unimag	-13617
▁urging	-13618
iability	-13619
tradable	-13620
▁Academy	-13621
▁beating	-13622
▁clarify	-13623
▁curbing	-13624
▁emotion	-13625
▁impetus	-13626
▁injured	-13627
▁isolate	-13628
▁primacy	-13629
▁replied	-13630
▁scapego	-13631
▁seeming	-13632
▁teacher	-13633
▁tipping	-13634
▁undergo	-13635
▁wrought	-13636
strategic	-13637
▁Bulgaria	-13638
▁Medicaid	-13639
▁Millions	-13640
▁advocacy	-13641
▁aversion	-13642
▁commemor	-13643
▁deadlock	-13644
▁duration	-13645
▁enriched	-13646
▁homeland	-13647
▁magazine	-13648
▁punitive	-13649
▁rankings	-13650
▁withdrew	-13651
▁Currently	-13652
▁Francisco	-13653
▁audiences	-13654
▁brilliant	-13655
▁candidacy	-13656
▁conducive	-13657
▁enforcing	-13658
▁epidemics	-13659
▁hypocrisy	-13660
▁invisible	-13661
▁mercantil	-13662
▁murderous	-13663
▁pneumonia	-13664
▁Technology	-13665
▁authorized	-13666
▁determines	-13667
▁multipolar	-13668
▁recoveries	-13669
▁thoroughly	-13670
▁celebration	-13671
▁circulation	-13672
▁dismantling	-13673
▁orientation	-13674
▁overwhelmed	-13675
▁predicament	-13676
▁presupposes	-13677
▁unanimously	-13678
▁voluntarily	-13679
▁withdrawing	-13680
▁inefficiency	-13681
▁jeopardizing	-13682
▁disappearance	-13683
Os	-13684
-2.	-13685
ado	-13686
aka	-13687
ams	-13688
ona	-13689
ora	-13690
pse	-13691
usk	-13692
dule	-13693
iber	-13694
ithm	-13695
ukun	-13696
▁MIT	-13697
▁MPs	-13698
▁OMT	-13699
▁din	-13700
▁eve	-13701
▁tip	-13702
-2015	-13703
asset	-13704
chner	-13705
oment	-13706
raded	-13707
rahim	-13708
▁$300	-13709
▁Dmit	-13710
▁Hiro	-13711
▁Kofi	-13712
▁Pric	-13713
▁blat	-13714
▁drow	-13715
▁fits	-13716
▁hack	-13717
▁hect	-13718
▁kids	-13719
▁lows	-13720
▁wood	-13721
modern	-13722
parent	-13723
▁Exxon	-13724
▁Himal	-13725
▁Later	-13726
▁MILAN	-13727
▁Uribe	-13728
▁arose	-13729
▁downs	-13730
▁faire	-13731
▁lofty	-13732
▁spots	-13733
▁stops	-13734
▁subsc	-13735
▁taboo	-13736
taining	-13737
▁10,000	-13738
▁Abkhaz	-13739
▁Accord	-13740
▁Karzai	-13741
▁aiming	-13742
▁client	-13743
▁engulf	-13744
▁finger	-13745
▁framed	-13746
▁handed	-13747
▁lament	-13748
▁occupy	-13749
▁pestic	-13750
▁prolif	-13751
▁submit	-13752
esterday	-13753
▁Greater	-13754
▁cholera	-13755
▁fatigue	-13756
▁leisure	-13757
▁lengthy	-13758
▁redress	-13759
▁revenge	-13760
▁risking	-13761
▁segment	-13762
▁smarter	-13763
▁widened	-13764
▁yielded	-13765
▁Damascus	-13766
▁Facility	-13767
▁Xinjiang	-13768
▁converge	-13769
▁inferior	-13770
▁populous	-13771
▁recourse	-13772
▁solvency	-13773
▁sterling	-13774
generation	-13775
▁Catholics	-13776
▁assembled	-13777
▁automated	-13778
▁basically	-13779
▁computing	-13780
▁confronts	-13781
▁defenders	-13782
▁deploying	-13783
▁rehabilit	-13784
▁reporters	-13785
▁shattered	-13786
▁untenable	-13787
▁capitalize	-13788
▁cyberspace	-13789
▁hypothesis	-13790
▁sovereigns	-13791
▁Information	-13792
▁campaigning	-13793
▁disciplines	-13794
▁examination	-13795
▁imperialism	-13796
▁ministerial	-13797
▁underscored	-13798
▁coordinating	-13799
▁externalities	-13800
▁supranational	-13801
90	-13802
ña	-13803
New	-13804
aza	-13805
iah	-13806
igl	-13807
pie	-13808
▁75	-13809
▁OS	-13810
▁VI	-13811
...”	-13812
akis	-13813
arty	-13814
bond	-13815
deep	-13816
dent	-13817
etty	-13818
lick	-13819
obyl	-13820
othe	-13821
pers	-13822
riel	-13823
▁14%	-13824
▁18%	-13825
▁95%	-13826
▁Amb	-13827
▁Bon	-13828
▁Fam	-13829
▁Sar	-13830
▁dra	-13831
▁dup	-13832
▁gau	-13833
▁sla	-13834
agall	-13835
alism	-13836
isted	-13837
steps	-13838
urate	-13839
▁Clos	-13840
▁Dist	-13841
▁Else	-13842
▁Fair	-13843
▁Fort	-13844
▁Lear	-13845
▁Pent	-13846
▁Plen	-13847
▁bars	-13848
▁clim	-13849
▁dent	-13850
▁hole	-13851
▁holy	-13852
▁leak	-13853
▁lean	-13854
▁mask	-13855
▁nice	-13856
▁rape	-13857
▁song	-13858
▁tall	-13859
▁tent	-13860
ANFORD	-13861
aneous	-13862
arther	-13863
enders	-13864
odshed	-13865
omeini	-13866
▁2004.	-13867
▁Along	-13868
▁Faced	-13869
▁Insur	-13870
▁Macro	-13871
▁Peres	-13872
▁Press	-13873
▁autoc	-13874
▁cheer	-13875
▁knock	-13876
▁looph	-13877
▁reval	-13878
▁slide	-13879
▁spoil	-13880
▁stars	-13881
▁stone	-13882
archies	-13883
ettered	-13884
healthy	-13885
ialogue	-13886
iscally	-13887
lasting	-13888
natural	-13889
olation	-13890
oufakis	-13891
rection	-13892
repared	-13893
▁Aleppo	-13894
▁Balkan	-13895
▁Columb	-13896
▁Compet	-13897
▁Morgan	-13898
▁Nordic	-13899
▁Thirty	-13900
▁adoles	-13901
▁brains	-13902
▁breach	-13903
▁contam	-13904
▁diseng	-13905
▁divert	-13906
▁helium	-13907
▁racist	-13908
▁scenes	-13909
▁staged	-13910
▁stolen	-13911
▁thwart	-13912
▁wholes	-13913
Pakistan	-13914
▁Experts	-13915
▁Himalay	-13916
▁Murdoch	-13917
▁Snowden	-13918
▁disdain	-13919
▁fascism	-13920
▁fearing	-13921
▁holiday	-13922
▁license	-13923
▁premise	-13924
▁prisons	-13925
▁repatri	-13926
▁session	-13927
▁slavery	-13928
▁summits	-13929
▁unambig	-13930
organized	-13931
▁Khomeini	-13932
▁adapting	-13933
▁athletes	-13934
▁branches	-13935
▁catalyze	-13936
▁drilling	-13937
▁electron	-13938
▁handling	-13939
▁inconven	-13940
▁infamous	-13941
▁paternal	-13942
▁rainfall	-13943
▁resolute	-13944
▁severity	-13945
▁tolerant	-13946
▁traveled	-13947
antitative	-13948
▁behaviors	-13949
▁bolstered	-13950
▁converted	-13951
▁designing	-13952
▁deterrent	-13953
▁importers	-13954
▁petroleum	-13955
▁subsidize	-13956
▁therapies	-13957
▁transcend	-13958
▁campaigned	-13959
▁conception	-13960
▁department	-13961
▁injections	-13962
▁maximizing	-13963
▁overvalued	-13964
▁preferable	-13965
▁prudential	-13966
▁translated	-13967
▁underscore	-13968
▁xenophobia	-13969
▁Agriculture	-13970
▁acquisition	-13971
▁corporation	-13972
▁investigate	-13973
▁nationality	-13974
▁proportions	-13975
▁condemnation	-13976
▁shortsighted	-13977
▁radicalization	-13978
NE	-13979
PI	-13980
ST	-13981
és	-13982
You	-13983
hew	-13984
ila	-13985
pos	-13986
uns	-13987
▁34	-13988
▁Fe	-13989
azir	-13990
eder	-13991
eous	-13992
furt	-13993
mand	-13994
▁Bit	-13995
▁Cho	-13996
▁FBI	-13997
▁Min	-13998
▁Vot	-13999
▁nut	-14000
▁pac	-14001
South	-14002
arist	-14003
elior	-14004
maker	-14005
pling	-14006
setts	-14007
ukuni	-14008
▁$1.5	-14009
▁0.7%	-14010
▁Coll	-14011
▁Data	-14012
▁Fall	-14013
▁Ryan	-14014
▁bent	-14015
▁carn	-14016
▁fest	-14017
▁flam	-14018
▁sand	-14019
▁visa	-14020
Russia	-14021
atched	-14022
eating	-14023
etched	-14024
losion	-14025
orable	-14026
ousing	-14027
return	-14028
▁Anwar	-14029
▁Based	-14030
▁Guang	-14031
▁Trust	-14032
▁ghost	-14033
▁looms	-14034
▁pilot	-14035
▁smoke	-14036
▁undes	-14037
amental	-14038
entiful	-14039
fashion	-14040
skilled	-14041
▁Chechn	-14042
▁Nature	-14043
▁Santos	-14044
▁Taking	-14045
▁astron	-14046
▁bullet	-14047
▁embold	-14048
▁frozen	-14049
▁motive	-14050
▁salary	-14051
▁testim	-14052
▁wholly	-14053
▁Azerbai	-14054
▁Control	-14055
▁Efforts	-14056
▁Medical	-14057
▁Respons	-14058
▁Working	-14059
▁amelior	-14060
▁chaotic	-14061
▁dragged	-14062
▁dynasty	-14063
▁erratic	-14064
▁indices	-14065
▁intrins	-14066
▁married	-14067
▁suspend	-14068
▁tripled	-14069
▁writers	-14070
immigrant	-14071
▁STANFORD	-14072
▁Slovakia	-14073
▁Yasukuni	-14074
▁arsenals	-14075
▁combines	-14076
▁fiscally	-14077
▁premiums	-14078
▁relating	-14079
▁requests	-14080
▁rewarded	-14081
▁schedule	-14082
▁settlers	-14083
▁societal	-14084
▁tempting	-14085
▁uniquely	-14086
▁unveiled	-14087
▁worsened	-14088
▁Elsewhere	-14089
▁acquiring	-14090
▁bloodshed	-14091
▁diagnosed	-14092
▁employing	-14093
▁expecting	-14094
▁impartial	-14095
▁textbooks	-14096
▁turbulent	-14097
▁Brexiteers	-14098
▁attainment	-14099
▁circumvent	-14100
▁completing	-14101
▁conscience	-14102
▁devastated	-14103
▁excitement	-14104
▁federalism	-14105
▁leveraging	-14106
▁lifestyles	-14107
▁measurable	-14108
▁offsetting	-14109
▁physicians	-14110
▁powerhouse	-14111
▁vigorously	-14112
▁Recognizing	-14113
▁depreciated	-14114
▁humiliating	-14115
▁legislature	-14116
▁overheating	-14117
▁refinancing	-14118
▁attributable	-14119
▁mobilization	-14120
▁modification	-14121
▁safeguarding	-14122
▁Enlightenment	-14123
▁attractiveness	-14124
Ob	-14125
Sax	-14126
Ste	-14127
bad	-14128
▁3,	-14129
▁33	-14130
▁39	-14131
▁Di	-14132
▁IV	-14133
achu	-14134
arag	-14135
best	-14136
ikud	-14137
laus	-14138
olic	-14139
post	-14140
rape	-14141
▁0.2	-14142
▁BEA	-14143
▁Gam	-14144
▁NTC	-14145
▁rom	-14146
avals	-14147
erion	-14148
surge	-14149
urban	-14150
▁2018	-14151
▁9/11	-14152
▁Canc	-14153
▁Case	-14154
▁Prof	-14155
▁Sett	-14156
▁Viol	-14157
▁adam	-14158
▁plug	-14159
▁soci	-14160
▁unre	-14161
ancies	-14162
equity	-14163
formed	-14164
hecked	-14165
iosity	-14166
▁Ahmed	-14167
▁Lower	-14168
▁affil	-14169
▁burge	-14170
▁codes	-14171
▁decay	-14172
▁dread	-14173
▁encro	-14174
▁grapp	-14175
▁hosts	-14176
▁hotel	-14177
▁indul	-14178
▁kilog	-14179
▁loved	-14180
▁mines	-14181
▁motor	-14182
▁prote	-14183
▁resid	-14184
▁vowed	-14185
imposed	-14186
iteracy	-14187
licting	-14188
violent	-14189
▁Andrew	-14190
▁Samuel	-14191
▁allied	-14192
▁aspire	-14193
▁bother	-14194
▁church	-14195
▁coined	-14196
▁enters	-14197
▁intend	-14198
▁ironic	-14199
▁laying	-14200
▁racism	-14201
▁resett	-14202
▁revise	-14203
▁shaken	-14204
▁strive	-14205
▁topics	-14206
Atlantic	-14207
Steagall	-14208
ogeneous	-14209
pectedly	-14210
▁Nicarag	-14211
▁Suppose	-14212
▁chapter	-14213
▁commens	-14214
▁deepest	-14215
▁designs	-14216
▁inflict	-14217
▁inhibit	-14218
▁killers	-14219
▁mankind	-14220
▁pretend	-14221
▁scholar	-14222
▁starkly	-14223
▁vessels	-14224
achusetts	-14225
exporting	-14226
valuation	-14227
▁Chechnya	-14228
▁Consumer	-14229
▁Election	-14230
▁burdened	-14231
▁calculus	-14232
▁compound	-14233
▁diarrhea	-14234
▁dropping	-14235
▁equation	-14236
▁friction	-14237
▁goodwill	-14238
▁outgoing	-14239
▁prudence	-14240
▁sanction	-14241
▁smoothly	-14242
▁stresses	-14243
▁tribunal	-14244
▁virtuous	-14245
▁Frankfurt	-14246
▁adjusting	-14247
▁combining	-14248
▁dismantle	-14249
▁displayed	-14250
▁inspiring	-14251
▁intensive	-14252
▁interfere	-14253
▁lawmakers	-14254
▁lingering	-14255
▁lobbyists	-14256
▁plentiful	-14257
▁unchecked	-14258
▁underpins	-14259
▁unsuccess	-14260
▁victories	-14261
▁Azerbaijan	-14262
▁Corruption	-14263
▁bolstering	-14264
▁championed	-14265
▁courageous	-14266
▁hardliners	-14267
▁ideologies	-14268
▁implicitly	-14269
▁minimizing	-14270
conservative	-14271
▁Scandinavian	-14272
▁continuation	-14273
▁consciousness	-14274
▁contradictions	-14275
GEN	-14276
ahn	-14277
bro	-14278
han	-14279
iov	-14280
opp	-14281
two	-14282
vic	-14283
▁Na	-14284
▁€3	-14285
abad	-14286
lide	-14287
lood	-14288
zhou	-14289
▁12.	-14290
▁lav	-14291
▁lip	-14292
▁rud	-14293
▁sag	-14294
Great	-14295
chant	-14296
ifada	-14297
ilton	-14298
orous	-14299
plant	-14300
röder	-14301
▁Alas	-14302
▁Bure	-14303
▁Cond	-14304
▁Jobs	-14305
▁OSCE	-14306
▁Rica	-14307
▁arts	-14308
▁biom	-14309
▁conj	-14310
▁mode	-14311
author	-14312
ifting	-14313
ndrome	-14314
▁Armed	-14315
▁Dubai	-14316
▁Likud	-14317
▁blocs	-14318
▁crony	-14319
▁erupt	-14320
▁hawks	-14321
▁highs	-14322
▁noble	-14323
▁purge	-14324
▁subdu	-14325
▁upset	-14326
Semitic	-14327
ignment	-14328
science	-14329
seeking	-14330
▁Bernie	-14331
▁Carney	-14332
▁Cities	-14333
▁Coming	-14334
▁Munich	-14335
▁Orange	-14336
▁Wealth	-14337
▁barbar	-14338
▁blocks	-14339
▁contra	-14340
▁couldn	-14341
▁fixing	-14342
▁hiding	-14343
▁livest	-14344
▁metrop	-14345
▁muscle	-14346
▁phased	-14347
▁redund	-14348
▁spokes	-14349
▁stayed	-14350
▁surrog	-14351
atisfact	-14352
▁Besides	-14353
▁Bosnian	-14354
▁Getting	-14355
▁belongs	-14356
▁convene	-14357
▁cronies	-14358
▁objects	-14359
▁polling	-14360
▁railway	-14361
▁selfish	-14362
▁warrant	-14363
continent	-14364
emocratic	-14365
fashioned	-14366
ividually	-14367
▁Einstein	-14368
▁attached	-14369
▁clothing	-14370
▁dilemmas	-14371
▁diplomat	-14372
▁shoulder	-14373
▁shutdown	-14374
▁sponsors	-14375
▁strained	-14376
▁subprime	-14377
▁supplier	-14378
▁tracking	-14379
[...]
